[PAD]
[UNK]
[START]
[END]
!
"
#
$
%
&
'
(
)
*
+
,
-
.
/
0
1
2
3
4
5
6
7
8
9
:
<
=
>
?
@
A
B
C
D
E
F
G
H
I
J
K
L
M
N
O
P
Q
R
S
T
U
V
W
X
Y
Z
[
\
]
^
_
`
a
b
c
d
e
f
g
h
i
j
k
l
m
n
o
p
q
r
s
t
u
v
w
x
y
z
{
|
}
~
the
of
to
and
in
is
The
for
was
are
that
has
be
on
not
##s
have
this
it
will
with
by
been
It
at
you
This
said
But
as
were
from
He
he
India
his
also
no
all
an
had
What
There
We
BJP
can
their
Minister
do
we
them
they
your
one
police
##ing
They
people
government
should
Congress
about
or
who
time
Rs
there
case
In
our
him
Modi
against
out
up
what
film
two
##ed
How
its
Indian
first
her
other
which
more
##a
did
over
so
would
However
state
You
new
##d
us
No
after
very
into
God
Police
need
Its
being
many
me
Prime
any
know
##ly
day
work
such
So
water
some
made
but
country
good
like
when
Singh
take
registered
life
these
That
my
taken
And
here
Delhi
dont
Jehovah
am
##e
She
Narendra
only
Why
than
children
present
too
well
##i
##er
come
Gandhi
Kumar
three
get
Chief
crore
incident
between
party
lakh
make
##y
she
world
does
how
then
must
under
Karnataka
All
just
family
Jesus
if
per
others
New
place
minister
Pakistan
those
For
help
could
done
way
yet
accused
##t
hospital
##n
arrested
Rahul
love
given
president
go
number
much
##r
10
shall
same
different
before
##al
most
President
during
students
chief
took
say
even
injured
both
State
Government
PM
while
meeting
If
home
going
health
through
important
won
man
action
Khan
His
Bible
women
down
see
Court
Do
former
court
death
part
leaders
son
As
Is
district
things
Thats
may
Mumbai
When
off
wife
matter
Pradesh
##es
spot
last
movie
problem
want
decision
Who
among
days
right
never
back
leader
every
social
money
still
media
says
each
power
house
##h
regard
farmers
use
died
used
where
elections
These
##l
city
name
year
set
cases
Then
few
team
situation
Sharma
Gods
killed
came
question
Some
next
several
already
000
station
another
great
four
second
Here
Sabha
long
soon
asked
far
held
away
found
later
issue
why
including
again
due
high
got
15
years
because
People
own
20
Tamil
called
give
Union
lot
On
To
Jehovahs
become
members
didnt
19
available
Many
One
cannot
Not
body
Bengaluru
together
went
development
Dont
needs
true
law
Kohli
National
win
men
##m
video
various
After
At
officials
immediately
##o
known
however
World
times
cent
support
Shah
father
across
investigation
around
complaint
nothing
school
seen
woman
started
##ers
political
mother
old
actor
parents
happened
12
Kashmir
look
occasion
special
Kannada
heart
role
story
50
seats
doing
reason
information
problems
Bank
best
person
temple
fire
election
food
Lok
end
Bollywood
news
US
order
##an
five
Whats
without
road
attack
example
public
Two
Former
always
answer
further
lost
area
left
told
easy
CM
Virat
system
now
##on
process
land
following
reported
Supreme
lead
anything
report
change
face
treatment
child
Kapoor
daughter
match
##k
Our
released
car
include
politics
really
Shri
##u
added
happy
put
Theres
security
100
Both
education
keep
led
states
thing
big
think
persons
films
possible
Maharashtra
hand
filed
programme
don
along
comes
wrong
##th
sent
##ness
directed
truth
received
Im
month
Home
might
total
More
questions
##ment
Dr
saying
25
Kerala
working
Gujarat
happen
Are
series
based
event
national
11
South
unto
start
today
14
Hindi
free
runs
CBI
30
friends
local
market
Amit
An
announced
blood
post
better
small
difficult
Where
result
price
prices
visit
dead
China
accident
currently
Let
cricket
full
since
girl
history
top
launched
earth
High
cause
read
third
continue
large
engine
everyone
Test
features
mind
oil
show
find
service
connection
Israel
music
official
live
simple
Sri
became
human
let
details
With
candidate
taking
West
play
##0
admitted
Everyone
spirit
something
coming
making
captain
future
words
Bangalore
Health
Add
list
faith
final
demanded
needed
MP
isnt
workers
Ram
attended
gone
areas
married
Central
Party
hard
##able
13
District
My
Read
Shetty
16
countries
Indias
side
Australia
Jammu
form
##or
Paul
job
Kumaraswamy
anyone
JD
candidates
major
upon
control
account
doesnt
gave
18
husband
young
reached
behind
Telugu
bus
protest
reasons
suicide
results
lives
phone
Assembly
fight
Day
MLA
level
##ra
##te
camera
ready
book
Yadav
care
company
feel
likely
director
provide
written
Of
expected
everything
played
study
2020
Christian
brought
peace
##ation
experience
participated
17
increase
University
David
Yahweh
##ity
According
ones
though
##2
diesel
cant
loss
senior
murder
Lord
getting
often
shared
king
project
##nt
course
understand
single
##rs
talk
common
nation
night
works
date
issues
Rajasthan
cost
bring
21
means
Uttar
game
Ministry
Your
Kingdom
entire
Also
popular
recently
head
rushed
##ic
Yes
500
gold
himself
release
rain
schools
statement
front
wrote
COVID
huge
response
Students
language
sons
word
##la
little
IPL
##5
business
Christians
Director
member
England
age
responsibility
till
village
##ion
main
informed
private
##le
decided
international
provided
ways
thats
run
brothers
learn
##na
office
respect
##ful
believe
##4
Christ
Witnesses
able
within
MLAs
bank
interest
##g
##in
vehicles
ever
having
Hyderabad
issued
viral
clear
required
LORD
eyes
close
hit
lodged
poor
Act
open
Other
meet
##S
##ia
Department
kind
tell
Twitter
driver
serious
Rohit
##6
increased
##pur
medical
##ting
40
Nadu
earlier
week
Siddaramaiah
##ive
200
Punjab
petrol
six
society
actress
services
##am
##less
Three
marriage
strong
bad
changed
##p
view
Centre
speak
##ts
Station
began
condition
disease
##ya
##3
24
enough
relationship
Bengal
Hence
healthy
living
fear
pay
Hindu
field
necessary
parties
parts
##ling
##ry
International
congregation
General
charge
##us
Nobody
First
crores
Their
paid
English
building
##1
couple
steps
##en
##R
months
move
Bihar
Education
hands
traffic
##C
##ar
litre
helps
quite
teams
near
officer
22
salt
stars
Her
2019
positive
remain
##b
benefit
once
test
Commissioner
Only
Such
eat
injuries
personal
spiritual
else
whole
general
houses
Cup
doctor
##ted
States
##7
Vijay
thought
activities
real
secretary
##8
Secretary
light
towards
Most
group
point
Development
largest
makes
Deputy
allowed
places
Army
Rao
##ri
Can
Dhoni
Reddy
Be
Chennai
according
growth
pressure
Heres
changes
fact
produced
trying
Women
brother
function
raised
##ble
assembly
contest
early
using
plan
##9
Trump
conducted
data
families
speed
success
tax
United
attention
skin
Farmers
Several
award
below
central
followed
record
Cabinet
Justice
ministry
underway
Indians
either
try
Ali
Will
options
polls
HD
failed
hope
rate
Later
Salman
ask
benefits
involved
probe
While
takes
##est
alleged
##D
By
##ma
Water
million
period
personnel
roads
call
past
wasnt
position
add
beautiful
identified
teachers
daily
knowledge
mobile
passed
seat
stand
worked
efforts
nor
air
committee
Another
Hospital
key
##ur
heavy
holy
##ta
demand
industry
##man
Best
amount
named
##A
##T
##ch
offer
forward
heard
playing
seven
youth
##ha
Commission
message
thou
Air
Therefore
financial
religious
thy
Even
Prasad
low
points
war
John
cultural
fine
##et
fans
share
##ary
opportunity
completely
less
reports
until
##ne
investigating
prime
stop
victory
whom
hold
Don
Every
Take
card
During
governments
online
rains
##kar
North
quality
declared
leave
morning
religion
century
didn
economic
includes
themselves
vehicle
City
ministers
##ies
solution
sugar
Africa
Committee
officers
worry
ahead
created
deal
##ce
##tion
visited
##re
basis
colour
met
shot
address
deceased
follow
languages
##z
Have
authorities
half
vote
Tata
least
yourself
Patel
Special
Yet
banks
spread
tweeted
Gowda
highest
rest
return
Election
department
purpose
region
successful
Parliament
claimed
districts
Finance
Maruti
culture
turned
technology
happens
happening
launch
From
Life
current
global
moved
patients
Over
Raj
appointed
kids
##ka
Mr
alone
gets
allow
clean
formed
picture
wanted
##B
Priyanka
related
step
therefore
Goa
School
caused
pain
scored
sure
60
players
built
season
##I
roles
spoke
##ty
Each
consider
doctors
leading
self
Actor
river
##M
progress
turn
##ge
2018
Andhra
Father
offered
serve
value
expressed
saw
similar
Ramesh
regarding
Nothing
town
Madhya
joined
Suzuki
affected
birth
cash
coronavirus
letter
natural
reach
rich
completed
sources
trust
##as
About
knows
passengers
suffering
Krishna
discussed
moment
act
art
continued
wickets
Good
cities
effect
stopped
Ravi
Sonia
alliance
km
##ent
Those
star
cancer
certain
higher
stated
Cricket
Lets
Sena
Temple
above
mean
Senior
economy
scheme
strength
Now
complete
rise
train
##ate
Children
Everything
looking
rules
constituency
evidence
sleep
##P
##ns
Thus
black
hair
income
23
custody
examples
festival
kept
student
term
##c
Board
TV
evening
outside
Affairs
Muslim
included
opposition
sector
short
College
Constitution
cooperation
page
percent
join
##ant
especially
located
model
weight
Facebook
citizens
giving
line
rule
wants
##um
considered
28
choice
measures
thee
violence
##ve
Which
non
goes
production
risk
voice
facing
fall
milk
##ist
Anushka
Arjun
Bangladesh
Medical
application
article
ground
rejected
Muslims
concerned
presided
served
training
Award
accepted
research
Aadhaar
anti
campaign
examination
forces
remember
ye
##st
May
Road
committed
drinking
products
##L
daughters
difference
environment
rights
shooting
neither
song
worth
Because
Malayalam
Word
discussion
worship
Team
Zealand
apply
fast
plays
avoid
class
increasing
stay
watch
##ism
Ministers
Shiv
cut
remains
Bharat
Or
seriously
treated
Council
nations
die
operation
wedding
upcoming
300
accept
celebrated
drink
inside
organised
##E
Meanwhile
impact
movies
re
staff
##ter
Since
active
begin
offering
search
soldiers
See
construction
loved
community
continues
democracy
force
BCCI
gives
rally
##hi
press
whether
##ni
born
energy
pictures
votes
##led
Bachchan
FIR
damaged
elected
##de
Earlier
employees
foreign
proper
sports
##v
names
tried
Love
budget
dream
##age
##ian
challenge
devotees
safety
space
legal
symptoms
talks
helped
Haryana
ensure
speaking
##is
##x
26
70
Kolkata
dies
late
performance
physical
torque
app
deaths
majority
protests
Sanjay
35
House
ceremony
friend
justice
maintain
population
users
##sh
80
humans
safe
shows
site
someone
vegetables
vice
petition
plans
supply
Shivakumar
feet
inquiry
carried
competition
confidence
felt
idea
Article
freedom
prepared
revealed
winning
April
conference
responsible
songs
##G
##el
Just
policy
##ning
American
King
arrest
hear
sister
travel
##se
faithful
laws
save
##ous
400
events
matches
stage
attend
biggest
build
enjoy
facilities
seized
Moses
books
companies
nature
offers
powder
rape
refused
Opposition
create
developed
feature
reality
thinking
thus
Prakash
extremely
joy
knew
talking
##ng
GST
Rajya
capital
##da
Four
crime
exercise
happiness
rural
unique
##ll
Suresh
improve
jobs
mentioned
Keep
false
forget
loving
option
Anil
Following
Man
Peter
Rajnath
Security
answers
electric
focus
lose
returned
wont
Besides
Food
actually
onion
##at
ICC
Sachin
agreed
##ji
Arun
Kejriwal
causes
matters
photo
source
speech
suffered
Please
boy
growing
looked
projects
##li
##line
Public
Yeddyurappa
check
fourth
loan
receive
remained
sense
notice
sought
spoken
wait
##ti
Chinese
administration
battle
cricketer
listen
opportunities
##va
Lanka
toward
trees
##eth
##ping
Defence
Governor
Institute
charges
closed
##ance
Rai
Vice
agree
none
servants
##ial
##ned
Bill
Super
bodies
choose
essential
groups
prevent
silver
cars
critical
design
fell
performed
sea
villages
white
Deepika
Did
green
movement
rear
recorded
recovered
session
Dinesh
Instagram
Pakistani
awards
aware
cast
confirmed
##O
decide
degree
interesting
levels
recent
##ine
additional
ago
arrived
doubt
verdict
Corporation
border
innings
lower
##ors
Family
coach
direction
games
powered
red
##tor
acted
board
college
cup
handed
management
ordered
pray
survived
##f
Google
Shankar
distributed
door
numbers
##F
Does
approved
centre
conditions
equal
implemented
phase
rates
urged
Use
bail
proud
room
Jerusalem
Law
League
afraid
animals
garlic
tournament
Group
ancient
bit
hasnt
protect
spent
Ashok
accounts
buy
corruption
fellow
heaven
immediate
presented
Association
Honda
Ive
addition
denied
etc
hearing
incidents
itself
opened
usually
ODI
Patil
preaching
smartphone
suspended
teacher
##K
##bhp
##der
CCTV
Click
apostle
baby
destroyed
duty
meetings
missing
practice
wisdom
British
Son
Telangana
chairman
grow
invited
learning
modern
pass
storage
Chairman
Chopra
Nagar
RBI
forest
hospitals
lack
programmes
shifted
unit
June
rainfall
range
thousand
##nd
Mahindra
dangerous
normal
prayer
selected
Satan
detained
effects
eight
London
begun
ended
importance
write
27
Janata
attacks
effort
havent
##ding
Anand
Were
airport
fruits
leaves
player
##V
90
challenges
fully
soul
throughout
Hindus
Hyundai
file
jail
perfect
seeking
separate
trade
via
worried
Make
SP
Science
disciples
request
studies
teaching
waiting
##il
Parents
composed
debate
decisions
journey
note
##ah
##nce
Akshay
Android
Force
Kings
March
becomes
judge
leadership
mental
residents
sisters
##N
##Nm
Heavy
News
career
fee
indeed
military
occurred
opposed
##di
##ls
2017
Indies
conduct
fun
internal
juice
ourselves
powerful
proposal
severe
America
discuss
reply
theres
Arvind
Go
Happy
army
colours
demands
round
##Y
31
interview
##ure
BS
Dhawan
Rajiv
beginning
birthday
chance
everywhere
interested
multiple
provides
resignation
significant
sold
website
Technology
Time
allegations
effective
famous
girls
running
supported
BJPs
Open
allegedly
damage
granted
lies
##cy
Mahatma
Section
doesn
female
Well
believed
costs
funds
investment
maximum
reading
requires
thousands
whose
150
Motors
Today
attempt
coalition
enter
lakhs
medal
##ual
##w
Asia
Donald
Imran
Jaitley
almost
confident
diseases
fresh
motorcycle
property
Under
careful
hours
published
Petrol
Rural
Sunil
awarded
display
nearby
presence
reduce
respond
units
virus
29
Actress
Before
DK
Power
Thousands
basic
dry
forth
loans
massive
science
screen
strike
temples
winners
32
Additional
Mohammed
Music
carry
goal
lived
longer
sin
##dy
##men
East
actors
answered
primary
seek
terror
terrorists
tourists
Apart
Film
Social
Tendulkar
break
certainly
co
protection
tree
wicket
##ck
##hip
2016
JDS
KL
MPs
Mahesh
cold
eye
individual
nobody
posted
sexual
south
tough
##it
Check
Odisha
Pandey
RSS
advice
approach
previous
sales
wise
##ated
##up
July
Research
Swami
WhatsApp
anniversary
contact
entered
vs
##ally
asking
capacity
caught
draw
employment
fled
joint
45
Adityanath
Watch
announcement
colleges
deployed
lockdown
teach
types
wicked
Yoga
concern
direct
scene
terms
type
understanding
wins
##per
Further
NCP
Principal
Russia
chaired
dedicated
generation
meaning
minor
tbsp
comment
deep
expect
resigned
sharing
370
September
attitude
character
counsel
greater
image
looks
relief
skipper
toll
##ad
##ped
75
Amitabh
Assam
BSP
Psalm
Railway
Service
cinema
credit
defeat
facility
flood
govt
instead
placed
specific
temperature
terrorism
##har
##ised
Chhattisgarh
ball
begins
compensation
customers
evil
myself
seeds
##ring
Banerjee
Thank
Yogi
documents
elders
headed
host
plea
sides
status
strengthen
truly
walk
wish
##j
##war
Tax
appropriate
awareness
##mi
Judah
Thakur
activity
differences
domestic
individuals
serving
2014
Black
Matthew
agriculture
batsman
poll
railway
removed
reportedly
stress
undergoing
version
warm
##ities
250
Action
Auto
Coronavirus
MS
November
appeal
approval
bike
desire
easily
honour
hundred
hurt
managed
operations
prizes
remaining
review
ruling
stands
submitted
terrorist
##ating
##ging
##ries
Pune
assistance
holds
judicial
simply
subject
taught
Around
France
Hes
Manmohan
Work
assured
bench
broke
established
kill
shortage
sign
##ke
##tes
Consider
James
Officer
Youth
anger
attacked
bear
controversy
fuel
judgment
latest
peoples
prayers
protesters
providing
regular
regularly
wide
Japan
Manohar
Once
Otherwise
constituencies
cover
hath
promises
trains
welcome
##id
Mishra
Price
Red
Royal
Sushma
comments
dispute
faced
produce
rather
squad
tips
victim
Ahmed
Although
Among
Look
NDA
Sports
Very
achieve
alert
infrastructure
shown
size
title
##ram
##ut
##way
Moreover
Pandya
Whos
calls
locals
reporters
sad
vision
Five
Panchayat
box
claim
exist
inaugurated
instance
leads
limited
negative
opening
section
Gupta
Nirmala
ban
battery
electricity
entry
guilty
investigated
responded
sale
##les
gain
honoured
numerous
##ds
Internet
anointed
appeared
extended
homes
pepper
score
servant
War
beauty
becoming
contains
develop
ex
follows
mortem
seems
stone
Nitish
Scriptures
gift
illegal
institutions
relations
rescue
testing
##ba
2015
Mix
Ranveer
Sitharaman
atmosphere
dance
limit
slogans
sometimes
##tic
Ayodhya
Hardik
Indira
Joshi
Mangalore
October
Speaker
fathers
fruit
kg
megapixel
mix
priority
sacrifice
sound
truck
waste
##tors
Ahmedabad
GB
Padukone
Shiva
Still
affect
anybody
criminal
exam
organisations
participate
promise
signed
worlds
##ish
##ized
##kumar
##ppa
August
Bharatiya
Control
Diwali
Mysore
Nath
Rukh
Sinha
Swaraj
York
alive
bill
camp
commits
north
prize
sort
##ged
Deve
Gold
Theyre
advantage
appear
buses
cancelled
delivered
divided
heat
laid
manner
mishap
principles
questioned
sitting
spokesperson
thoughts
##han
Mangaluru
UK
defence
directly
highly
hot
killing
material
passes
tour
victims
##ise
##ul
Agriculture
External
Mohan
Step
contesting
deputy
distance
goals
introduced
learned
models
plant
touch
wonderful
fighting
noted
particular
photos
righteous
##ded
##ms
##ving
Information
Sometimes
birds
insurance
mouth
opinion
permission
scared
send
showed
struggle
transport
vital
##ie
##ro
34
AAP
December
Job
constructed
helping
infection
program
promised
species
surprised
taste
voters
writer
##nagar
##rate
Traffic
aircraft
arent
circumstances
drive
followers
pan
spend
##ct
##ner
33
Ambedkar
Currently
Egypt
Foreign
everybody
factors
feelings
finally
imposed
ongoing
overs
posts
writing
##ai
Railways
abroad
device
diet
discussions
filled
nearly
quickly
relatives
target
teaspoon
Child
History
Kareena
Mother
Though
forever
fulfilled
marks
minimum
receiving
##cing
##ga
##nath
Budget
CEO
Covid
Mamata
Mohammad
Mysuru
Post
audience
boost
learnt
memory
prophet
threat
weeks
##ak
##ide
##ments
Business
Iran
Shikhar
Smith
angry
banned
de
product
views
warned
##land
800
Everybody
French
Limited
Yediyurappa
causing
communication
creation
dismissed
flesh
independent
particularly
resources
rice
trouble
upset
##ps
Fire
Modis
achieved
connected
investigations
sustained
whats
##om
Europe
Sushant
category
correct
feeling
fields
journalist
organisation
patient
prove
reduced
stood
stories
##cc
Afghanistan
Jain
KPCC
Money
Out
access
associated
driving
floor
link
mistake
quit
raped
style
##ee
##ward
Civil
Ganesh
Hegde
SUV
acting
belong
debut
described
exact
fish
plants
statements
##ir
##ists
##raj
January
Like
Manish
SC
arrangements
beat
chopped
couldnt
planning
priest
schemes
secret
table
##ala
##nder
Devi
Israelites
Jews
Others
Pulwama
amazing
billion
carrying
crops
eating
leg
medicines
payment
perhaps
permanent
##ious
##vi
Get
Kovind
Ltd
Should
Sindhu
deliver
failure
increases
inspired
militants
please
prepare
referred
respectively
rising
saved
television
Abraham
Assistant
Authority
gas
markets
thank
watching
##ence
##ered
##sed
Isaiah
Jadhav
Rajkumar
Rajput
Second
brand
compared
historic
impossible
injury
keeping
losing
punishment
ruled
shut
talked
welcomed
##tra
125
Abhishek
Due
Games
MoU
White
celebrations
experienced
flight
mark
priced
produces
righteousness
statue
warning
##H
##ny
##out
Ajay
Germany
Has
Rajesh
caste
charged
command
cylinder
degrees
encounter
prominent
properties
qualities
rupees
welfare
whatever
##U
##ile
##tive
##wal
Candidates
Come
Jharkhand
Top
anywhere
average
beyond
blessings
crisis
items
older
orders
records
sight
ten
Great
Kuldeep
Teachers
Woman
bat
contribution
defeated
developing
legislators
literature
resolve
Asian
Drink
Fund
Srinagar
accompanied
burnt
cameras
commercial
definitely
falls
oath
occur
pandemic
suffer
villagers
worldwide
##ath
##ons
##red
##tha
2021
Bhatt
Municipal
Office
Speaking
addressed
heavenly
isn
kindness
mankind
selection
university
Academy
Give
Karan
Star
Various
aim
computer
countrys
dual
explain
explained
polling
standing
starting
weather
Oil
Services
Soon
experts
firm
onions
peak
proof
tea
wear
IT
Mahendra
Repeat
Republic
Show
Udupi
competitions
grant
hits
network
peaceful
route
tested
text
tweet
##ol
Aamir
Chandra
Class
Hundreds
Name
Pawar
Ranbir
Solomon
actions
bilateral
broken
complex
designed
expectations
moving
notes
pollution
resolved
technical
Aishwarya
Apple
IPC
Joseph
Marathi
Nepal
SBI
booked
busy
expensive
gearbox
glory
influence
mandatory
manufacturing
medium
phones
praise
rare
tests
ticket
trial
twice
ve
witness
##esh
##pe
Chidambaram
Verma
animal
cards
centuries
departments
depends
drugs
existing
grief
lying
pieces
platform
seem
straight
Babu
Govt
Monday
PTI
UP
annual
authority
flights
interests
internet
lie
meat
mixture
partner
properly
seeing
speaks
##bad
##ice
##ize
##to
37
Forest
Greek
Human
Jio
Local
Note
agency
background
base
civil
equipment
exactly
finance
nine
path
requested
resulted
tradition
variants
younger
##iah
48
Nitin
None
Transport
Welfare
clothes
despite
favourite
forms
proposed
setting
strict
systems
yes
Naidu
Ravindra
River
Wash
blessed
emotional
farmer
favour
files
iPhone
lemon
pending
potential
resolution
scheduled
strongly
transferred
willing
##ash
##os
Chris
Economic
Kamal
Total
childhood
courage
demanding
kingdom
proved
standards
travelling
##ical
##ze
Big
Bumrah
Elections
Premier
Pro
Swamiji
batting
branch
digital
handle
leaving
politician
protestors
sheep
tsp
untoward
wash
##our
Officials
Similarly
ability
accidents
apex
clearly
conflict
estimated
fought
goods
original
priests
producer
##sing
Bajaj
Financial
Free
Rajinikanth
cautious
chosen
expression
extra
implementation
situated
standard
stations
unknown
##go
##ss
##un
Apply
Mary
Sunday
crucial
express
fair
flowers
hundreds
methods
remove
rose
solve
traditional
##ara
##ton
44
George
Photo
Shahid
Without
agreement
appealed
approached
centres
challenging
citizen
danger
enemies
fixed
highway
inch
plenty
pm
pre
survive
tourist
unity
values
##ani
##ions
##ties
Aaron
Advani
Ajit
Avoid
Despite
Eat
February
Start
Would
achievement
celebration
changing
claims
diabetes
emergency
finished
foods
guidelines
organization
paper
patience
pregnant
promote
scam
##ow
65
Doctors
Income
Investigation
Isnt
Saudi
activists
advised
auto
bowl
bridge
cool
edition
gathered
linked
miss
observed
planned
prison
require
shocked
surprise
variety
wishes
##co
##uring
36
Acts
Alia
Gauri
Motor
Select
Srinivas
argument
floods
guest
method
selling
shalt
signs
succeed
toss
videos
Himachal
Last
Saul
applications
bread
content
flour
hearts
ingredients
legs
marry
partnership
possibility
scale
shares
shops
summer
##king
##nts
Ganguly
Major
Mayor
association
avail
church
crowd
dreams
emerged
encourage
greatest
millions
recommended
seed
##ations
##isation
##pa
Agarwal
Ambani
Blue
ED
European
Luke
Mandya
Raja
Tests
Timothy
affairs
chilli
collapsed
elements
kings
showing
##ab
##ants
##pura
42
55
Adam
ISRO
automatic
brings
clash
covered
culprits
demise
engaged
exchange
identity
listening
medals
quick
stones
suspected
##hu
##ot
Fans
Green
Lal
ODIs
Picture
acts
aid
cabinet
code
comfort
conversation
firing
measure
offices
opposite
pretty
race
resign
supporting
##bs
999
Airport
Behold
Captain
Details
Nehru
Never
Rafale
asks
condemned
fake
revenue
survey
tongue
waters
##ver
600
Abdul
Amazon
Ask
Change
Kapil
Park
Russian
Vitamin
Washington
blast
certificate
east
punished
reaction
rivers
scientists
starred
studying
surprising
trailer
trained
uses
worker
##ular
Media
Saif
Society
balance
captured
comfortable
hate
iron
ji
parliamentary
sex
track
winter
youths
##X
##ay
##me
Jacob
Mark
Mukherjee
Next
Stadium
Tuesday
calling
coffee
complaints
creating
drug
executive
fat
foundation
harmony
initiated
installed
residence
sectors
spiritually
starts
tablespoon
task
violation
widely
##ery
38
Car
Management
Vajpayee
allows
balls
beneficial
concerns
confusion
contain
ginger
guidance
hotel
lesson
middle
mine
personality
salary
schedule
suspect
sword
totally
##ably
##ration
##wara
Amendment
BMW
CRPF
Death
Reliance
Toyota
Young
apostles
calm
collection
courts
destroy
faces
flow
ideas
location
moral
poverty
rupee
stayed
tells
wasn
##ari
##fully
##ible
##ves
CPI
Dal
Engineering
Prof
RCB
Selection
Thursday
Uttarakhand
Wednesday
banking
boys
commit
historical
kinds
notification
provision
remarks
stolen
unable
##ft
43
Land
anymore
arise
baptized
characters
citizenship
congratulated
disappointed
double
eventually
forced
god
holding
lake
mercy
plus
shoot
suggested
surely
transmission
##ki
Cauvery
TMC
Tell
Varanasi
Year
appreciated
arms
cholesterol
covenant
dropped
ends
everlasting
excellent
fit
founder
grown
guests
honey
hour
losses
manual
pages
perform
principal
religions
scientific
shock
sit
subsequently
successfully
urban
variant
visible
wine
yoga
##gs
##hood
##ising
##q
Ashwin
Australian
Gadkari
Global
Need
Scheme
Superintendent
agricultural
consult
deeply
finals
meal
responding
salvation
stable
studied
union
user
walked
##gar
##ization
##ks
##que
Bhuvneshwar
Boss
Could
Katrina
Launch
Lucknow
alcohol
convention
cry
extent
falling
fever
friendly
guard
identify
improved
lawyer
retired
voting
witnessed
##back
##oo
Dubai
Kaif
Steve
Try
UN
approves
behalf
cell
collision
complained
decades
delay
disaster
grand
panchayat
panel
paste
pride
privilege
raise
skills
smoking
solutions
struck
submit
ties
##ard
##op
##ron
Art
Company
Finally
Instead
NRC
Samsung
Trophy
arrangement
brain
closely
comprises
disrupted
encouraged
fifth
friendship
joining
medicine
park
preside
resurrection
semi
visitors
##cent
##ore
Know
Oh
Prices
Thackeray
True
bringing
butter
cells
classes
commanded
consists
cross
delayed
distribution
images
male
meant
moon
mostly
motor
neighbours
registration
sensor
singer
soft
tourism
treat
womens
##ral
##wa
41
Any
Citizenship
Express
Friday
Key
Prizes
Reserve
UPA
Whether
besides
celebrate
climate
concept
consequences
continuing
examined
grateful
honor
infected
lots
recovery
sections
slave
useful
##ini
##ue
Deepak
Heat
Jasprit
Joint
Malik
Roy
Symptoms
Think
Venugopal
addressing
alternative
appreciation
carefully
commitment
cooperate
detailed
elder
enjoyed
heavens
hike
keeps
kills
parking
premises
replied
troops
##bly
##ified
BS6
CAA
Code
Creator
Governments
Members
Proverbs
Rakesh
appearance
applied
appreciate
conducting
count
difficulties
exists
expanded
facts
likes
origin
politicians
precious
preparations
provisions
sell
stock
strategy
territory
##ability
##gal
Awards
Executive
FC
Foundation
Rama
Was
apart
drop
fighter
heads
mountain
producing
representatives
strange
streets
trip
##als
##time
Atal
Remember
Saina
Sandeep
Shami
Sharif
Six
Times
Tourism
Working
XI
congregations
error
fund
grew
investigate
lifestyle
lights
loves
pace
participants
powers
practical
procedure
professional
smart
voltage
wall
wheat
wind
##garh
##ification
##ran
Canada
Celsius
German
Gopal
Gundu
Hall
Harish
Lakshmi
Olympics
applicable
behold
connectivity
determined
devices
entertainment
experiences
felicitated
length
lines
mode
policemen
sweet
visiting
walls
wives
##ened
Jadeja
Sharad
Umesh
aspects
button
casualties
concerning
discharged
easier
frequently
gods
maintained
mention
murdered
objective
participation
passing
probably
ran
trials
worse
##ena
##ey
##ics
##ika
##ite
##ked
##nal
120
39
JNU
Sea
Shastri
T20I
aside
blocked
discipline
encouraging
engines
outstanding
postponed
questioning
software
soil
taxes
tired
update
##ber
##im
##ja
##zed
Banks
Credit
Islam
Manipur
Method
Pak
Pauls
Sciences
Town
agencies
belief
bound
categories
commission
distress
divine
figure
generally
height
inconvenience
initiative
mountains
multi
nice
premium
regions
sacred
united
walking
##son
Chahal
Choose
Corinthians
Mukesh
Pawan
RJD
Samajwadi
Trust
acres
belongs
blue
brigade
crash
eggs
illness
mistakes
outcome
represented
sentence
store
strengthening
##W
##ify
##izing
Application
Bigg
Enter
Festival
Naik
Narayan
Shraddha
appears
chapter
collapse
connect
cricketers
crop
limits
newspaper
protesting
reduces
satisfied
significance
slow
slowly
##ana
##iya
##set
99
Bengali
Devil
Galaxy
Patna
Pay
Press
Recently
Roman
Sanskrit
Tiwari
apps
aspect
assets
clashes
communities
conscience
crying
dark
headquarters
household
implement
larger
purchase
quoted
retirement
row
sins
tickets
understood
yellow
##ats
##her
##jan
##ley
##ria
Conference
Gandhis
Indeed
Pant
Pradhan
Ranjan
Romans
SIT
Subsequently
click
escaped
glad
heritage
instructions
knowing
loyal
manager
policies
smooth
window
##ans
##ier
##ings
##mm
##rated
##rating
##tory
##van
##za
64
700
Championship
Das
Environment
Follow
Japanese
Johar
Lankesh
Political
RAM
Sardar
Want
Warner
awaited
contribute
enable
entirely
explains
fired
harm
immense
mated
mighty
obtained
organized
overall
panic
penalty
recommendations
requirements
secure
shouldnt
sport
vaccine
##20
##ology
##rt
Courts
II
Korea
Mallya
PAN
Perhaps
Rajendra
Sridevi
Swamy
absolutely
adds
adequate
ashamed
buildings
chose
closer
debt
doubts
earned
escape
fashion
format
herself
lands
luck
owner
partys
passenger
plastic
recognised
register
relevant
rumours
secondary
sites
spotted
sun
supporters
wave
##ain
##bility
##ham
##io
##ip
144
Devendra
Haasan
Hero
Leave
Metro
Navy
Primary
Saturday
Schools
Street
Video
advance
altar
anxiety
arm
circuit
commissioner
engineering
fallen
garden
greatly
hasn
inaugurate
initially
lay
moves
output
password
paying
practices
pregnancy
pure
relationships
repeated
returning
scooter
surgery
transfer
wake
##room
2000
47
51
Bhat
Daniel
Directorate
Fadnavis
Help
Mobile
Nikhil
Personal
Policy
Pratap
Safety
THE
Zilla
author
blessing
bowling
bronze
businesses
decline
destruction
division
explanation
gathering
initial
judges
manufacturer
materials
mission
nomination
prayed
purposes
segment
silent
solved
southern
sufficient
super
surface
taluk
theatre
unveiled
weapons
##ita
##lo
Bombay
Case
Goyal
Ill
Italy
Manoj
Parameshwara
Private
Urban
Yuzvendra
assault
council
delivery
doubles
drought
equipped
except
fail
figures
fundamental
governor
highlights
integrity
keen
labour
letters
picked
principle
protein
rescued
shortly
structure
tribute
##em
##ering
##lan
Expo
Independence
Jaipur
KSRTC
Mission
Sourav
Vishnu
Youre
articles
bigger
constituted
consumption
educational
gifts
holiday
industrial
invest
lets
machine
merely
mixed
mothers
nab
prophecy
rail
resident
reveal
reward
situations
stronger
thanked
updated
wounded
##GB
##ger
##ied
##ins
##ium
##ush
Arabia
Leader
Mayank
Number
Parrikar
Pradeep
Project
artist
context
desires
dog
doors
drivers
entering
everyday
fan
footage
ill
industries
liked
manage
mere
preparing
putting
regional
reserved
sets
stages
thanks
turns
west
winner
##ag
##he
##med
##mer
##ome
##table
Babylon
Challengers
Christs
Cut
Dutt
Earth
Gautam
Holy
Industries
Kateel
Long
Sir
Thereafter
Treatment
Watchtower
Womens
attending
bagged
bought
bowler
controlled
coriander
currency
democratic
dollar
drama
ignored
legend
load
midst
pick
preach
protested
restrictions
seemed
settled
sick
sworn
tender
threatened
wearing
worst
##and
##gi
##ndra
##one
##sa
##ved
Bethel
Design
Hebrew
Managing
Politics
Pranab
Tiger
Village
batsmen
block
brown
channel
drawn
elderly
eligible
exception
expenses
globally
imitate
investments
labourers
metres
neck
opposing
outbreak
personally
recognized
respective
seventh
solid
temporary
thereafter
triple
weak
wild
##aj
##ees
##my
##tation
Al
Bhushan
Heart
Kharge
Madras
Manjunath
Nations
Old
Play
Protection
Redmi
Rights
Roads
Smart
Vikram
assigned
assignment
beaten
bed
breathing
capable
color
constantly
criticised
dedication
detail
download
existence
featured
fielded
involves
locations
master
messages
offerings
plane
returns
sacrifices
secular
street
suggestions
voted
wonder
##ast
##bar
##ces
##ets
##ight
##ters
##ys
##zing
53
Along
Federation
ID
Jan
Lalu
Men
Neither
Protest
Rawat
Revelation
Santosh
advantages
buying
catch
chairperson
charging
earthquake
emotions
exciting
harassment
hospitalised
lessons
liquor
listed
lovers
mass
northern
owned
palace
papers
pleasure
preparation
saith
select
smaller
turmeric
vast
windows
yours
##bal
##jit
##mal
##ple
49
Book
Brazil
DC
Features
Higher
Inspector
Janya
Kangana
Michael
Nevertheless
Nirav
Noah
Plus
Royals
SMS
Thanks
adding
although
burden
chicken
choices
contested
couples
criticism
enhance
excited
fray
governance
hill
legislative
newly
outrage
pioneer
ride
sky
solar
spreading
violent
withdrawn
##ages
##ched
##endra
##ess
##itation
##pal
##ph
##wan
##yan
2013
46
73
Agreement
Bihari
Chandigarh
Church
Ganga
Golden
Jayanti
Olympic
Rather
Sadananda
Samuel
Scriptural
Search
Taking
ZP
affects
certificates
cleared
consideration
contract
crude
darkness
dates
empty
examine
extend
fault
forgotten
ideal
improving
jewellery
kitchen
lifted
ll
mate
pair
piece
profit
shape
shop
shoulder
storm
talent
telling
thoroughly
widespread
witnesses
##are
##een
##ents
##eshwar
##kg
##ory
##sion
##uddin
2011
2012
59
Abdullah
Ananth
Cultural
Digital
Industrial
Karthik
Kodagu
Kumble
LED
Match
Mayawati
Nawaz
Set
Shreyas
Tom
abandoned
advanced
ascertained
assist
blame
conclusion
constitution
destination
fitness
introduce
magazine
overcome
poet
possession
reaching
reflect
rounder
superstar
tribe
universities
visits
wealth
##cal
##cks
##cle
##ght
##ld
##pt
##right
##work
Again
Allahabad
DMK
Energy
Islamic
Iyer
Jewish
Rahane
Rani
Satish
Series
Smriti
St
activist
advocate
afternoon
believers
consecutive
document
dress
enemy
expenditure
flag
infections
launches
olive
operated
participating
pleasant
positions
rooms
sexually
speaker
stability
trend
##cated
##dra
##ifies
##iva
##ler
##over
58
Card
Chandrayaan
Dalits
Dravid
Gehlot
Hassan
Head
Meeting
Parliamentary
Peace
Right
Training
Western
Yash
accurate
aims
allegation
amid
approximately
armed
arrives
attempts
burning
considering
contributed
counter
declined
difficulty
directors
evident
festivals
foot
jointly
locked
mutual
object
obvious
researchers
sensitive
sum
teachings
theory
upto
yourselves
##ches
##py
##sha
##shi
54
Benefits
Bibles
Britain
Having
ICICI
Irani
Jawaharlal
Kaur
Museum
Nissan
PV
Plan
Sara
Sudeep
Talk
Varun
Vinay
Weve
behaviour
cattle
cured
devotion
diversity
factor
grace
grams
inhabitants
pointed
portion
poster
reference
respected
searching
secured
selfie
staged
tributes
##ade
##des
##ening
##era
##ient
##pet
##ric
##swamy
##thi
52
ANI
Am
Cooperation
Ford
Judge
Ladakh
List
Nalin
Padma
Pakistans
Pictures
Place
Sarja
Skoda
Tripura
Up
appointment
breaking
eastern
fibre
forgive
golden
hosts
imagine
replaced
responsibilities
silence
skill
translated
tremendous
valid
valuable
wilderness
##ali
##ang
##du
##ila
Answer
Culture
Error
Gogoi
Hebrews
Indonesia
Memorial
Mitchell
NEW
NIA
Nehwal
Organisation
Professor
Silver
T20
USA
Vs
arrive
artists
bond
calcium
celebrities
commonly
cooking
dogs
duo
era
gradually
hast
intention
microSD
net
novel
ordinary
realise
slightly
stomach
supposed
tears
theme
thine
titled
western
wing
##ES
##MC
##by
##dar
##ire
##stic
##uri
56
Akhtar
Crime
Dakshina
Jai
Jayalalithaa
Martin
Rishabh
Same
Secondary
Shes
Vivekananda
Yojana
absconding
angel
attraction
beach
concluded
constant
developments
dialogue
diverse
farm
football
fraud
godly
iOS
independence
intense
joins
judgement
pattern
quarter
ranked
react
rival
slams
subjects
supports
triggered
universe
upper
##ake
##ale
##ase
##ction
##ff
##nda
##od
##ray
##sm
##ying
African
Causes
Christmas
Close
Dev
Eastern
Full
IAF
Kiran
Mallikarjun
Member
Mutt
Prince
Regional
Stay
academic
allocated
asserted
caution
chances
childrens
coastal
cook
core
counting
exams
fix
guide
harmful
inspiration
motorcycles
municipal
primarily
realize
recruitment
remembered
reservation
satisfaction
shocking
shouted
spokesman
stake
strengthened
tablespoons
traditions
unfortunate
updates
valley
youre
##anda
##ker
##ud
##ust
BENGALURU
Different
MG
Mount
Natural
Protests
Rashmika
System
admit
alongside
announce
arguments
balanced
bright
childs
collected
continuous
convicted
focused
hero
humble
intelligence
knees
obey
operate
photographs
remanded
samples
sessions
sixth
soldier
spending
staying
suit
suitable
##cies
##ders
##giri
##hana
##ians
##mination
##tar
62
85
Actually
Ajinkya
App
Co
Common
Congratulations
Electric
Goddess
Kalyan
Kane
Language
Left
Manager
Raju
Ravichandran
Report
ST
Singapore
Something
Through
Vivek
analysis
arrests
beneficiaries
chest
clarified
combat
contrary
contrast
controversial
convinced
cultivate
dinner
dwell
enabled
enjoying
facilitate
glass
hall
healthcare
heavily
museum
port
previously
profession
programs
pursue
refers
renowned
represent
rider
sending
sixes
sub
sudden
thereof
##J
##act
##ava
##cked
##ef
##old
180
95
ABS
Back
Bhopal
Blood
DELHI
Eve
Fortunately
Marriage
Nathan
Obama
Satans
Type
Whatever
Xiaomi
YouTube
adults
affection
bless
bones
breath
camps
conspiracy
displayed
drawing
gains
gratitude
honest
minds
nuclear
operating
qualify
rejoice
setup
suspects
thorough
venture
vitamin
wouldnt
##ap
##bha
##board
##fied
##iness
##ming
##ncy
##ong
##tal
##ung
1000
Addressing
Based
Brother
Bureau
Cook
Ex
Fort
Friends
Independent
Jaish
Jeremiah
KGF
Legal
Maybe
Me
Nadda
Online
Production
Rain
Rashtriya
Summit
Uddhav
achievements
amongst
architecture
biopic
challenged
channels
congratulate
discovered
draws
electoral
entrance
exit
external
filmmaker
formation
gather
generated
generations
humanity
indicate
luxury
occasions
partners
procession
processor
rock
sentiments
tense
toilets
transportation
usual
vacant
##aya
##dha
##els
##ience
##kal
##lled
##rat
##ses
##si
350
Cant
Chancellor
Charan
Engineer
Flipkart
Lake
Mandir
Nick
Peoples
Roshan
Sahitya
Space
Staff
Trade
Vinod
abuse
assistant
attendance
baptism
belonging
bottom
collaboration
cups
departed
expansion
fastest
gate
heed
lunch
margin
minerals
ministerial
permitted
physically
pivotal
possibilities
profile
repair
risks
smartphones
smile
smoke
stroke
technologies
##00
##TE
##ail
##hat
##iled
##ites
##lies
##nic
##ress
##rid
##tions
##ua
##ug
##wala
##wards
AICC
Aditya
Ben
Girl
Hope
Joshua
KTM
Nearly
Physical
Piyush
Put
Ranaut
Results
Small
Snapdragon
Sonam
TDP
Things
Vishwanath
agenda
bomb
fill
managing
norms
paise
pays
pleased
popularity
proceedings
ransom
root
sanctuary
singing
sleeping
specified
teaser
tied
tools
tweets
typically
wk
##PS
##ative
##has
##lay
##mic
##rian
##ship
##tics
##uru
##ute
Akhilesh
Dalit
Genesis
Getting
Insurance
Labour
Nayak
Rahman
Remove
Tim
USD
Valley
adverse
applies
bar
blind
bowled
condemn
conferred
covering
delight
digestion
divorce
earliest
electronic
farming
flat
forests
functions
gender
genuine
improvement
improves
liquid
menu
nominated
observe
performing
poetry
potato
promoting
prosperity
quiet
severely
strive
tally
termed
voter
wicketkeeper
##IJ
##ates
##eep
##ily
##shed
##use
##uts
##var
00
69
Agricultural
Anurag
Arora
Bluetooth
Championships
Club
Edition
Enforcement
HDFC
Hussain
Industry
Jonas
Legislative
Main
Mantri
Matt
Spirit
Strict
TVS
Third
Vehicles
Web
Yuvraj
adopted
agitation
backed
borders
breaks
coast
courses
delegation
directions
eagerly
ears
environmental
filing
fishermen
garbage
greetings
haven
helpful
imperfect
mid
mob
offence
owners
performances
phases
precautions
prophets
repeat
seconds
slain
split
strikes
tragedy
undertaken
violated
##ave
##eer
##lessness
##mates
##puri
##rain
##wed
63
Alok
Being
Birthday
Cancer
Chandrababu
Clean
Henry
Image
Mehta
Milk
Nagpur
Prize
Questions
Raghavendra
Ratna
Seven
Sheikh
Store
Unfortunately
Williamson
Windows
Witness
angels
annually
bearing
champion
citation
cleanliness
colleagues
combine
constitutional
customer
dealing
depth
discrimination
funny
inspected
involving
noticed
painful
pilot
predicted
psalmist
qualified
reviews
royal
ruler
seeks
slammed
sovereignty
suddenly
thick
throne
touched
veteran
##all
##fy
##gowda
##hed
##point
##port
##rant
##rd
##uch
##unt
##ware
##water
68
Airtel
Bharti
Body
CBSE
Chiranjeevi
Commerce
Corruption
Diesel
Hollywood
Italian
Khanna
Lakh
Mirza
Mufti
Northern
Officers
Rana
Revenue
Rome
Self
Sugar
allowing
announces
boat
circulation
comprising
cooled
creates
crossed
defined
effectively
equality
explosion
factory
functioning
gained
husbands
ice
initiatives
invitation
journalists
laundering
lock
lucky
meals
native
ought
package
possess
releases
restricted
settings
ship
simultaneously
spouse
toilet
turning
watched
wished
writers
##ep
##ibility
##ives
##mon
72
Arunachal
Aug
BRICS
Find
Furthermore
Guru
IPS
Jason
Learning
Mercedes
Nobel
Programme
Radhika
Raina
Rashid
Sunrisers
Thiruvananthapuram
Veteran
attractive
beings
believes
brief
campus
civilian
coconut
combination
commerce
crew
dealt
establish
everyones
finish
grave
hills
inheritance
investors
officially
prior
reasonable
stressed
subsidy
surrounded
surrounding
teeth
transparent
traveling
tribulation
ward
##berg
##fall
##hal
##hara
##light
##ney
##puram
##ren
##tri
##ula
##zer
Grand
Indore
Modern
Nagendra
Paris
Poojary
Prabhas
Shivamogga
Understanding
actresses
affair
ark
arranged
bird
breast
center
chillies
condolences
consumers
corporate
cure
delighted
dubbed
duties
engineer
expecting
finding
flowing
fly
flying
harvest
hidden
imprisonment
injustice
intended
links
motion
otherwise
parent
potassium
praised
raising
reduction
requirement
retail
sake
sentenced
tackle
thankful
tight
unemployment
##ama
##dev
##ises
##side
2010
900
Always
Belagavi
Box
Clearly
Cost
Durga
Eshwarappa
Joe
Jordan
Learn
Mizoram
Naveen
Resources
Rules
Sikh
Spain
Train
Triumph
Yamaha
accordingly
allotted
attached
audio
badly
chain
conservation
depression
earthly
employee
extreme
feels
formal
fulfill
ignore
immunity
latter
loud
mainly
mentally
negligence
opener
petitions
prevention
province
reducing
relation
rid
routine
signing
sing
stepped
threats
vary
##50
##anna
##chandra
##ges
##ines
##oe
##tan
##tle
##ura
104
130
2009
67
AB
Administration
Azad
Construction
Democratic
IIT
Launched
Messiah
Myanmar
Nair
Rajeev
Renault
SONGS
Stop
Student
Study
Urdu
Vadra
Workers
actual
badminton
band
baseless
bid
commandments
commence
confused
disciple
drew
endure
humility
impressed
interim
involve
jet
likewise
manifesto
meets
memories
monthly
motive
nose
objected
orange
oven
paired
pilgrims
platforms
presently
prevented
raining
replace
resigns
retained
shame
shift
significantly
sometime
stick
succeeded
suspension
viewed
withdraw
writes
##bed
##eo
##ination
##lated
##nes
##ster
##vati
AIIMS
Account
Against
Age
BBMP
Bhavan
Bus
Capitals
Dec
Entry
HC
Initially
Ishant
Javadekar
Kia
Light
Non
Pandit
Rail
Salt
Sania
Scheduled
Survey
Truth
Vijaya
absence
acceptable
angle
benefited
blow
bothered
boundaries
branches
cleaning
condoled
cooked
earn
edge
efficient
examinations
expand
faster
feed
fees
flee
guarantee
launching
lift
lyrics
miles
missionary
newspapers
oppose
overwhelming
persecution
privacy
raids
remake
rounds
sanctioned
saving
square
steel
stuck
symbol
techniques
tennis
whereas
##ator
##au
##aving
##ela
##ken
##lating
##rative
##ugh
##ule
##uous
160
2022
83
Better
Devotees
Drinking
Final
Going
IAS
Jarkiholi
Kabir
Kedar
Kishore
Leaders
Leela
Listen
Manipal
Master
Mexico
Moon
Process
Really
Robert
Shashi
Taluk
Voting
Wheres
apologise
bag
blamed
buried
carries
chargesheet
checked
chemical
comedy
determine
dying
email
enquiry
ft
fulfillment
generate
gm
illustration
immune
lashed
legislator
magnitude
maintaining
metal
monsoon
occurs
possibly
potatoes
prohibited
publications
recognition
reforms
resistance
singles
sir
suggest
trace
trading
versions
vessels
visa
vitamins
witnessing
##FI
##itive
##let
##lin
##lls
##lt
##nted
##ological
##oon
##pped
##ption
##rpm
##tered
##urse
##ury
2008
Additionally
Animal
Call
Cars
Duke
Early
Emergency
File
Hindutva
Interest
LPG
Malaysia
Meghalaya
Memorandum
Narayana
PDP
Palace
Pooja
Prevention
Puneeth
Queen
Sabarimala
Sector
Settings
Technical
acquired
administrative
album
bearers
bother
clothing
corrupt
cultures
custom
dam
dear
decade
deity
determination
donated
equally
fame
fed
finalised
fort
habits
handled
hell
hiked
hopes
hosted
institution
interaction
island
lips
mild
mining
normally
occupied
oldest
onwards
ours
processes
pursuing
rapidly
regret
repeatedly
represents
rivals
screenplay
script
shelter
twelve
venue
waived
zone
##IC
##aiah
##bing
##bo
##coming
##deep
##lation
##no
##uation
##ulated
##wari
##ways
57
Ambareesh
Anti
Audi
Block
Colour
Directed
Elijah
End
Gujarati
Isaac
Jagadish
Knight
Kochi
MLC
Parishad
Prashant
Residents
Subhash
Sunny
Tourists
aimed
airports
bowlers
brethren
com
consent
conveyed
copy
dignity
driven
ease
enters
flooded
gram
hide
instructed
integral
irrigation
lady
largely
lord
maintenance
masks
motivated
nutrition
opinions
pacer
protected
push
radio
reacted
realized
recognize
recover
releasing
remarkable
resource
retain
routes
safely
separated
sharp
starrer
stranded
theyre
threatening
throw
todays
tomorrow
victorious
weakness
werent
wheels
worthy
##SS
##ching
##ement
##ens
##nding
##rates
##tting
105
71
Ahead
Awake
BSNL
CSK
Chandrasekhar
Create
Date
GDP
Gayle
Ireland
Kota
Middle
Much
Nagaland
Nokia
Notice
Pramod
Problems
Say
Sikhs
Sources
Sundar
Syed
Vidya
Vijayan
acute
affordable
arrival
bikes
coal
colourful
compare
contributions
corner
cried
declare
efficiency
employed
fantastic
frame
handling
hatred
inner
involvement
keeper
legislation
listened
lorry
lowest
loyalty
marked
networks
overseas
percentage
photograph
presidential
reveals
rulers
sedan
shrine
sustainable
tank
tie
towns
unless
wheel
wood
##10
##ach
##ax
##hy
##lling
##pat
##try
##und
##val
77
Aam
Anant
BJD
CPM
California
Educational
Flood
Focus
Girish
Highway
Jodhpur
Johnson
Kanpur
Lemon
Millions
Nature
Penal
Pharaoh
Planning
Riders
Shardul
Shukla
Vikas
amenities
apparently
applying
aren
beliefs
celebrates
celebrating
claiming
communal
compulsory
cow
creative
crimes
depend
disc
encouragement
eternal
exhibition
exposed
familiar
gates
graduate
influenced
instruction
laugh
lawyers
litres
milestone
missed
poses
precautionary
receives
restored
revised
rises
rituals
roof
satellite
scoring
stern
stretch
teaches
twenty
unusual
ups
##ane
##bi
##bir
##cha
##den
##dle
##down
##etic
##ju
##like
##stan
##tted
##ude
##ured
##view
##weight
##yar
Badminton
Chand
Colours
Electronics
Fi
Gambhir
Highlights
Infosys
Line
Narasimha
Popular
Punjabi
Radha
Ramakrishna
Review
Share
Similar
Stokes
Thomas
Thou
UAE
Upon
Venkatesh
accomplished
addresses
anxious
apology
argued
arose
bow
cargo
components
criminals
curious
describe
douse
engage
enhanced
favor
helmed
impressive
indicates
inflammation
inflammatory
invite
judiciary
mosque
owing
oxygen
pension
proceed
rank
rapid
reign
rinse
sang
shed
sheet
summit
sung
tabernacle
tall
tenure
theft
traders
transformer
tribal
volunteers
wages
zones
##aries
##bit
##bul
##che
##dated
##had
##logical
##mp
##nk
##nu
##og
##ok
##oop
##rit
##rous
##sis
78
Champions
Collector
Data
Dharwad
Disaster
Ephesians
FIFA
Harsh
Hindustan
Intelligence
KS
Location
Medicine
Mehbooba
Model
Nexon
Noida
Oxford
Pacific
Presently
Real
Sarah
Simple
Sport
Steel
Subramanian
Tharoor
Venue
Wi
backward
beloved
campaigning
completion
convenient
cream
deposits
deserve
diagnosed
disqualified
educated
emphasis
ensuring
entitled
estate
excess
fails
founded
grounds
honours
ideology
import
limitations
memorial
minutes
missionaries
muscles
nabbed
neighbor
obtain
pro
probing
producers
pronounced
puts
remark
repaired
resulting
richest
riding
roll
serves
ships
stadium
tool
traits
web
whatsoever
yesterday
##ca
##cs
##end
##iles
##ils
##int
##ition
##kes
##name
##ree
##res
##unch
##ures
140
66
84
Active
Agency
Building
Chouhan
Citizens
Forum
Gen
Harbhajan
Housing
Increase
KC
Kawasaki
Khans
Maldives
Moves
Order
Pulsar
Puttur
Relief
Sushil
Teacher
Thailand
Vehicle
Within
abundance
accomplish
aspirations
auction
belonged
borne
burn
businessman
club
combined
committing
comparison
competitive
convicts
coordination
cope
disabled
egg
equivalent
exclusive
extraordinary
fined
frequent
gap
gearing
hungry
innocent
jawans
longest
martyred
minorities
minority
noise
objection
okay
outfit
overseer
payments
perspective
preserve
promotion
savings
scope
sees
spinner
spirituality
stakeholders
starring
therapy
transactions
universal
unlikely
vain
volume
wheeler
wings
womans
worshipped
yield
##MP
##ame
##ars
##book
##graphy
##iting
##ius
##lam
##mark
##ntal
##oot
##oring
##pired
##pose
##ratory
##tary
##ume
##uting
76
Abu
Ahmad
Available
Azhar
Bhaskar
Cong
Desai
Exercise
Freedom
Highways
Islamabad
Isn
JP
Making
Mandanna
Market
Nm
Prabhu
Priya
Sonakshi
Sub
Varma
View
Visit
asleep
associate
behavior
cares
caring
comprehensive
consumed
consuming
cr
critics
customs
decorated
distinct
engagement
facelift
goodness
grants
heroine
i20
install
jets
library
liver
loses
maiden
monitoring
multitude
musical
parallel
parliament
passion
plain
publishers
reactions
rebel
recalled
reform
regarded
regime
relative
remote
risen
spake
specifically
submerged
testimony
traveled
turbo
wards
##ack
##aming
##be
##ik
##ina
##irs
##ited
##lish
##lon
##ona
##sted
##sting
##uma
##ye
##zar
98
Anyone
Birth
Care
Continue
Efforts
Employees
Enfield
Gilead
Gorakhpur
Hold
Honey
Ibrahim
Important
KKR
Kulbhushan
Laxman
Murthy
Paradise
Pinarayi
Qualification
Randeep
Rio
Rishi
Saini
Save
Source
T20Is
TRS
Talking
UTs
acquitted
attractions
automatically
availability
avoided
bacteria
breakfast
brilliant
cinematography
clarity
compassion
complicated
coverage
critically
deeds
deposit
designs
dust
ensured
exercises
extensive
flock
foretold
glorious
heated
heres
hockey
idol
interfere
inundated
lion
locality
machines
mail
manufacturers
mens
metro
nationwide
nowhere
originally
praying
prefer
presents
processing
professor
publication
ranking
requests
reviewed
riches
sparked
stir
stores
supplied
suspicious
targeted
waiver
washed
wet
workshop
##RI
##aging
##art
##cious
##das
##dhi
##ene
##ential
##fe
##gram
##house
##ining
##lished
##load
##logy
##ose
##read
##ru
##sts
##wn
3rd
61
Axis
Bahadur
Beach
Benjamin
Border
Catholic
Chairperson
Forces
Hair
Jail
Jonathan
Less
Low
Lucky
Magistrate
NDRF
Omar
POCSO
PS
Philistines
Sam
Shobha
Sit
Story
Sumalatha
Syria
Villiers
adopt
afford
beef
buyers
compact
compliant
confirmation
consumer
covers
eager
endurance
ghee
giant
hatchback
hence
horse
incredible
index
insight
interrogation
lover
medication
missile
moments
nationals
naturally
planted
polluted
pool
prevents
productivity
promotes
puja
recipient
reject
respects
riots
rush
server
sinned
tension
translation
urgent
widow
##DF
##TS
##atic
##av
##dia
##eed
##gy
##inate
##krishna
##late
##mma
##nds
##onal
##outs
##ught
650
74
88
Advisor
Akash
Bhansali
Center
Doing
Download
Finch
Gandhinagar
Gavaskar
Him
Korean
Latin
Manju
Meteorological
NPR
Nation
Peel
Qureshi
Ramanagara
Rinse
Shivaji
Sikkim
Thoughts
WHO
acknowledged
adult
airline
arts
assurance
attempted
automobile
bears
boil
booth
congestion
contacted
copies
cotton
deadly
delicious
dependent
describes
divide
eaten
finely
forthcoming
greeted
gun
heartfelt
inflation
innovation
instruments
inter
intervention
isolation
landed
league
makers
medicinal
mourning
namely
princes
promoted
purchased
quarantine
rarely
recall
referring
reiterated
reminded
rent
representing
restore
sample
sat
shameful
sincere
sizes
sorry
spots
supplies
swing
switched
temptation
tone
twin
unlimited
vomiting
youngsters
zeal
##apur
##ass
##ati
##cular
##dhar
##eem
##here
##ibly
##istic
##ky
##lets
##liness
##lor
##ob
##ock
##ole
##pass
##pers
##pi
##rable
##rolled
##tain
##tis
##tte
##ture
##ub
##ulating
##uram
##veer
##vy
##wood
2005
92
Branch
Childrens
Christianity
Especially
Farmer
Feb
Fee
Guwahati
Investment
Janhvi
Manu
Mi
Morcha
Movie
Muhammad
Navdeep
Oberoi
PMs
Puri
Russell
Sanjeev
Shilpa
Shivraj
Surjewala
Tips
USB
Venkaiah
acid
affecting
assaulted
banner
blasts
bonds
burned
clue
consume
crashed
creatures
crushed
dating
denies
depending
destinations
differently
faculty
firmly
grains
hanging
horses
housing
idols
immigrants
indicated
introduction
kin
lakes
lamp
marketing
meditation
neighbouring
nutrients
objects
paintings
paradise
pitch
posed
pour
prestigious
prisoners
procedures
publicly
rankings
reverse
sealed
shapes
spring
strictly
talaq
tap
terminal
theatres
tomato
tonnes
treasure
tribes
trophy
uprooted
worshippers
zealous
##atha
##cel
##cking
##dal
##eration
##fication
##hers
##ides
##inder
##ished
##je
##lis
##maker
##nse
##ogical
##ola
##oth
##ried
##rts
##tta
##ulate
##uth
##west
110
1st
2007
Aadmi
Aggarwal
Already
Americans
Asked
Baba
CMs
Cases
Chaudhary
Computer
DNA
Husband
Infrastructure
Jaishankar
Karti
Kashmiri
Knowledge
Levites
Lokesh
Mann
Masood
OnePlus
Rajan
SSLC
Sales
Sangh
Shops
Spanish
Surendra
Swift
Tech
Usually
Violence
abide
accepting
amounts
arises
awaiting
beast
cake
castes
casualty
championship
cheap
compete
complain
contained
cows
curb
decrease
differ
disclosed
eclipse
emphasized
fulfil
hails
highways
hub
hunger
icon
institute
lunar
magazines
mask
membership
metre
migrant
mystery
personalities
philosophy
politically
presidents
queen
ranks
refuge
reliable
rendered
resentment
resort
sacrificed
scary
showcased
showroom
supportive
teaspoons
thrown
tomatoes
unnecessary
wrath
##SC
##aan
##ams
##ao
##dation
##duction
##ech
##ek
##ender
##get
##halli
##hand
##hs
##iate
##ility
##ima
##inal
##lent
##logging
##lu
##mAh
##nish
##rao
##shing
##vas
##vation
##wi
##yas
87
89
Airways
Aviation
Awareness
Baahubali
Bantwal
Bhagwat
Brezza
Centres
Charles
Creta
Days
Easy
Exchange
Goswami
Graduate
Hasan
Hrithik
IS
Kamath
Kim
Lot
Mahabharata
Mahal
Maharaj
Malaika
Patnaik
Prashanth
Pujara
RR
Sahu
Says
Season
Sehwag
Shaw
Sonali
Switzerland
Till
Tribunal
Vilas
Whose
administered
admission
aged
ages
alleging
appearing
broad
bullet
champions
commands
considerable
constable
courtesy
derived
desktop
detected
discount
discreet
electrical
elephants
ending
expandable
expert
extension
flows
halt
inspector
instrument
lacking
lasting
legendary
mm
muscle
neighbors
nephew
obedience
organizations
overseers
poems
raises
relatively
responses
sauce
shoulders
tear
telephone
temperatures
thin
tolerate
topic
vegetable
wickedness
wildlife
withdrew
woes
wore
youngest
##CA
##ains
##ception
##do
##eries
##ern
##ever
##fast
##hari
##iding
##iling
##imal
##lal
##lash
##lessly
##mous
##ora
##orn
##pelled
##position
##prakash
##rich
##semble
##sist
##ulation
##unce
##using
96
97
AIADMK
Alex
Axar
CID
Cannot
Cash
Charge
Darshan
Employment
Environmental
Governing
Hinduism
Hockey
Hooda
Islands
Jobs
Kailash
Ki
Large
Live
Netherlands
Nov
Pankaj
Paswan
Phone
Poor
Port
Rakshit
Reports
Rover
Run
Saeed
Sensex
Sep
Siddharth
Speak
Srikanth
Surely
Travel
Turmeric
Turn
Vijayanagar
allies
brave
capabilities
commandment
contempt
cops
cycle
dancing
debit
designated
devoted
dialogues
enmity
errors
erupted
excessive
finds
flagship
forgiveness
households
instances
intake
intensified
item
knee
landslide
loaded
militant
monitor
mood
needy
nights
obedient
permit
policeman
privileges
protecting
rating
reaches
resorted
resurrected
retire
roots
safeguard
salaries
screening
selfish
souls
strategic
throat
troubled
truths
urge
varieties
vulnerable
wars
##60
##LD
##adi
##bling
##eat
##erry
##ert
##flow
##ganj
##hai
##ick
##ino
##lers
##lied
##ories
##pathy
##pati
##ten
##well
##zo
128
1999
450
86
Afridi
Alliance
BSF
Basavaraj
Boney
Companies
Country
Cross
Dance
Danish
Devgn
Dharmendra
Division
Fear
Front
Greece
Healthy
INR
ISL
Lahore
Lankan
Locals
Miss
Must
Philippians
Prem
Ps
Range
Ready
Seer
Shettar
Sleep
TO
Unity
Victoria
adultery
ambulance
amended
bags
beds
breathe
carbon
characteristics
coin
conclude
confirm
congratulates
conviction
cough
cutting
discussing
dish
dominated
emerge
establishment
experiment
export
exports
expressing
festive
flu
fond
framework
functional
garments
hailed
inauguration
iniquity
knock
literally
mans
mustard
necessity
objectives
pillars
pioneers
priorities
proteins
quantity
sand
scenes
scholars
scientist
scores
scuffle
slowed
speculation
spin
string
substantial
suggestion
swearing
tag
transaction
treatments
unclean
unclear
vacation
withdrawal
##25
##FC
##anand
##asha
##aw
##cast
##cation
##ced
##con
##dh
##duce
##form
##front
##gan
##gate
##hips
##ingly
##lines
##lock
##lving
##mani
##nna
##note
##ography
##ogue
##otic
##pathi
##po
##ris
##rn
##sal
##serving
##tt
2003
79
Acharya
Address
Andrew
Anna
Annual
Arts
BE
Consult
Eating
Eden
Examination
Films
Had
Hows
Jagannath
Kumari
Mata
Mode
Nabi
Network
Night
Onion
Petroleum
Preparations
Puducherry
Putin
Raut
Response
Samson
Sen
Stir
Studies
Sydney
Todays
Vitara
Whom
Worship
boundary
calendar
cheaper
cheating
chop
chronic
copper
default
defend
definition
depressed
desired
directorial
doused
draft
elaborate
enables
engineers
enthusiasm
evolution
feared
fearing
fielding
fighters
folk
forming
franchise
fruitage
halted
highlight
intent
joke
landing
mad
magnesium
mindset
miracle
mount
movements
nearest
nutritious
operational
parked
perpetrators
pink
plot
preached
prince
printed
printing
pulled
qualification
ratio
recording
relax
reporting
restaurant
resume
rolled
separately
snake
snow
spared
spices
stating
strain
struggling
substance
succumbed
sustain
talented
telecom
thereby
tragic
travellers
trusted
twist
unbeaten
unhappy
utmost
valued
wage
wasted
weapon
wherein
worries
##AI
##ata
##ceptive
##chi
##fold
##gaon
##ho
##ias
##ivity
##kha
##kle
##list
##low
##mb
##nsive
##rogen
##sions
##teen
##tility
##uing
##urs
##vel
##vir
##wing
##yard
##zi
108
1914
2004
32GB
4G
81
Amarinder
Armed
Banking
Boy
Chikkamagaluru
Commonwealth
Eid
Eventually
Game
Hanuman
Harikrishna
Harry
Improves
Jahan
Kher
Kids
Lack
Malhotra
Mustard
NCR
Nagaraj
Om
PNB
Rape
Simha
Standard
Success
Support
Trinamool
Vardhan
Volkswagen
Written
Years
accessible
actively
alike
ammunition
anyway
associations
athletes
attackers
attract
backing
calamity
classical
component
composer
connections
controversies
crown
curry
cute
cyber
delegates
demonetisation
deny
devastated
dollars
domain
drainage
elect
emission
enhancing
examining
fascinating
funding
globe
grain
holidays
homage
hostel
intervene
jump
junior
lok
magic
mature
nuts
openly
overnight
painting
passport
persecuted
pixels
print
raid
rainy
raping
rejects
residential
saves
shopping
structures
tend
terrible
titles
traced
transformation
unexpected
violating
washing
wondered
##DA
##DS
##awa
##dies
##east
##eel
##ford
##gated
##giving
##ike
##illa
##ira
##istan
##loom
##mate
##pes
##rance
##rmal
##space
##state
##tein
##tter
##une
##ural
##vathi
##wada
##zation
##zen
2nd
5G
750
ATMs
AYUSH
Accordingly
Alto
Benz
Bhagat
Bhutan
Bike
Cinema
Colin
Daily
Davids
Demand
Democracy
Disha
Doval
Dutta
Faith
Farooq
Fruits
Gas
Ghosh
Guard
Hezekiah
Jagan
Jos
Junior
Kishan
Little
Mandi
Masjid
Ocean
Oct
Organization
Owaisi
Presidents
Pushkar
Ranchi
Religion
Sagar
Savarkar
Software
Srinath
Suicide
Tihar
Tomar
Tower
Using
Vishal
Works
Zion
abundant
acre
adorable
auspicious
bath
boiled
bold
bore
breach
bribe
captains
cave
celebrity
chemicals
clinical
collect
conductor
continuously
corrected
counted
crazy
deeper
disperse
dynasty
editor
eliminate
emerging
execution
expressions
feat
featuring
firms
flavour
goddess
grass
grey
grows
guy
highlighted
hurry
incessant
insult
interrogated
ki
landmark
laughed
lens
lodge
looted
maker
mom
notices
opens
opted
pack
planet
positively
pulses
rampant
regulations
resist
revoked
shepherd
shine
somewhat
spare
statistics
stringent
suggests
superior
surroundings
switch
transparency
urges
usage
vacancies
validity
##SE
##aking
##aling
##appa
##aps
##bia
##dan
##face
##field
##fire
##ghan
##hes
##ically
##inated
##kant
##lic
##lle
##lous
##mission
##ood
##oom
##ound
##pad
##quer
##sive
##tated
##umar
##used
##ution
##vent
##via
##wat
##zy
93
Abbas
Asif
Azam
Bagh
Baroda
Bhubaneswar
Buddha
Buddhist
Cast
Corona
Devegowda
Directors
Disease
GT
Hong
Images
Interview
Jet
Likewise
Luckily
Navratri
Neel
PPF
Pharisees
Property
Qualcomm
READ
RS
Shane
Sultan
Summer
Together
Types
Unit
Youve
accusing
approaching
artistes
attacking
bars
beating
bleeding
capture
cloud
committees
connecting
conscious
deals
deliveries
delivers
eighth
eliminated
empowered
executed
fiscal
heroes
hunt
indefinite
inspection
intelligent
interior
kilometres
lime
manufactured
martyrs
meaningful
merger
minus
misleading
momentum
observing
offspring
organic
owns
poles
propaganda
prospect
quarters
rage
rallies
recognise
respiratory
restaurants
salute
scriptures
spoil
styles
tab
talents
therein
tons
tracks
trillion
undergo
unite
unprecedented
unrest
verse
voices
whenever
willingly
##40
##ET
##ON
##PA
##ards
##az
##base
##city
##fi
##gam
##iest
##jeet
##kara
##las
##nel
##nga
##pping
##preet
##pressed
##rise
##rk
##rry
##rum
##style
##ues
##usion
##verse
20th
Airlines
Anderson
Ansari
Assamese
Camera
Community
Cummins
Electricity
Expected
Experts
Fathers
Future
Garlic
Ghulam
Gill
Hari
Immediately
Inter
Ji
Kajal
Kalkura
Kong
Leone
Mike
Motorcycle
Mulayam
Off
Operation
Pal
Pathan
Poonam
Praveen
Pre
Question
Ramanath
Reduce
Regarding
Registration
Rising
Sai
Secretaries
Shooting
Sidhu
Someone
Southern
Spend
Stand
Suddenly
Suman
Surya
Taylor
Teach
Thanking
Virender
Wait
absolute
amendment
anthem
benefitted
bitter
blend
bone
cardiac
civilians
clock
commander
commented
conversion
converted
dances
deleted
demonstrate
deposited
detention
disputes
dried
drops
earmarked
ethnic
evidently
expectation
explore
fatalities
fatigue
fights
flash
gaining
girlfriend
grabbed
gutted
hygiene
inclusive
infant
inspiring
lamps
literary
micro
migrants
modest
narrow
nervous
networking
perception
plague
preferred
pressures
prey
probed
protects
queries
railways
raw
recommendation
relating
representative
reputation
robbed
saddened
saints
scenario
segments
semifinals
smashed
stunning
texts
thieves
topple
unfortunately
varied
verification
warns
weighs
worrying
##AN
##AT
##IN
##JP
##MA
##MS
##ason
##aze
##bable
##born
##cate
##fection
##head
##hra
##iating
##iology
##jar
##keeper
##kh
##motion
##oC
##omic
##pel
##posing
##rani
##ratri
##reak
##rity
##sure
##thy
##tu
##ult
##unk
##wani
175
2001
4th
5MP
Allow
Amarnath
Arent
Assyria
Authorities
Barack
Bendre
Chandrashekar
Cheese
Coast
Direction
Engine
Esau
Fisheries
Gandhiji
Godse
Gram
Helps
IN
Iraq
Irrfan
Journal
Judicial
Justices
Kisan
Living
Looking
Madhav
Maintain
Manasseh
Mani
Marcus
Metallic
Nayanthara
Parking
Pat
Prithvi
Ravishankar
Religious
Sawant
Session
Shoaib
Sita
Skill
Statue
Taliban
Theyve
Wildlife
abrogation
architectural
associates
assume
attempting
awake
bin
booking
bookings
bridges
carved
chapters
chariots
chase
circular
commenced
commendable
controls
corporation
criteria
deadline
decreased
defamation
dignitaries
discounts
donate
dramatic
drunk
elsewhere
embarrassed
fairly
feast
fingers
fishing
fool
foreigners
gallery
governing
guys
implementing
interacted
isolated
kid
kidney
kindly
landslides
legally
lighting
mechanical
mildness
ml
modes
motivation
mounted
necessarily
notified
paddy
partially
phenomenon
plying
poured
rated
recommend
refer
relate
rested
safer
saffron
settlement
shoes
sinful
slated
smell
spoon
stored
sugarcane
suicides
survival
territories
timely
tobacco
trap
tune
turnout
unchanged
varies
verge
violations
waves
writings
zero
##ER
##GP
##IA
##OM
##aded
##aga
##aid
##amed
##arian
##ashtra
##ater
##aves
##bound
##burg
##cating
##chy
##cure
##door
##ease
##fect
##hani
##hmi
##hold
##hor
##ida
##ipe
##lar
##liance
##lined
##mail
##minate
##minated
##mind
##nity
##of
##ots
##piece
##prasad
##rown
##rupt
##sation
##site
##tak
##vable
##vin
103
82
AK
Accused
Akbar
Arabian
Ayushman
BY
Below
Bhatia
Brothers
Buttler
Circle
Climate
Communication
Contact
Ducati
Empire
Gentiles
Ground
Houses
Jaya
KR
Kargil
Kolar
LK
MPV
Mahila
Mens
OBC
Padmavati
Pragya
Presidential
Quality
SIM
Salary
Samaj
Sanju
Scientific
Scientists
Screen
Sibal
Simon
Skin
Smoking
Sudhakar
Teaching
Teams
Tej
Territories
Triple
VI
Victory
Wedding
Williams
Wing
Xi
Youll
alias
appoint
apprehended
assessment
attracted
bite
calories
ceasefire
cheated
choosing
coaches
communicate
conflicts
containment
demonstrated
disappeared
distant
drinks
emotionally
equity
establishments
exceptions
favourable
fifty
folder
fours
guess
habit
hanged
headache
heading
hoped
hoping
immorality
incorrect
influences
insects
jailed
joyful
justified
lauded
lifetime
literal
magnificent
maize
manifest
mayor
measured
mess
mint
obstacles
offenders
operates
peacefully
perish
pushed
quits
reads
realised
reap
remedies
rendering
repay
roughly
sanitation
satisfying
saut
sedition
specifications
speeches
sporting
stabbed
tail
tanker
technique
tolerated
transmitted
trick
turbocharged
uncle
unions
vessel
voluntary
weaknesses
winds
##19
##ING
##PI
##RS
##TC
##air
##aji
##ank
##anya
##atra
##cus
##dur
##ell
##ending
##ese
##ficiency
##guru
##hearted
##hibition
##hman
##ifying
##lew
##loy
##lum
##mine
##mons
##most
##nan
##ners
##nlock
##orrow
##ours
##ows
##phone
##rad
##rim
##rus
##tained
##tering
##the
##ually
##ups
##vic
01
1990
91
ATM
Agra
Amar
Apache
Criminal
Display
Dry
Ertiga
Ghat
Girls
HIV
Hear
Hector
Irfan
Karun
Male
Misra
Mithali
Mujahideen
Naresh
Pet
Photos
Polling
Prabhakar
Product
Puja
Raghuram
Ramalinga
Raman
Rathore
Respect
Root
Schedule
Sudha
Tea
Text
Translation
Trees
UIDAI
Unable
Unemployment
Vivo
Vodafone
accidental
achieving
acids
adversely
afterwards
alerted
allocation
amazed
apparent
array
assures
attributed
brass
canal
cap
carmaker
churches
cleanse
closure
clouds
commodities
commuters
containing
courageous
cuts
dealings
demons
dig
disturbed
elephant
entity
epic
excelled
exceptional
expanding
finances
finest
flame
foolish
frustration
harder
hardship
harsh
hes
holders
hole
inevitable
internationally
introducing
islands
journal
judgments
liberty
linking
lit
livestock
login
lung
marriages
narrative
nationalism
nausea
paint
physician
pilots
ports
preliminary
procurement
prone
prosecution
provoked
readers
recipe
reflected
refreshing
refuse
relates
removal
robust
romantic
scholar
screened
seasons
strengthens
subscribers
surveillance
suspicion
sweets
swelling
taluks
targets
tasks
thinks
thrilling
toxic
tractor
trapped
treating
undertake
utilised
vehicular
vigilant
##30
##ED
##akar
##aning
##avan
##avi
##bhai
##covery
##dian
##din
##eeth
##ently
##eshwari
##fer
##gen
##hasing
##hing
##iary
##igh
##jected
##kers
##km
##lap
##lying
##mes
##mote
##oda
##olt
##ool
##oor
##ord
##oy
##persons
##ply
##pted
##rb
##ribute
##rific
##roll
##than
##versity
##very
##wait
##weep
150th
2006
2MP
64GB
94
Almighty
Amethi
Amrita
Anupam
Asha
Ashish
Bipin
Boxing
Buddhists
Chicken
Convention
Corporate
DSouza
Dark
Direct
Empowerment
Getty
Glenn
Govind
Guptill
Husbandry
INX
ISIS
Kalaburagi
Kalam
Keshav
Kulkarni
Lakhs
Maha
Masters
Meenakshi
Mental
Mom
NTR
Performance
Petition
Pilot
Pregnancy
Producer
Protesters
Rahim
Rajkot
Register
Role
Sale
Shroff
Sisodia
Sridhar
Srivastava
Standing
Thane
Tripathi
Uma
Umar
Usman
Villagers
Wear
Window
Wish
Wishing
abilities
al
arriving
artificial
audiences
aviation
batch
bills
boasts
capability
carrot
cheese
contemporary
conversations
corn
costly
counterpart
crashes
credited
deities
demonstration
develops
diplomatic
disorder
disorders
displays
donation
empire
empowerment
exemption
extensively
faithfully
fare
fatal
fears
findings
fold
forecast
forwarded
fulfilling
gang
gen
hadnt
happily
hardly
hectares
hitting
hotels
illustrate
immensely
inaugural
initiate
intensity
jawan
killer
licence
maturity
meters
misused
nominee
notion
opt
outer
patterns
pertaining
plate
portfolio
predominantly
prevailing
professionals
quake
recalls
revolution
rift
scarcity
settle
sickness
sits
sounds
sowing
stunned
tallest
tensions
tiger
tower
twitter
unconstitutional
upright
websites
weekend
wisely
wooden
##CI
##GA
##GS
##HA
##LP
##TA
##ada
##aled
##ami
##ances
##ancy
##araja
##arine
##ban
##bon
##craft
##cted
##cute
##eers
##emi
##ency
##erial
##ew
##gies
##haran
##holes
##hone
##ids
##itivity
##jah
##lands
##lf
##lip
##lkar
##mat
##mood
##ncies
##nge
##ogi
##olation
##oped
##ops
##passes
##pm
##power
##quate
##ract
##rants
##ras
##rect
##rin
##sition
##ued
##uli
##vance
##vated
##vis
##vour
##was
##wear
2002
4GB
AR
Amritsar
Andaman
Baal
Bench
Bose
Bring
Choudhary
Classic
Crore
Dad
Dipak
Drama
EV
Enable
Excise
Exodus
Eyes
Failed
Female
Gospel
Greater
Hafiz
Hills
Hot
IRCTC
Indo
Javed
Joab
Kali
Kaul
Legislature
Madikeri
Maurya
Menon
Mrs
Murder
Nifty
Nirbhaya
OTP
Parishat
Passengers
Pension
Pvt
Raje
Ranji
Realme
Region
Relations
Result
Rupani
Sahib
Saraswati
Shakti
Sruthi
Sweden
Taxes
Tiago
Trent
Volvo
accommodate
accommodation
ace
adventure
afflicted
argue
asset
assisted
backdrop
beans
behave
belly
boring
budge
carrots
chat
clarification
classified
consistent
consultation
continually
conventions
convert
couldn
creed
cruel
cubits
dairy
dearth
deer
deficit
desperate
disadvantages
discern
distancing
disturbing
drain
economics
elevated
evacuated
experiencing
extinguished
fierce
floors
flower
flux
fodder
grasp
gross
hardships
healed
herbs
honestly
horns
incense
instant
lending
lovely
mentions
motorists
nominations
onto
popularly
pot
prescribed
prevalent
proposals
publicity
realistic
rebellion
relieve
rely
removing
resignations
resumed
riders
rivalry
scattered
sentiment
sewage
signal
sinners
sorrow
strangers
suburbs
supreme
supremo
tables
taxpayers
tech
temper
temporarily
tent
tenth
thief
thrilled
touching
travelled
troubles
ul
verses
virtual
virtually
waive
warrant
wherever
##Ds
##EA
##IP
##LE
##ME
##TP
##abad
##anka
##arily
##aro
##asure
##ators
##band
##bel
##body
##date
##ddin
##ea
##eena
##eet
##ficient
##force
##gir
##gnant
##ground
##hemistry
##hoot
##ision
##iss
##its
##lot
##nation
##nished
##nouncing
##ored
##phere
##raking
##rana
##rary
##rind
##rist
##rive
##sar
##stry
##sty
##tail
##tate
##tya
##ubling
##unction
##vasion
##vid
##vil
##vocation
##with
##xy
116
119
182
390
Acting
Allu
Almost
Ancient
Anniversary
Anything
Argentina
Bad
Ballari
Beauty
Buses
Canadian
Certificate
Changing
Cheteshwar
Commercial
Consequently
Current
Dead
Dear
Delete
Departments
Deshmukh
Digvijaya
Dilip
Down
Egyptians
Filmfare
Garden
Giving
Himalayan
Index
Innova
Iranian
Jeep
Judges
Kabaddi
Kozhikode
Krishnamurthy
Literature
Lords
Made
Mahajan
Max
Maximum
MlA
Names
Orange
Overall
PC
Phase
Philip
Plant
Players
RK
Regular
Rule
Sexual
Shall
Shekhar
Shinde
Sound
Stock
Surat
Tickets
Tipu
Voters
Ward
Wayanad
Whenever
Wife
Winners
Winning
abandon
ad
administrator
aggressive
airbags
ally
annum
assumed
bans
batter
blaze
cadre
casting
chair
citing
cloth
complaining
compromise
concentration
constipation
contributes
crossing
cruise
dash
debated
dense
designer
deteriorated
disappointing
disappointment
discovery
disputed
dominant
dough
dues
entities
essence
estimate
exchanges
existed
failing
famine
fatty
feeding
females
focusing
generating
genetic
ha
hacked
harvesting
hesitate
hopeful
identification
implications
imports
inclined
jumped
laughing
lesser
mandate
masala
mathematics
misusing
mouse
ninth
occurrence
odd
offended
overflowing
pedestrians
pole
postmortem
praises
pursuit
pushing
quota
readily
reasoning
renewable
replacement
repo
representation
reservoir
ruin
sacked
sends
sensation
shepherds
shooter
slaves
spite
stance
statues
stocks
stream
strengths
stupid
swimming
typical
unlike
vaccines
widows
##AC
##BI
##ML
##MT
##NS
##OS
##PP
##RC
##ST
##TI
##ae
##aked
##alli
##andi
##athi
##bus
##cia
##ctic
##day
##dge
##dicated
##dinance
##eding
##eon
##formation
##fs
##ghting
##going
##hale
##hil
##ig
##iliation
##ined
##ional
##ior
##ipped
##isual
##kari
##lict
##lla
##lli
##lton
##mia
##mpathy
##off
##oli
##paid
##pecs
##phones
##puted
##quisite
##rence
##rick
##stone
##tical
##uba
##ulla
##uters
##vise
##vo
##xed
##yed
13MP
Activities
Advanced
Ajith
Alexander
Applications
Arjuna
Ashoka
Assistance
Babri
Beautiful
Belgium
Boil
Boult
Brown
Calcutta
Certainly
Chahar
Chandan
Cor
Dasara
Doctor
Economics
Ephraim
Few
Firefox
Fresh
Galatians
Ganesha
Happiness
Hariharan
Hey
Hill
ICU
Israelite
Journalists
Kasargod
Kaushal
MD
MI
Manchester
Maria
Microsoft
Motorcycles
Ms
Musharraf
Nanda
Neil
Ninja
Nor
PU
Paytm
Philippines
Rajamouli
Rate
Reasons
Return
Rock
Ronaldo
Seeing
Shaheen
Shivam
Shivarathri
Singhs
Sriramulu
Starc
Stephen
Strong
Supporting
Tahir
Thar
Theertha
Tokyo
Tollywood
Ullal
Upendra
Users
VHP
Vietnam
Worlds
Zero
amendments
anguish
anticipated
apartment
apprised
armature
assemblies
basically
belt
beside
bombs
bottle
brake
bulk
bull
bypolls
calculation
cardamom
checking
chiefs
circle
clearance
concrete
controlling
curse
dad
deaf
declaration
delicate
depart
deserves
digit
discharge
downpour
dwelling
ear
endeavour
fats
flames
flocks
forty
freely
funeral
grade
grandfather
greets
honored
hospitality
humbly
increasingly
input
institutes
interact
jaggery
jurisdiction
kits
leaked
legacy
locally
males
maybe
memorable
neglect
outlook
penned
perceived
pic
poem
ponder
portal
pose
practiced
prevail
promptly
render
restriction
robbers
rod
scorer
searched
searches
shield
slapped
societies
somewhere
speciality
speeding
speedy
squads
statutes
stays
stranger
stretched
tasty
topics
treasures
unemployed
versus
viewers
waterfall
weekly
weighed
wept
wheelers
worn
wrestler
yr
##AS
##BC
##IL
##OC
##TH
##ananda
##arable
##asing
##atory
##ature
##ceive
##charya
##cial
##cture
##desh
##deva
##ean
##ears
##eating
##erate
##fa
##gia
##host
##hot
##hwar
##iana
##ifications
##igration
##igs
##iking
##imated
##ith
##logies
##lus
##macy
##mbassy
##nate
##nite
##nting
##olina
##osing
##rabha
##rank
##rap
##raphic
##riya
##sit
##ther
##tric
##uded
##umari
##ump
##unced
##urd
##urt
##ven
##ville
##win
##ws
05
08
145
5000
5th
AC
AS
Abhinandan
Above
Advisory
Ambassador
Appeal
Area
Arshad
Ashwini
Bharati
Brahma
Chauhan
Clinton
Commander
Courtesy
Customers
DGP
Deshikendra
Discussions
Domestic
Draw
Electronic
FDI
Face
Fishermen
Fuel
GPS
Geeta
Glass
Got
Grade
Hard
Hospitals
Internal
Irrigation
Island
Jains
Jayanagar
Jinping
Jonah
Kartik
Madan
Marshal
Mathura
Maulana
Mittal
Necessary
PUC
Passover
Payments
Politicians
Pollution
Porsche
Possible
Prov
Rajapaksa
Raveesh
Resource
Revealed
Ricky
Rohan
Sadar
Sadly
Said
Sakshi
San
Scindia
Sethupathi
Squad
Stalin
Steven
Sudhir
Suniel
Ten
Testing
Too
Traditional
Uttara
Warriors
Whoever
YOU
accountable
advancement
agents
agreements
alloy
appetite
armies
ascertain
assaulting
attitudes
attracts
authorised
barred
blocks
bottles
chaos
circulated
cleaned
clinch
coins
convey
cop
cumin
definite
density
describing
desolate
directing
diverted
donations
drastically
duration
elevation
endeavor
endured
enterprises
evaluation
exceed
exempted
fiction
filling
fry
goats
graced
housewife
iconic
immoral
inches
incumbent
indication
info
inform
invested
judged
keyboard
killings
knocked
lowers
map
meditate
minute
neighbourhood
neutral
nurses
omega
packs
paths
preventing
proven
rebels
recipes
recovering
refined
remedy
restoration
ring
rings
satellites
seminar
sensors
shook
shouting
siblings
sized
slogan
solely
sorts
sq
stops
summoned
superintendent
thirty
thriller
tops
tries
turmoil
ultimate
undeserved
uproar
van
whoever
whopping
winding
workplace
youll
##70
##RF
##VE
##Z
##acial
##active
##acts
##agar
##agging
##ague
##alls
##ayed
##bas
##can
##car
##ciating
##cope
##dict
##dit
##dor
##ead
##ehra
##falls
##gere
##gged
##haman
##hipped
##hletics
##ilities
##ill
##iring
##just
##key
##log
##long
##lore
##making
##mbling
##mond
##murthy
##nis
##nus
##oar
##obby
##olar
##ony
##ook
##ori
##pected
##ples
##race
##racy
##rent
##ribe
##rious
##row
##shankar
##sy
##tatic
##udi
##unding
##uppose
##ux
##voke
##wadi
##yam
##yre
106
107
111
128GB
170
1998
21st
240
256GB
360
377
Administrative
Altogether
Amid
Author
Battery
Bhai
Birla
Books
CNG
Cameron
Coffee
Coimbatore
Colossians
Coming
DV
Deaths
Delhis
Denmark
Deuteronomy
Didn
Doesnt
EU
Ecclesiastes
Economy
Editor
Egyptian
Eight
Enterprises
Entertainment
GOD
Galilee
Garg
Ginger
Goods
HRD
Harley
IMA
IMF
Implementation
Iron
Isha
Jackson
Jamia
KJ
Kadri
Kapur
Kashyap
Kedarnath
Kendra
Kenya
Khaleel
Kundapur
Lyon
Maxwell
Mughal
Murli
Nag
Nana
Nationalist
Navjot
OK
Options
PAGE
Pentecost
Portugal
Prayer
Promotion
Quick
Rajkummar
Re
Retired
Robin
Ross
Sabbath
Saint
Santhosh
Scotland
Send
Shares
Shashank
Shimla
Shortly
Shruti
Shyam
Sonu
Sony
Sood
Srinivasa
Stoinis
Tap
Territory
Theatre
UGC
UT
Unique
Vasundhara
Version
Vicky
Week
Welcome
Writing
accordance
ads
assumption
bacterial
befitting
bowed
brands
brotherhood
brutal
clarify
clinched
cloves
collective
communications
companion
comprise
condemns
connects
consensus
consisted
consisting
construct
cousin
debris
defeating
destabilise
discouraged
disposal
economically
educate
enabling
excitement
exemplary
expense
expertise
extends
feedback
garment
generates
gms
grandson
grim
guards
guided
gunfight
hat
havoc
hired
innovative
instantly
intervened
investing
kidnapping
killers
labor
laboratory
legislature
lightning
literacy
loose
marital
merciful
mirror
modesty
notable
observation
oriented
packed
passage
perfectly
periods
photography
pond
portrayed
presentation
pricing
profits
profound
pull
reflects
refugees
reigned
retaliated
rewarded
rewards
robbery
seal
shaped
shortcut
similarly
singers
sliced
slipped
soap
span
standstill
steady
suffers
sunlight
swallow
tankers
technological
threw
thrice
transformed
ultimately
unacceptable
virgin
waited
weeping
wonders
wrapped
##AM
##AY
##RT
##acharya
##achelor
##aka
##ald
##aran
##aur
##bai
##cence
##chal
##charge
##diting
##duct
##eam
##eld
##ema
##eya
##ez
##forced
##forms
##gadi
##gala
##graduate
##hisk
##human
##iamond
##iers
##iliated
##iplinary
##isa
##isha
##jana
##ject
##lates
##lia
##lves
##mala
##motive
##nified
##ond
##oned
##pire
##posed
##ques
##raction
##rajan
##rine
##sk
##tagonist
##taking
##theless
##tone
##tude
##vali
##vara
##vers
##voked
##waj
112
14th
2GB
302
8MP
Advocate
Amy
BC
Bahujan
Bairstow
Balan
Bar
Basic
Bellary
Bidar
Bridge
Buddhism
Canara
Chamundeshwari
Changes
Chaturthi
Christendom
Classes
Customs
Debit
Desktop
Digvijay
Drug
Enjoy
Eshwar
Explain
Fashion
Forbes
Goel
HAL
Hai
Half
Hannah
Harvard
Heritage
Historical
Hubballi
ICMR
III
IMD
Imagine
Karandlaje
Kock
Los
MCC
Madhu
Message
Moab
Mohd
Morgan
Movement
NASA
Noahs
OF
Oscar
PWD
Password
Player
Point
Polo
Previously
Raichur
Recruitment
Referring
Rice
Richard
Rupee
Saha
Seek
Serve
Singer
Sitaram
Southee
Sovereign
Speed
Starting
Surender
Tabu
Throughout
Transfer
Us
Vajubhai
Verna
Wall
Weight
Wrestling
Yuva
accorded
acquire
adjust
altitude
ambitious
amend
apologised
assembled
ate
baking
bandh
bathroom
biological
bride
broadcast
bypoll
capt
chariot
chased
cited
climb
column
comeback
companions
comply
conserve
constitute
contacts
correctly
decent
declares
description
desirable
disastrous
distressing
drowned
earning
encourages
engaging
episode
exclusively
exile
failures
fitting
fixing
floral
freed
gear
grandmother
halls
honesty
illustrations
institutional
invisible
kick
kidnapped
knot
laying
levelled
masters
meantime
medallist
merit
messengers
miracles
mobility
murders
naked
northeast
numbered
nursing
patriotic
pit
posters
progressed
prophetic
regulation
rehabilitation
remand
reminders
reserve
rumour
scenic
screens
secretaries
selfies
setback
shadow
shell
signature
slept
smiled
sodium
spirits
stalled
stopping
streams
subtle
superb
surfaced
tale
taxi
teenage
tendency
theocratic
torture
transported
upgrade
uploaded
urine
utilise
vibrant
violators
vow
wipe
wire
##PC
##TV
##aa
##ailing
##ament
##aper
##aram
##aring
##aris
##artial
##ased
##atia
##atories
##ball
##bps
##chological
##ckers
##ecurities
##edar
##ements
##eri
##harmaceutical
##hen
##hera
##hibit
##hill
##hit
##hrome
##hya
##ica
##ipation
##ircumcised
##ishing
##ital
##iz
##konda
##kram
##lah
##licit
##lier
##lity
##lution
##math
##mn
##nathan
##nima
##oes
##oll
##ones
##osis
##ota
##ously
##patna
##piring
##place
##plied
##press
##raz
##regation
##rries
##scription
##shwar
##so
##spect
##tas
##tention
##test
##tories
##tten
##tty
##uate
##upe
##vention
##vered
##vesh
##visor
##want
##yappa
##yer
##yle
102
123
19th
230
499
AP
Actors
Ahab
Antony
Asthana
Babasaheb
Background
Basu
Biden
Blessed
Bommai
Bopanna
Butter
CCB
Cain
Capital
Capt
Chinas
Communist
Consumer
Curran
Davidson
Dhabi
Diabetes
Drive
EcoSport
Elisha
Esther
FIRs
Ghee
Gulf
Gurgaon
Hamid
Holder
Holi
Hotel
Institutions
Iqbal
JEE
Jaguar
Jayant
JeM
Jitendra
Josh
Karisma
Karnad
Kasaragod
Khawaja
Level
Lower
MBA
Madhuri
Meat
Melbourne
Metropolitan
Mini
Minimum
Mohit
Official
Often
Original
Pain
Patekar
Patiala
Payment
Pearl
Pennsylvania
Persian
Points
Pour
Pregnant
Pressure
Previous
Program
Provident
Rally
Ramayana
Rapid
Representatives
Researchers
Rhea
Rivers
Rose
Ruth
SM
Sasikala
Seva
Shahbaz
Sharan
Statistics
Steyn
Taimur
Tejashwi
Tennis
Turkey
Unnao
User
Vallabhbhai
Warning
Wheat
William
accord
accusations
advances
advertising
affidavit
aids
alternate
ambition
aperture
authentication
automaker
bedroom
bell
birthplace
bored
boxing
browser
campaigns
clay
closing
coloured
comprised
confessed
congratulations
criticized
curd
dedicate
define
delete
despair
digestive
dirty
dishes
dissent
doctrine
dressed
dumped
eldest
element
enjoyable
entertaining
essentially
experiments
exposure
fate
firefighters
firstborn
functioned
funded
generous
heights
hire
hurled
impose
inaugurates
infectious
infuriated
inhabited
intensify
jam
license
liter
manganese
messaging
ministries
miserable
misuse
monuments
motives
nationalist
neglected
obesity
observes
parade
pat
pics
pilgrimage
pinch
pipeline
poison
preceding
pressed
prompt
ration
relaxed
rightly
riot
rub
runner
sacrificing
saplings
satisfy
semis
shaken
slaughter
smiling
socially
stumble
submission
timing
tiny
tissue
ugly
unrighteous
upheld
visas
wagons
warn
wells
whip
wholesome
wider
womb
##21
##500
##61
##CC
##NG
##OR
##Q
##SP
##abbage
##alves
##arma
##aswamy
##bean
##cco
##eas
##ei
##enders
##enger
##enic
##ensus
##erator
##ergy
##ero
##ession
##eur
##fications
##fulness
##fusion
##gad
##gled
##gular
##ib
##icted
##ime
##ince
##innamon
##ips
##itated
##itor
##ivan
##jal
##khar
##kiah
##len
##lind
##lly
##lusive
##manna
##mar
##nected
##nfigure
##nged
##nion
##nut
##olic
##olly
##omed
##oms
##orm
##patitis
##piration
##psy
##rator
##rehensive
##riti
##rupted
##self
##star
##struction
##tant
##tch
##tings
##torm
##uary
##ubs
##uel
##uit
##uled
##urban
##usted
##versal
##vest
##wl
135
13th
153
ABVP
APMC
Abhiyan
Abrahams
Abram
Angeles
Aravind
BMC
Baat
Baby
Badal
Bajrang
Batting
Believe
Bell
Biblical
Broadcasting
Bulls
CSIR
Chamarajanagar
Chaturvedi
Chemicals
Chikmagalur
Chronicles
Ciaz
Coal
Compass
Corp
DSP
Dam
Daredevils
De
Didnt
Double
Dutch
EBD
Elizabeth
Equipment
Everyday
Eye
Ezekiel
Fernandes
Firefighters
Ghaziabad
Gift
Governance
Grey
Hazare
Id
Idea
Jackie
KDE
Karnatakas
Karunanidhi
Kashmiris
Kaushik
Khader
Kom
Krunal
Launches
Lots
Maharaja
Mandal
Marketing
Mukul
Nadal
Nehemiah
Nicobar
Operations
Pick
Prahlad
Preparing
Rains
Raipur
Ramya
Rashtrapati
SSP
Samaria
Sandalwood
Saxena
Sengar
Sharing
Siddharamaiah
Slice
Sorry
Soviet
Steps
Stuart
Tandon
TikTok
Tumakuru
Twenty20
Udaipur
Vala
Vijayapura
Vladimir
Waiting
Way
Yusuf
Zechariah
absconded
accessories
adoption
adorned
amidst
ample
appealing
appeals
apple
bare
beverages
calculated
campaigned
clutch
colors
companys
compassionate
complainant
compounds
consciousness
contents
contradiction
cooperative
corporations
dais
damages
damaging
dealers
declaring
decreasing
deepen
defending
defense
desert
disclose
dispersed
dissolved
elegant
entrepreneurs
establishing
expects
expelled
expresses
financially
financing
fires
formula
forum
fret
frustrated
gorgeous
graduates
hai
hated
helmet
inclusion
india
indigenous
invites
jealousy
lasted
layer
lecture
legends
letting
livelihood
lovingly
mantra
measuring
medications
mortality
mosquito
myth
neighbour
objections
offences
oily
opponent
organ
petitioner
prestige
processed
proclaimed
promising
prophecies
prospects
punish
races
racing
rams
reeling
remnant
renamed
resisted
rests
romance
rulership
scalp
sharply
shattered
sheer
showcase
silk
specially
stirred
surge
symbolic
tigers
transform
trends
trips
tussle
unabated
uniform
untimely
variations
walks
warriors
wrongdoing
yatra
##22
##CP
##DC
##II
##NA
##PO
##ac
##ache
##acing
##afe
##agan
##alve
##anga
##arched
##ariat
##aza
##bles
##cative
##char
##chor
##ctions
##dicate
##dis
##dom
##due
##eering
##ekar
##elt
##emar
##ems
##encies
##ended
##ept
##eta
##etus
##eve
##fic
##ficant
##flower
##fresh
##gat
##gation
##gging
##gnation
##godu
##hak
##hical
##hna
##how
##ificant
##ifier
##inating
##ioned
##isplaced
##ission
##itating
##iving
##iwas
##iyar
##izes
##licant
##lining
##marks
##mise
##mping
##nand
##nces
##nekar
##nement
##nesh
##newal
##nsible
##nstable
##nta
##oasted
##ordinate
##oster
##oston
##otion
##ox
##page
##pear
##pect
##pent
##pied
##pora
##pression
##print
##proof
##pu
##raising
##rait
##raja
##rl
##san
##shire
##skar
##suming
##tating
##tray
##treat
##ugs
##umble
##uo
##urniture
##urple
##uted
##venge
##verage
##yrus
07
310
35A
Access
Adventure
Afghan
Alcohol
Aligarh
Anantnag
Anganwadi
Arabic
BMTC
Bay
Beijing
Belgaum
CA
Century
Chandrashekhar
Chetan
Chowk
Coastal
Cricketer
Crores
Cyber
Dale
Deepa
Definitely
Dehradun
Dera
Dharma
Dil
Dubey
Electrical
Enoch
Examples
Except
FM
Federal
Fiat
Foods
Fr
Francis
Gaurav
Governors
Granted
IFSC
Illegal
Injured
Integrated
Israels
Jha
Kannur
Karachi
Khandre
Krishnan
Lalit
Late
Library
Loan
Miller
Missing
Morris
Multiple
OS
PG
Paresh
Pathankot
Physics
Preheat
Prepare
Prior
Projects
Proper
Quit
Raghu
Record
Records
Regulatory
Risk
Rs1
SS
Sarkar
Sections
Seltos
Shankaracharya
Sharath
Sheila
Shimoga
Siraj
Status
Stone
Submit
Sun
Superstar
Supply
Systems
Taiwan
Tamannaah
Truly
Tyagi
UNESCO
Unlike
Viral
Wales
Yashwant
Yeah
abdominal
acknowledge
acne
addiction
advertisements
advisable
alarming
ambassador
angered
angles
applicants
assassination
awesome
babies
beasts
beautifully
bicycle
blaming
boards
boosting
booths
burst
centers
ceremonies
chocolate
civic
classic
clause
clubs
conferencing
configuration
consequence
considerably
consistently
creature
credibility
cubes
cum
curfew
curiosity
dare
decisive
deliverance
dengue
departure
deprived
derogatory
destroying
diploma
directive
directory
disk
displaying
distinguished
distressed
divorced
dowry
earnest
economies
embarrassment
enforcement
exchanged
exercising
facto
fleshly
forks
frequency
furious
guilt
heal
hiding
holiness
imperative
informal
inherit
inquire
insisted
intellectual
intend
interrogating
keys
label
lawmakers
lifes
log
malaria
mango
manufacture
marvelous
miscreants
misery
moderate
module
monitored
mosques
naval
obligation
operators
oral
overwhelmed
pioneering
pity
pleasing
prevailed
progressing
progressive
proportion
pump
pursued
quarrel
reflection
regardless
rented
repentant
requiring
reserves
reservoirs
revision
rewarding
rickshaw
rolling
scandal
seated
sect
sequence
sesame
shoots
shots
shower
slight
snakes
spike
spy
streaming
successive
suits
surrendered
surveys
swung
tabled
tenders
thrashed
tomb
trail
trucks
understandable
undoubtedly
vendors
viewing
workout
wounds
##15
##24
##67
##CE
##EC
##FS
##LA
##OP
##SA
##ades
##ads
##agle
##aheb
##aksha
##alia
##aman
##amma
##anja
##araj
##aud
##bu
##ciation
##cker
##cket
##cting
##cur
##dating
##dden
##don
##elling
##eze
##final
##gage
##gas
##gence
##graphic
##gri
##hir
##hurt
##iable
##idhi
##iful
##ilment
##imate
##imation
##inator
##iri
##isan
##isance
##iser
##itions
##ivate
##kad
##lare
##lashed
##lateral
##lator
##lators
##lide
##lite
##llah
##lted
##luge
##lved
##mped
##mpur
##nomy
##notes
##nster
##num
##oach
##olas
##onia
##ont
##ores
##ount
##pada
##pets
##pling
##prove
##racing
##rapes
##rchant
##rekking
##rey
##rge
##ros
##ruck
##sam
##servation
##swami
##tage
##tham
##tled
##tly
##train
##tute
##uction
##ugitive
##uild
##ukh
##unting
03
118
1947
199
2030
850
990
AIDS
AIMIM
AND
Academic
Adams
Alva
Amir
Appropriate
Archer
Aries
Asaduddin
Automatic
Ayurveda
Battle
Beat
CJI
Celebrations
Chennaiyin
Chowdhury
Cities
Colombo
Congresss
Cow
Crown
Dan
Dawood
Degree
Dictionary
Dixit
Documents
Earthquake
Elite
GNOME
Gita
Gixxer
Grover
HP
Ha
Honble
Huge
Humans
ISI
Ingredients
Install
KP
KRS
Kajol
Kartarpur
Kochhar
Koppal
Lashkar
Laxmi
Minor
Mohanlal
Mohanty
Monsoon
MotoCorp
NEET
Negi
Okay
Partnership
Patani
Personnel
Playing
Poland
Population
Pralhad
Present
Quinton
Ranjit
Rayudu
Reading
Republican
Rescue
Rest
Rev
Revolution
Sessions
Shakib
Short
Siddhartha
Storage
Supplies
Sustainable
Sweet
Switch
Taj
Tour
Usha
VC
Volume
Watson
Winter
Writ
Write
Yellow
abused
adjourned
afterward
aggression
agrees
alright
altogether
annoyed
anticipatory
anyones
backs
battles
bend
beneficiary
boyfriend
brakes
breadth
buzz
cancel
coaching
collector
competing
completing
conceived
confined
correction
corresponding
cyclone
decides
depicted
dialog
diarrhoea
disagree
downloaded
drains
drawbacks
earnestly
earths
ecosystem
embrace
enthusiastic
extract
extradition
finger
flaws
flooding
fornication
fortunate
fruitful
garnered
generosity
gently
glimpse
goat
graduation
grip
gym
hang
harassed
holder
humour
impression
indicators
inducted
influential
inspire
insulted
interviews
kicked
kingdoms
labs
lacks
lash
leaf
lest
lions
lone
machinery
menace
merged
meter
minded
misled
modified
monetary
mythology
nails
narrated
negotiations
newborn
nonsense
notch
novels
observers
offensive
ok
opponents
outcomes
ownership
parable
parks
pleas
pop
pornography
preference
preferences
rainwater
ranges
regulatory
removes
revered
sanctions
secrets
seer
sells
shore
sincerely
slavery
slice
slowdown
socio
sore
sounded
spaces
speakers
spectacular
spectrum
spreads
spree
springs
steering
striking
striving
subscription
supplication
synagogue
tastes
theories
trigger
triumph
unanimously
unanswered
vendetta
verified
viewpoint
vigil
volumes
weakened
yielded
##23
##71
##80
##86
##IS
##MG
##MI
##PF
##RD
##SG
##abbar
##acancy
##ackdown
##agon
##ags
##aig
##anth
##asil
##awar
##awn
##bin
##bone
##burgi
##cape
##cellence
##chand
##children
##come
##conomist
##dings
##ented
##ertification
##eshwara
##eved
##ference
##fying
##gara
##gle
##gory
##gra
##hel
##hile
##hining
##hysics
##iberation
##ices
##icles
##ictory
##idar
##igation
##igor
##ii
##inth
##ires
##kali
##kind
##lair
##lause
##lient
##listed
##map
##married
##master
##matic
##melech
##nction
##nforgettable
##nown
##nveils
##nvener
##odi
##odies
##oi
##oma
##omegranate
##onus
##orms
##orthy
##oti
##ounded
##own
##placing
##pore
##qui
##rek
##rings
##riotism
##rms
##rolling
##rooms
##root
##rough
##rting
##sert
##sunami
##ttes
##uantum
##uash
##uated
##ugged
##uj
##ull
##ullah
##ultivating
##una
##urable
##urns
##uspend
##vardhan
##verance
##vert
##vya
##waran
##wise
##yal
04
10th
11th
121
1500
15th
1980
1996
1997
31st
911
AI
ALSO
Amos
Andre
Animals
Apples
Armageddon
Ashraf
Ashwath
Atul
Bagalkot
Bandra
Between
Bhawan
Blend
Brahmin
Buy
Campaign
Celebration
Chanda
Chapter
Chicago
Chitradurga
Choksi
Command
Communications
Compensation
Concerning
Constituency
Corridor
Counsel
Cristiano
Czech
Dabangg
Darren
Dawn
Divine
Divisional
Driving
Entrance
Ephesus
Exam
Falls
Fast
Federer
Fertilizers
Fill
Gadag
Gardens
Halls
Hello
Honor
Inc
Include
Jack
Jhansi
Journalist
Jr
Kashmirs
Keeping
Konkan
Krishan
La
Latham
Layout
Lee
Lie
Lift
MT
Manjrekar
Marsh
Measures
Memory
Modiji
Mohamed
Murali
Nadeem
Nano
Naqvi
Naval
Nigeria
Obviously
Part
PhD
Pilate
Plastic
Pompeo
Portuguese
Premium
Preparation
Provide
Qatar
Ravinder
Rawal
Ray
Reacting
Reality
Rekha
Revanna
SA
Safe
Salim
Sex
Shine
Shweta
Sign
Site
Situation
Spiritual
Sprinkle
Sunanda
Swiss
Talks
Tent
Tribes
Tushar
Vadodara
Value
Veer
Wasim
Wood
absorb
acclaimed
admonition
adviser
agent
agitators
assignments
authored
autonomous
bands
batteries
bereaved
beware
billions
boiling
calculate
cancellation
captivity
cardiovascular
carrier
casts
cease
characteristic
charming
cluster
comforting
computers
conferences
confirms
cons
convenience
coupled
craft
creativity
crosses
crowds
cucumber
cultivation
dangers
debates
deciding
declining
deduction
defended
deliberately
demonstrators
detect
developmental
dharna
diagnosis
disasters
discourse
discover
disruption
distinction
dries
drives
drone
dynamic
electronics
enormous
ensued
estimates
excise
excuse
explosive
figurative
flags
fleet
flies
fog
formats
formidable
fronts
frustrating
gesture
gracious
grandchildren
grated
guns
hail
healing
helicopter
helper
helpless
hid
horrible
hybrid
identical
imagination
implies
incomplete
inconvenienced
individually
induced
indulging
inquired
investor
irregularities
laughs
lender
levied
lightly
lowly
mAh
maritime
mates
mechanism
morality
mortal
noble
nod
offline
onboard
openers
organising
organisms
organs
phosphorus
picks
pillar
plight
portrait
posting
prejudice
presenting
protective
protocol
query
queue
reacts
reader
receipt
reception
reconsider
resolutions
restart
ridiculous
ruined
scholarship
scrap
scripture
slew
slip
snatch
subcontinent
submitting
supervision
swept
tendered
terrified
thrust
tier
tightened
tract
traditionally
uncertainty
unidentified
upbuilding
urgency
urging
verify
warnings
wealthy
weve
width
worsened
worshipers
wouldn
yoke
##55
##63
##83
##85
##CO
##FT
##Hz
##Ms
##PE
##RP
##RY
##YC
##abs
##acks
##adia
##akes
##alised
##anahalli
##ancies
##anta
##arm
##asses
##bala
##ballapur
##cho
##cite
##claim
##cluded
##cripts
##ctify
##cts
##ddy
##dhu
##diction
##duced
##eads
##eak
##encing
##enting
##ergic
##erson
##gers
##ggle
##gn
##gnoring
##gouda
##gression
##gue
##gulate
##harma
##harmaceuticals
##herent
##holders
##ieties
##ifles
##iny
##iously
##iryani
##khandi
##kote
##kwad
##lades
##lakh
##lect
##lift
##lings
##lities
##lm
##logist
##lunder
##mental
##meter
##minent
##mita
##mus
##nah
##ndoor
##net
##nia
##nking
##nth
##ntly
##oS
##ocal
##ocate
##offs
##oins
##oke
##olate
##ologists
##oper
##ost
##palli
##parable
##passed
##pec
##plate
##plement
##plementary
##ported
##quire
##raine
##rang
##rash
##rass
##rays
##rbal
##reed
##rics
##roads
##ross
##rrespective
##ructural
##rur
##screen
##shine
##shree
##sidies
##tains
##td
##teenth
##thodox
##timate
##tures
##uality
##ublisher
##uis
##uk
##uran
##urg
##uries
##urious
##usal
##ushree
##waram
##wful
##working
##xide
##yndrome
09
101
109
122
12th
147
16th
1991
1993
4000
4000mAh
ASEAN
Aadhar
Aaradhya
Ambati
Ankit
Anthony
Anup
Arab
Asa
Ashram
Associate
Attack
Attorney
Bala
Bansal
Bapu
Bedi
Behind
Benefit
Beware
Bhardwaj
Boys
Canaan
Candidate
Caste
Cell
Chop
Cleanliness
Clear
Commissioners
Complete
Counting
DCP
DD
Daughter
Deol
Dhonis
Difference
Difficult
Dikshit
EPFO
EVM
Effects
El
Ensure
Ever
Far
Ferrari
Flight
Forests
Founder
Friendship
Fry
Given
Guest
Hemant
Hetmyer
Hunsur
Immediate
Increased
Increasing
Institutes
Irish
Ishan
Jamshedpur
Jean
Jeroboam
Jew
Jofra
Jonny
Jyoti
Kanhaiya
Kashi
Kempegowda
Khattar
Lazarus
Levi
Looks
MW
Mahadayi
Majority
Marg
Medium
Micah
Mind
Ministerial
Mosaic
Move
Narayanan
Nathuram
Nile
Nipah
Partition
Passenger
Patients
Plessis
Pollard
Polls
Prajwal
Preet
Procedure
Professional
Promised
Race
Radio
Rafael
Rainfall
Ramdas
Ramdev
Ravikumar
Remembering
Room
SRH
Samiti
Sc
Scorpio
Shanvi
Shimron
Shopian
Singhvi
Smt
Solar
Song
Soni
Sons
Subramanya
Sure
TCS
Telecom
Television
Terror
USED
Uber
Uday
Upadhyay
Urjit
Vedavyas
Veerendra
Visakhapatnam
Vishwa
Voter
Won
Writer
YSR
Yechury
ablaze
accuses
acquisition
adamant
aggravated
alarm
alcoholic
alliances
alternatives
approve
arisen
artistic
assess
assure
attain
authors
bay
believing
betrayed
bind
boosts
borrowed
boss
boxer
briefed
briefing
builds
cancers
cared
chairs
charm
cheer
clashed
confronted
constables
contestants
convened
conventional
coordinated
crush
cultivated
deceived
denial
detection
disposed
du
dung
embarrassing
enacted
enduring
enquired
enterprise
exempt
exploration
extending
favorite
fertility
feud
fore
foreigner
fraternity
fried
fury
galore
gentle
glasses
guarantees
heinous
hurting
idolatry
ignorance
illicit
impacted
indicating
inherited
interactions
interference
lab
laptop
lathicharge
lifting
lined
listing
logging
logic
mainstream
manifested
materialise
meanwhile
meritorious
migrated
mile
miraculous
molecules
mortuary
mud
mutually
naming
nearing
obviously
optional
org
outcry
pacify
packages
painted
paragraph
perfection
permits
planes
ply
poets
portions
possessions
prosper
quad
qualifications
realm
reasoned
rebellious
recreation
rejecting
reminder
repentance
residing
resigning
retiring
rocks
rubber
salad
scales
seize
serials
serpent
shake
shortcomings
slot
snatched
sole
steadily
stipulated
stray
struggled
stuff
subjected
subsequent
substances
surgical
tablets
tolerance
ton
torn
trickle
turnover
underwent
unnatural
uphold
utter
vaccination
vinegar
violate
void
weird
wholly
zinc
##18
##57
##59
##74
##77
##EP
##Gs
##NE
##OW
##TK
##Us
##adays
##ading
##agh
##ahi
##ality
##alt
##alwan
##ania
##aq
##arating
##ared
##arh
##ariff
##arted
##aru
##ather
##avigation
##bbing
##bished
##bow
##cended
##cinated
##clopedia
##cycling
##dam
##dity
##ductive
##ege
##eli
##ellore
##ense
##eography
##eral
##erated
##eric
##ervical
##ete
##fess
##filed
##gement
##gent
##gets
##ghat
##gistrar
##gress
##hail
##haritable
##hem
##hia
##hills
##hui
##hur
##ication
##ich
##ider
##igned
##ilable
##ilak
##ilence
##inary
##ind
##inuation
##ipur
##ique
##ishank
##ishes
##itect
##juna
##kala
##kanth
##lag
##lance
##lasma
##ledging
##lement
##lexible
##llion
##llo
##loading
##lve
##main
##manya
##meet
##mented
##mish
##mpt
##muggling
##nam
##nant
##ndar
##ndent
##ndi
##nforeseen
##nial
##nner
##nsic
##nsion
##numa
##ogy
##oker
##olk
##olts
##olves
##oppa
##orth
##oud
##oya
##paring
##pell
##pels
##pic
##plicity
##ponsive
##porated
##proved
##proving
##rag
##rical
##rifying
##rinary
##rior
##rm
##roid
##roken
##ror
##rosis
##rray
##rwar
##sault
##sets
##stitute
##stream
##tach
##tali
##tari
##tel
##tia
##tiff
##tire
##torian
##tre
##treme
##tus
##uals
##uda
##udh
##uinea
##uiz
##ulam
##ulous
##umes
##umps
##uni
##unts
##urai
##urated
##urity
##vani
##vate
##vents
##vering
##vised
##viya
##voking
##wain
##wamy
##yn
##zard
06
126
18th
288
30th
8GB
ACB
AD
Absalom
Accidents
Adil
Americas
Anandiben
Anthem
Apr
Arrest
Ayushmann
BR
Backward
Balaji
Balakot
Basaveshwara
Bhandari
Boeing
Breaking
Brooklyn
Buying
CD
CWC
Camp
Cause
Challenge
Chandrachud
Chatterjee
Competition
Crysta
DDCA
Decision
Declaration
Diploma
Distribution
Dollar
Done
Dube
Dwivedi
EC
Emperor
Engineers
Entrepreneurship
Everyones
Factory
Football
Form
Fourth
Friend
Fruit
Fun
GO
Garbage
Geneva
Gospels
Groups
Growth
Gwalior
Harmanpreet
Harrier
Healthcare
Heggade
Helping
Hi
Hind
Historic
IV
Israeli
Janardhan
Jehoshaphat
KXIP
Kiara
Kieron
Konkani
Kotak
Lawyers
Leh
Liam
Link
MC
Maneka
Married
Mauritius
Meerut
Mehul
Military
Mithun
Mothers
Moving
Muzaffarpur
NCC
Nausea
Naxals
Near
Neeraj
Negative
Net
Northeast
Nutrition
Page
Pages
Perera
Powering
Problem
Products
Rachita
Radhakrishnan
Rajat
Rajouri
Rajyavardhan
Rakul
Rankings
Rates
Ravana
Recall
Reduces
Regulation
Request
Reuben
Reviews
Richardson
Saaho
Serena
Shashidhar
Shipping
Sindh
Spokesperson
Sriram
Suttur
Swedish
Terrorism
Tumkur
Unadkat
VK
WHEN
WK
Wild
Zone
accurately
adjustments
admits
advertisement
ailments
airlines
anytime
apologize
approaches
arch
arrange
assailants
atonement
attained
awe
banana
basketball
bathing
beer
benefiting
bent
bestowed
bizarre
boarding
boats
briefly
brush
capped
catches
charred
chit
coil
comfortably
concert
concludes
consist
contracts
convict
cordoned
cuisine
dams
debts
defeats
demon
departs
descendants
descent
destructive
deteriorating
devastating
disabilities
disheartened
distinguish
doubled
dull
earnings
en
endless
enraged
esteem
excerpts
execute
exercised
faults
fertilisers
fetch
fiber
flagged
flick
focuses
fools
framed
geographical
glorified
glucose
graduated
greatness
grievances
grievous
happier
headlines
hosting
ideals
imagined
imported
imprisoned
incidence
indebted
inscribed
invalid
jar
lashes
lean
leather
linguistic
lists
lonely
macro
magistrate
maintains
marine
massage
masses
maternal
medieval
mistaken
monkeys
motivate
motivates
mourn
nurse
occasionally
ocean
oneself
operative
optimistic
organisers
overtake
pagan
pains
pairs
palms
parameters
patiently
payable
pen
petroleum
pets
picking
plantation
plaque
pounds
precise
premier
preserved
pressing
profitable
pros
provider
publishing
pumpkin
quitting
random
rang
ranging
recoveries
rectified
reflecting
refusing
registering
reliant
reminds
repairs
reside
revolutionary
rolls
rooted
ruins
sanctified
shifts
shirt
shy
skilled
somebody
sovereign
specialist
spends
spinach
spinners
sting
straightforward
strokes
studio
subjection
swift
tactics
taxis
thighs
threatens
throwing
topped
translations
tunnel
uncertain
undertaking
unfair
unsuccessful
unwell
valuables
vandalised
violates
virtue
viruses
warfare
welcoming
wellness
yea
##56
##Bs
##CH
##DL
##OT
##PL
##RA
##SU
##TR
##UV300
##ables
##acking
##aft
##aja
##akumari
##alf
##amps
##ande
##aqf
##aratha
##arians
##arina
##aryan
##ashed
##aths
##avy
##ayan
##azed
##beat
##berry
##bers
##bic
##biotics
##bra
##built
##ccupation
##charged
##cists
##cology
##conscious
##core
##ctive
##dded
##deal
##dges
##ditating
##eaks
##ect
##eiling
##elli
##enugreek
##eprosy
##ertile
##ett
##ev
##ex
##ffirmed
##fo
##ganga
##gin
##grate
##havan
##heat
##high
##hima
##hkar
##hram
##hree
##iarrhea
##ided
##ieu
##ilant
##ilt
##ims
##inda
##ipes
##irt
##isability
##isers
##ison
##ister
##itha
##ixel
##izer
##jo
##karan
##kat
##keepers
##kin
##kip
##lashes
##lifting
##lights
##lim
##lination
##lition
##lone
##look
##lorify
##loth
##lowers
##lur
##lusion
##mabhoomi
##monds
##mposition
##mpower
##nanda
##nas
##nating
##nclave
##ndoles
##neath
##new
##ngue
##nhealthy
##nical
##nidhi
##nife
##night
##non
##now
##ocket
##ode
##ohia
##olish
##oman
##onastery
##onians
##orious
##ort
##pable
##pecify
##pelling
##pering
##phesy
##phies
##ponsible
##pret
##prise
##pture
##quent
##quity
##rage
##rand
##ravity
##reast
##rehend
##riarch
##rinity
##riot
##rite
##rivation
##rong
##rse
##rthi
##ruit
##rums
##scribe
##ser
##shaw
##sia
##sistent
##stitution
##sulin
##tack
##tance
##town
##tribute
##tro
##ttam
##uable
##uan
##uance
##udging
##udra
##uilt
##ummy
##umors
##unda
##uner
##unted
##uotes
##urage
##urdles
##urge
##urrender
##urvivor
##ushrooms
##uss
##utton
##vez
##vival
##waite
##zra
##zzled
1200
1984
1989
1994
220
3D
AMT
Aayog
Abe
Abel
Accident
Adarsh
Adelaide
Anitha
Anjali
Apps
Arbaaz
Ashes
Atlantic
Audio
Azharuddin
BWF
Beth
Beyond
Birds
Bookings
Born
Bravo
Broad
Cambridge
Carey
Carlos
Certain
Chakraborty
Chavan
Chawla
Chemical
Connect
Connectivity
Cr
Customer
DO
Darbar
Davis
Dental
Dhananjay
Driver
Dzire
EMI
EPF
Faf
Fine
Gallery
Geetha
Glasgow
Hasin
Hebbar
Hindustani
Hitler
Hosea
Huawei
Hubli
Innovation
Interestingly
Into
Iraqi
JMM
Jay
Jaydev
Josiah
Jubilee
Ka
Karnik
Kulgam
Kunal
Kundra
Lasith
Latest
Laughter
Lebanon
Loss
Lt
MK
Magic
Malinga
Massive
Met
Ministries
Moeen
Moscow
Nazareth
Newton
Nicholls
Nonetheless
Norway
Oli
Oval
PMO
Padikkal
Peters
Phogat
Pink
Posts
Praise
Prasanna
Pray
Prayagraj
Priority
RRR
Ramachandra
Ratan
Responding
Roger
Rom
SUVs
Sajid
Sangeetha
Santner
Satya
Saurabh
Saute
Scott
Secret
Setting
Shahrukh
Shramik
Shubman
Siddarth
Signs
Sneha
Strategic
Stress
Studios
Suggestions
Sumitra
Swachh
Tarun
Task
Tulu
VVS
Valmiki
Voice
Vote
WHAT
Ways
Wisdom
Wise
Worldwide
Yamuna
Ye
Zimbabwe
abiding
accompany
acknowledges
admire
admired
advisory
aerial
aligned
allied
allowance
altercation
aplenty
arrow
athlete
atrocities
attributes
audit
avatar
backgrounds
barrier
barriers
basin
battling
beats
belongings
bitterness
blank
brick
brochure
bullets
burial
busiest
cable
captaincy
carbohydrates
centered
chamber
chart
cheque
clergy
climbed
cm
commissioned
compatible
compered
compound
constructing
contention
continent
corners
corridor
countless
critic
dealerships
decay
delays
deployment
devote
didst
disbursed
divisions
donkey
donor
eminent
emperor
emphasised
energetic
enjoys
ensuing
entrepreneurship
entrusted
essay
evolved
exalted
expose
exterior
fabulous
federal
finalized
fingerprint
fluent
forgot
gardens
genes
gifted
granting
healthier
historians
honourable
horsepower
hostile
hypocrisy
icons
importantly
incurred
integrated
integration
intensive
intentions
irritation
kilometers
labourer
lame
lander
lately
lays
legitimate
leopard
liability
liar
lookout
lowered
manhunt
mankinds
mega
memento
merge
metropolitan
midnight
missiles
moist
monument
morally
natives
nerve
nets
noteworthy
numb
observations
ons
onward
opposers
oppression
owe
pained
panels
permanently
potentially
precisely
predecessor
prescription
priesthood
privileged
problematic
productive
proposes
prosperous
provoke
quarterfinals
quoting
radiation
raided
refuted
relaxation
repaid
revelation
rides
rites
ritual
rocket
rumoured
saint
saute
scarce
screaming
seas
senses
serial
seventy
shambles
shampoo
shaping
sharma
sheets
shipping
shorter
shutdown
soared
spicy
sponsored
stylish
successor
swollen
tanks
targeting
taxation
teens
tempered
tempted
tooth
transfers
treasurer
trio
trophies
tropical
trustworthy
vicinity
warmly
weeds
weigh
weren
whos
worldly
wrestling
www
##0mAh
##11
##62
##64
##78
##87
##AH
##AL
##FA
##HO
##LL
##LV
##PM
##RL
##SI
##Sc
##TO
##UDA
##WE
##ace
##acked
##acle
##acuum
##aestro
##afar
##afari
##agdish
##aidan
##ailed
##aist
##alini
##alta
##alysts
##aneous
##aramilitary
##aree
##around
##assed
##ato
##ayukta
##azing
##bdomen
##bsp
##build
##buster
##camped
##case
##cels
##cision
##ckets
##cling
##cratic
##culosis
##curring
##eah
##ecast
##ection
##eda
##edia
##eds
##emed
##erselvam
##ersey
##eti
##evere
##factory
##ficial
##frain
##fteen
##ganda
##ggies
##ghar
##gradation
##gu
##gupta
##haan
##hadi
##hadra
##haikh
##harging
##hede
##hilosopher
##hin
##hiru
##hither
##hoomi
##hpur
##hr
##huja
##hushan
##ials
##iation
##idant
##idhan
##iery
##igently
##ihar
##illain
##illy
##ingle
##inny
##irus
##ival
##jesh
##joicing
##kta
##kya
##lesh
##lication
##lie
##lized
##lpur
##lson
##makers
##mary
##mas
##mated
##matical
##mation
##minar
##mmy
##mohan
##mu
##nated
##native
##ncing
##ncluding
##ncomfortable
##neration
##netic
##newed
##nfounded
##nfrontation
##nishing
##norr
##novation
##npleasant
##ntributing
##nutrition
##nuts
##ockdown
##odging
##oiled
##oji
##ologies
##ologist
##ooked
##oosts
##opathy
##ope
##orate
##ork
##orous
##orticulture
##oss
##oul
##ouston
##ov
##ovable
##oven
##ozilla
##pan
##path
##perator
##pesh
##phs
##pice
##pies
##play
##pressive
##pute
##quality
##quiring
##ractical
##ractise
##rah
##rats
##rchants
##ributes
##ricular
##riel
##rier
##rieving
##rik
##rip
##rium
##rix
##rked
##rogate
##rol
##rons
##rrows
##rstwhile
##rth
##rub
##ruff
##secutor
##sible
##siding
##somnia
##ssi
##struct
##tall
##technology
##tect
##tension
##terred
##tery
##thappa
##thesis
##tist
##tler
##tness
##tographer
##trology
##ttps
##turns
##uarters
##uations
##uclear
##udhry
##uff
##uity
##ulative
##ulptures
##ulse
##umber
##umption
##ungle
##unish
##uro
##uv
##vansh
##vian
##vice
##vinder
##vive
##warming
##xt
##yst
##zens
##zers
##zon
##zone
##zos
100th
12MP
142
16MP
17th
1919
7th
ACP
Aditi
Albert
Anwar
Archaeological
Aryan
BIMSTEC
Ban
Begin
Begum
CAG
CVT
Career
Chhatrapati
Coach
Colony
Combine
Complaint
Complex
Conditions
Constitutional
Cooperative
Crude
Damage
Debt
Deep
Devdutt
Dharmasthala
Disney
Dreams
Duster
Dwayne
Electoral
Eoin
Evening
Fall
Farhan
Finding
Found
Francisco
Gad
Gates
Gets
Giriraj
Grandhomme
Gundurao
Harris
Holiday
ICJ
ITR
Identification
Inflation
Interior
Jamaat
Jericho
Judas
Karkala
Keyboard
Khalid
Koffee
Kohlis
Lamb
Lewis
Lobo
MBBS
Mathematics
Mathews
Matters
Mechanical
Meghana
Messianic
Moto
Mumbais
Mushtaq
NGO
Nazi
Nebuchadnezzar
Oppo
PIL
Panaji
Panchayats
Participants
Permanent
Plans
Pokhriyal
Pope
Postal
Priced
RTI
Rae
Ramachandran
Ramana
Rampal
Rampur
SDM
Sadhvi
Samantha
Sampath
Sankranti
Savings
Secular
Serious
Sermon
Serving
Shaun
Shivajinagar
Shivpal
Sidharth
Simeon
Sinai
Size
Sodom
Soil
Solicitor
Somnath
Soudha
Spot
Spread
Srinivasan
Sunita
Syndicate
Table
Titus
Trouble
Ultimately
Universities
Unless
Updates
Vedic
Vihari
Visitors
Walk
Wellington
Wherefore
Woakes
Yatra
Zaheer
Zakir
Zampa
Zephaniah
abducted
abetment
abusive
accounting
accuracy
achievers
adjoining
advise
aide
ailing
alleges
allergies
answering
arguing
arising
arrogance
basket
batted
beta
bhp
boast
bondage
browsing
builders
burgled
burns
carriers
carvings
catching
celery
centric
charity
clever
collections
collide
complications
concentrate
concepts
console
contagious
convince
cooperating
councillors
countrymen
counts
county
crowded
deferred
deliberate
demonstrations
designing
devour
dimensions
dip
directs
discernment
discomfort
distinctive
disturb
drove
effectiveness
employers
ensures
envoy
erected
evolve
evolving
exhibited
factories
faiths
fares
feasible
festivities
filming
floating
foremost
forgiven
formerly
forsake
forsaken
foundations
glow
gotten
grab
greed
greet
grudge
hardware
haste
hazardous
hilarious
homeless
humanitarian
hurts
hypertension
idle
indirect
inexpensive
infotainment
innovations
intact
interacting
intolerance
itching
jack
jibe
ladies
lathi
lavish
learns
lend
lenders
materialised
medically
meek
memorandum
mill
mock
mounting
musicians
originated
overly
palm
partition
passionate
pelting
penalties
pistol
plains
pledge
posing
powdered
practicing
proclaimers
prophesied
proves
pumps
rectify
references
refund
refuses
regain
reluctant
remade
repeating
reproach
rigid
rough
sadly
scalped
scare
schooling
screenwriter
scribes
sentences
separation
sewerage
shells
shouldn
shrines
sidelines
simplify
skies
smiles
solidarity
somehow
spectators
splendid
stakes
stretches
substantially
swim
teenager
telescopic
tends
terminated
territorial
throwback
touches
tournaments
treaty
tube
tyres
ultra
umpire
unnecessarily
versatile
vertical
warming
waterlogged
wifes
willingness
wilt
workforce
worshiped
youve
##!
##"
###
##$
##%
##&
##'
##(
##)
##*
##+
##,
##-
##.
##/
##:
##<
##=
##>
##?
##@
##[
##\
##]
##^
##_
##`
##{
##|
##}
##~
