[PAD]
[UNK]
[START]
[END]
!
"
#
$
%
&
'
(
)
*
+
,
-
.
/
0
1
2
3
4
5
6
7
8
9
:
<
=
>
?
@
A
B
C
D
E
F
G
H
I
J
K
L
M
N
O
P
Q
R
S
T
U
V
W
X
Y
Z
[
\
]
^
_
`
a
b
c
d
e
f
g
h
i
j
k
l
m
n
o
p
q
r
s
t
u
v
w
x
y
z
{
|
}
~
 
¡
£
¤
§
¨
©
ª
«
®
¯
°
²
³
´
¶
·
¸
º
»
¼
½
¾
¿
À
Á
Â
Ã
Å
Ç
É
Ì
Í
Î
Ï
Õ
Ö
×
Ø
Ü
à
á
ä
æ
ç
é
ì
í
ï
ó
ö
÷
ø
û
ü
ý
ā
ć
ī
ĸ
Ō
ō
Œ
š
ɐ
ɒ
ɔ
ə
ɛ
ɜ
ɡ
ɪ
ɹ
ʊ
ʼ
ˈ
ˌ
ː
́
̅
Δ
Ω
ά
ί
α
β
γ
δ
ε
θ
ι
κ
λ
μ
ο
π
ρ
ς
σ
τ
υ
φ
χ
ω
ϕ
а
в
к
м
н
о
с
т
ה
ו
י
ا
ت
ر
ش
ض
ق
م
ن
و
گ
ہ
ی
ܘ
ܝ
ܣ
ܩ
ܪ
ं
अ
इ
ए
क
ग
छ
ज
ट
ठ
ड
ढ
ण
त
द
ध
न
प
ब
म
य
र
ल
व
स
ह
ा
ि
ी
ु
ू
े
ो
्
।
॥
অ
আ
ঠ
ত
দ
ন
প
ম
য
স
়
া
ি
ী
্
ৰ
ச
த
ப
ர
ள
ா
ி
ு
்
ಂ
ಃ
ಅ
ಆ
ಇ
ಈ
ಉ
ಊ
ಋ
ಌ
ಎ
ಏ
ಐ
ಒ
ಓ
ಔ
ಕ
ಖ
ಗ
ಘ
ಙ
ಚ
ಛ
ಜ
ಝ
ಞ
ಟ
ಠ
ಡ
ಢ
ಣ
ತ
ಥ
ದ
ಧ
ನ
ಪ
ಫ
ಬ
ಭ
ಮ
ಯ
ರ
ಱ
ಲ
ಳ
ವ
ಶ
ಷ
ಸ
ಹ
಻
಼
ಽ
ಾ
ಿ
ೀ
ು
ೂ
ೃ
ೄ
ೆ
ೇ
ೈ
ೊ
ೋ
ೌ
್
ೕ
ೖ
ೞ
೦
೧
೨
೩
೪
೫
೬
೭
೮
೯
೵
ം
ക
ട
ഥ
ന
മ
ള
ാ
ി
ു
ൂ
്
ർ
ค
ง
ต
ธ
ร
ไ
์
ṁ
ṇ
ṣ
ἀ
Ἑ
ῖ
 
–
—
‘
’
‚
“
”
„
•
…
′
″
₨
€
₹
№
→
↓
∑
−
√
∠
≈
≪
⏎
□
▪
►
◆
○
♦
♪
✍
✓
✔
❍
❏
❑
❖
❤
〖
〗
七
中
制
医
号
合
団
国
德
武
神
舟
號
軍
連
際













樂
️
💬
😄
😅
ಮತ್ತು
ಎಂದು
ಆದರೆ
ಅವರು
ಇದು
##ದ
ಹಾಗೂ
##ಗಳು
ಒಂದು
ನಾನು
ಬಗ್ಗೆ
##ಗಳನ್ನು
##ಯ
ಅವರ
##ಗಳ
##ಗೆ
ನಾವು
##ಲ್ಲಿ
##ವನ್ನು
##ವು
##ಕ್ಕೆ
##ಿಂದ
##ರು
ಮೇಲೆ
ಬಿಜೆಪಿ
ಕಾಂಗ್ರೆಸ್
ನಲ್ಲಿ
ನಮ್ಮ
ಇಲ್ಲ
ಅದು
##ನ
##ು
ಯಾವುದೇ
##ಯನ್ನು
ನಿಮ್ಮ
##ಿ
ಪೊಲೀಸರು
##ನ್ನು
##ಸ್
##ರ
##ೆ
ತನ್ನ
ಏನು
ಮೋದಿ
ನೀವು
ಮೂಲಕ
ನಂತರ
ತಮ್ಮ
##ವಾಗಿ
ಗೆ
##ನು
ಅಥವಾ
ಹೆಚ್ಚು
##ದಲ್ಲಿ
ವಿರುದ್ಧ
ಭಾರತ
ಎಂದರು
ನನಗೆ
##್
ಇದೆ
##ಾ
ರೂ
ಕೂಡ
##ೂ
ಅವರಿಗೆ
ಎಂಬ
ಎಸ್
##ಗಳಲ್ಲಿ
ಅದನ್ನು
ಪ್ರಧಾನಿ
ಸರ್ಕಾರ
##ೇ
##ಂತೆ
ಹೇಗೆ
##ಯಲ್ಲಿ
##ವಾಗಿದೆ
ಇದನ್ನು
##ವಾದ
ಅವರನ್ನು
##ರುವ
ಪ್ರಕರಣ
##ದೆ
ಹೊಸ
ಪೊಲೀಸ್
##ಗಳಿಗೆ
##ನ್
ಹೇಳಿದರು
##ಲ್ಲ
ಎರಡು
ಭಾರತದ
ಯಾವ
ಎಲ್ಲಾ
ಸಹ
ಕೆಲವು
##ಿಗೆ
ಮೊದಲ
ಇದರಿಂದ
ಕುರಿತು
##ಯೇ
ಕೇಂದ್ರ
ಹೇಳಿದ್ದಾರೆ
ಇಲ್ಲಿ
ಕೆಲಸ
##ವೂ
ಸಿಂಗ್
##ುದು
ಮಾಡಿ
ಕೋಟಿ
ಇದಕ್ಕೆ
ಮಾಜಿ
ಇನ್ನೂ
ಸಚಿವ
ಬಳಿಕ
ರಾಜ್ಯ
ಹೆಚ್ಚಿನ
ಮಾತ್ರ
ಅದರ
##ವೆ
ಭಾರತೀಯ
##ಯೂ
##ಲ್
ನರೇಂದ್ರ
##ವೇ
ಕುಮಾರ್
ಅಧ್ಯಕ್ಷ
ಅವನು
##ಸಿ
##ವರು
ನನ್ನ
ಜನರು
ಮಾಡಲು
##ರಿ
ಇದರ
ಅನ್ನು
ನಮಗೆ
##ಾಗ
##ಟ್
##ೊಂದಿಗೆ
ಮಾಹಿತಿ
##ಯು
##ರ್
ಉತ್ತಮ
ತಿಳಿಸಿದ್ದಾರೆ
ಅಲ್ಲ
ಆರ್
ಎಲ್ಲ
##ದ್ದು
ಲಕ್ಷ
ಮುಖ್ಯಮಂತ್ರಿ
ಗಾಂಧಿ
ಉತ್ತರ
ಇನ್ನು
ಪ್ರಮುಖ
ರಾಹುಲ್
ಮುಖ್ಯ
##ರೆ
##ತ್ತು
##ದಿಂದ
ಹಲವು
ಅನೇಕ
ಎನ್
##ಕ
ಕೆ
ತನಿಖೆ
##ಯಿಂದ
ವಿವಿಧ
ತುಂಬಾ
ಇದೇ
##ವ
ದೊಡ್ಡ
ನಾಯಕ
ನಿಮಗೆ
ಅದಕ್ಕೆ
##ದು
ಕಾರಣ
ಮಂದಿ
ಮೂರು
ಯಾರು
ಕ್ರಮ
##ಾದ
##ಡ್
ಬಹಳ
ಅವನ
##ತೆ
##ದ್ದಾರೆ
10
ಆಗಿದೆ
ವೇಳೆ
ಮಾಡಿದ್ದಾರೆ
##ಾಗಿ
ದೇವರ
ಇತರ
ನೀರು
ದೇಶದ
ಸೇರಿದಂತೆ
ಅತ್ಯಂತ
ಸಂಬಂಧ
ಮುಂದಿನ
##ಕ್ಕಾಗಿ
ಬ್ಯಾಂಕ್
##ಗಾಗಿ
ನಡುವೆ
ಹೀಗೆ
ಸುಮಾರು
ಆದ್ದರಿಂದ
ಆಸ್ಪತ್ರೆಗೆ
ಇಬ್ಬರು
##ಡಿ
ರಾಷ್ಟ್ರೀಯ
ಮುಂದೆ
##ಕ್
ಗಳು
ಬಾರಿ
ಚಿತ್ರ
##ಳು
ಕೇವಲ
ಬೇರೆ
ಆರೋಗ್ಯ
ಬಿ
ಡಿ
ಠಾಣೆಯಲ್ಲಿ
ಕಡಿಮೆ
ಘಟನೆ
##ರೂ
ಸಿ
##ಂದು
##ತು
ಸಾಕಷ್ಟು
ತಿಳಿಸಿದರು
ಮತ್ತೆ
ಅಲ್ಲಿ
ಜೊತೆ
ಒಬ್ಬ
ಇಂಡಿಯಾ
ಭೇಟಿ
ಮಾಡುವ
##ಮ್
ಸಿನಿಮಾ
ಖಾನ್
ಸಂದರ್ಭದಲ್ಲಿ
ಗಳನ್ನು
##ಕ್ಕೂ
ಸಾಮಾಜಿಕ
ಪ್ರತಿ
ಏಕೆ
ಪಕ್ಷದ
##ಲ್ಲೂ
ಬೆಂಗಳೂರು
ಜೊತೆಗೆ
##ಂ
ಹಿಂದೆ
ಅಧಿಕಾರಿಗಳು
ರಾಜಕೀಯ
ಹಲವಾರು
ವಿಶೇಷ
ಹೀಗಾಗಿ
##ಗಳಿಂದ
ಆದರೂ
ನೀಡಿದ್ದಾರೆ
ನಡೆದ
ಈಗಾಗಲೇ
ನಿನ್ನ
##ತ
ಆಯ್ಕೆ
##ಗೂ
##ದ್ದ
##ಲ
##ವರ
ಇದರಲ್ಲಿ
##ವಿದೆ
ಮಾಡಿದ
##ನೇ
ಎಂಬುದು
ಹಾಗೆ
ದಾಖಲಾಗಿದೆ
ಸರ್ಕಾರದ
ಗಳ
ಶ್ರೀ
##ಕೆ
##ನಲ್ಲಿ
ರೀತಿಯ
ಚಿಕಿತ್ಸೆ
ಮಕ್ಕಳು
ಯೆಹೋವನ
ನೋಡಿ
##ಲು
ದೂರು
##ಲಿ
##ವಿಲ್ಲ
ದಿನ
##ುದಿಲ್ಲ
ಚಿತ್ರದ
ಆತನ
ಭಾರತದಲ್ಲಿ
ಡಾ
ನಟ
ಹೊಂದಿದೆ
##ಸುವ
##ೋ
ಕ್ರಿಕೆಟ್
ಪಿ
ಹಣ
ನಿಂದ
ಬಾಲಿವುಡ್
ಸ್ವಲ್ಪ
ಒಟ್ಟು
ಆಫ್
ಮೊದಲು
ಸಮಸ್ಯೆ
ಜನರ
##ದರು
ನೀನು
ಶೇ
ಪ್ರಕಾರ
##ಯಾಗಿ
ಬೆಲೆ
ಇಂತಹ
ಮಾಡಿದೆ
ಸಾಧ್ಯವಿಲ್ಲ
ಕನ್ನಡ
ಸಮಯ
ನಟಿ
ಯೇಸು
ಸಹಾಯ
##ನೆ
ರನ್
ರಾಜ್ಯದ
ಅವಕಾಶ
##ನ್ನೂ
ಹಿರಿಯ
##ಸಲು
ಮಾಡಲಾಗಿದೆ
ಎಷ್ಟು
ಎಂ
ಚುನಾವಣೆ
##ಯಾಗಿದೆ
20
ಯಾರೂ
ಜೆಡಿಎಸ್
ಹೇಗೆ
ಬಿಡುಗಡೆ
ಎಂಬುದನ್ನು
ಜಿಲ್ಲಾ
ಕಳೆದ
ನೀವು
15
##ಣ
ಸಂಖ್ಯೆ
ಕಾನೂನು
ಶಿಕ್ಷಣ
##ಕೊಂಡು
ಕಾರು
ಕರ್ನಾಟಕ
ಫೋನ್
ಅತಿ
ಅದೇ
ಮಕ್ಕಳ
ರೀತಿ
##ನಾ
ತಂಡ
##ನೂ
##ಾಗಿದೆ
ಸ್ಥಳಕ್ಕೆ
ದೇವರು
##ವಲ್ಲ
##ಸು
##0
##ಿದೆ
ಒಂದೇ
ಸರಕಾರ
ಕೊಹ್ಲಿ
##ವರಿಗೆ
##್ದು
ಎರಡೂ
ಆಗ
ಅಲ್ಲದೆ
ಸಾವು
ಇವೆ
ದಕ್ಷಿಣ
##ಟಿ
##ಿಲ್ಲ
ಸಂಪೂರ್ಣ
ಉಪಸ್ಥಿತರಿದ್ದರು
ಆರ್ಥಿಕ
ಎಂದಿದ್ದಾರೆ
ಯಾಕೆ
##ಗಳಿವೆ
##ದ್ದರು
##ವಾಗಿತ್ತು
##ಲ್ಲೇ
ವಿದ್ಯಾರ್ಥಿಗಳು
ಕೋರ್ಟ್
ಆಹಾರ
ಹೆಸರು
##ರಿಗೆ
ಸಮಯದಲ್ಲಿ
ಅಗತ್ಯ
12
ಪ್ರಧಾನ
ಮಾಡಬೇಕು
19
ಪಾಕಿಸ್ತಾನ
##ರಲಿಲ್ಲ
ಜನರಿಗೆ
ಅಭಿವೃದ್ಧಿ
000
ಇವರು
ಎಲ್ಲರೂ
##ಮ
ನಡೆದಿದೆ
ಮುಂಬೈ
ಇರುವ
ದೆಹಲಿ
ಚಿತ್ರದಲ್ಲಿ
ಯೆಹೋವನು
##ರಾ
ನಾಲ್ಕು
ಹಾಗಾಗಿ
ಬೈಬಲ್
##ವನ್ನೂ
ಪ್ರಶಸ್ತಿ
ರಾಜ್ಯದಲ್ಲಿ
ವರದಿ
ನನ್ನನ್ನು
##ಸುತ್ತದೆ
ತೀವ್ರ
##ತ್
##ಿಗೂ
ಇಲಾಖೆ
ವಿರಾಟ್
ತುಂಬ
##ುದನ್ನು
ಪತ್ನಿ
ಇಲ್ಲಿದೆ
ವಿಷಯ
##ಗ
ಹೌದು
##ತಿ
ಅಂದರೆ
ಪರಿಣಾಮ
ಸಭೆಯಲ್ಲಿ
ಎರಡನೇ
ನೀಡಿದರು
ಆದಾಗ್ಯೂ
ತಂಡದ
##ಂಗ್
ಶರ್ಮಾ
##ಿವೆ
##ಿಸಿ
ಎಚ್
ಟೆಸ್ಟ್
ಮಾಡುತ್ತದೆ
ನೀಡಿದೆ
ರಸ್ತೆ
ಆತನು
ಪಕ್ಷ
ಕೂಡಾ
ಚುನಾವಣೆಯಲ್ಲಿ
##ರನ್ನು
ಕೂಡಲೇ
ಇರಲಿಲ್ಲ
ಪ್ರಶ್ನೆ
ಸದ್ಯ
ಎಲ್
ನೀಡಿ
ಪ್ರತಿಭಟನೆ
ಸಣ್ಣ
##ಲಾ
ಪರಿಸ್ಥಿತಿ
ಟಿ
ನೀಡಿದ
##ತ್ತ
ಕಪೂರ್
##ಲೂ
ಇಡೀ
ಮಾಡಿದರು
50
ಇದೊಂದು
ಓದಿ
ಅರ್ಜಿ
11
##ಯಾ
ಮಳೆ
##ನಿ
##ಜ್
ಅಂತ
##ಿರಿ
ಎಂಜಿನ್
ಪರಿಹಾರ
ಸಿಎಂ
ಮಾಡಬಹುದು
ವಾಹನ
##ಿಸುವ
##ಲೇ
ವಿಚಾರಣೆ
##ಷ್ಟು
ಎಫ್
##ೊ
ವಿಕೆಟ್
ತಾಯಿ
ಬಸ್
ಸಂಗೀತ
ಸ್ಥಾನ
##ಂತಹ
ಅದರಲ್ಲಿ
ಬಂದಿದೆ
##ರಿಂದ
##ಿದ್ದಾರೆ
ನಿರ್ದೇಶಕ
ಯೋಜನೆ
ಟ್ವೀಟ್
ವಿಮಾನ
ಜಿ
ನಗರ
##ಕರ
ಚುನಾವಣಾ
ಸೂಕ್ತ
ಅಗತ್ಯವಿದೆ
ಅಮಿತ್
ಅವನಿಗೆ
ಸಾಮಾನ್ಯ
ತಂದೆ
ಭಾರತಕ್ಕೆ
##ಟ
##ಪ್ಪ
ಕಾರ್ಯ
##ಬೇಕು
ಮನೆ
##2
ಭಾರೀ
##ಸಿದ
ಶೆಟ್ಟಿ
ಕಾರ್ಯದರ್ಶಿ
14
ವ್ಯವಸ್ಥೆ
##ಗಳೂ
ಕಾಲ
ದೇಶದಲ್ಲಿ
ಪೆಟ್ರೋಲ್
ಬೇಕು
ಬಳಿ
##ಸ
ಏನೂ
ಶಾ
##ರಲ್ಲಿ
##ಸಬೇಕು
ಮನವಿ
ಹಾಕಿ
##ವನು
##ಿದ್ದು
##ರಾದ
ಅತ್ಯುತ್ತಮ
ಪ್ರಧಾನಮಂತ್ರಿ
ವಿ
##ಯಾದ
##ೀ
ಮೂವರು
ಈಗ
##ಿತ್ತು
ಅವುಗಳನ್ನು
##ಿನ
ದಾಳಿ
##ಪ್
ಬಂದ
ಇರುತ್ತದೆ
ಎಲ್ಲರಿಗೂ
ನವದೆಹಲಿ
ಮಹಿಳಾ
##ಳ
##ಿರುವ
ತೆರಿಗೆ
ಬೈಕ್
ರೀತಿಯಲ್ಲಿ
100
ನೀಡುವ
ನೀರಿನ
ಸಿಬ್ಬಂದಿ
##ಂಥ
##ರುತ್ತದೆ
ಐದು
25
##ಸಲಾಗಿದೆ
ಮಾಡುವುದು
ಇವರ
##5
##ಿಸಲು
ಆತ
ಸ್ಥಳೀಯ
ನೀಡಲಾಗಿದೆ
ಜೀವನ
ನಿರ್ಧಾರ
ಸುದ್ದಿ
ಬೆಂಬಲ
13
ಖಾಸಗಿ
ಕುಟುಂಬ
ರು
ಚೆನ್ನಾಗಿ
ಸಂಬಂಧಿಸಿದಂತೆ
ಗುಜರಾತ್
ಗೆಲುವು
##ಿದ್ದರು
ಅವು
##ವಿ
ಆದ
##ವಾಗುತ್ತದೆ
30
ಆದ್ರೆ
ಎಲ್ಲವೂ
ಬೇಡ
ಸಾಮಾನ್ಯವಾಗಿ
##ವಾಯಿತು
ಹೊಂದಿರುವ
ಸರ್ಕಾರಿ
ಯಾವಾಗಲೂ
ಯಾವುದು
ವಿಡಿಯೋ
##ವೆಂದು
ನೂತನ
ಪ್ರತಿಕ್ರಿಯೆ
ವಿಶ್ವ
##ಗಿ
ಸೇವೆ
ಗಳಲ್ಲಿ
ಕಾರ್ಯಕ್ರಮದಲ್ಲಿ
ನಡೆಯುತ್ತಿದೆ
ವೈದ್ಯಕೀಯ
ಗಮನ
ರಾಜೀನಾಮೆ
ಅವಳು
ಲೋಕಸಭಾ
ಹಣಕಾಸು
ಹೇಳಿಕೆ
ಇಂದು
ಸ್ಮಾರ್ಟ್
ತಪ್ಪು
ನಿಟ್ಟಿನಲ್ಲಿ
##1
##ನಿಗೆ
##ುದೇ
ಹಾಗೆಯೇ
##ತಾ
ಪೊಲೀಸರಿಗೆ
ಇತ್ತು
ಕೆಲವರು
ವಿಷಯದಲ್ಲಿ
ವರ್ಷದ
##ಸಬಹುದು
ಸಾರ್ವಜನಿಕ
16
##ಿಕ
ಮನೆಯಲ್ಲಿ
##ಿದ್ದ
ಹಿನ್ನೆಲೆಯಲ್ಲಿ
ಇನ್ನಷ್ಟು
ಕೃಷಿ
##7
ರಕ್ಷಣಾ
ಜನರನ್ನು
ಬಂದು
ಸಭೆ
##ಲೆ
##ಿತು
ಕುಮಾರಸ್ವಾಮಿ
##ಗಳನ್ನೂ
ಹಾಗು
##6
ಮತ್ತೊಂದು
ಗೃಹ
ನೀಡಲು
ಟೀಂ
ದಿನಗಳಲ್ಲಿ
ನಮ್ಮನ್ನು
ಜಮ್ಮು
ಡೀಸೆಲ್
##ಡ
ಅವನನ್ನು
ಪ್ರದೇಶ
ಕರ್ತನು
##ರಷ್ಟು
##ಶ್
ಮೊಬೈಲ್
ರಾಜ್
ಅಲ್ಲದೇ
ಆಡಳಿತ
ನಡುವಿನ
ಸಿಬಿಐ
##4
ಸಂಸ್ಥೆ
18
ಏಕೆಂದರೆ
ಇನ್ನೊಂದು
ವ್ಯಕ್ತಿ
ಸದಸ್ಯರು
ಕೆಳಗಿನ
ಮಕ್ಕಳಿಗೆ
ತಕ್ಷಣ
ಪಂದ್ಯದಲ್ಲಿ
ಕಾರ್ಡ್
ರೈತರ
##ಜಿ
ಎಂದೂ
ವಿದ್ಯುತ್
ಕಾರ್ಯಕ್ರಮ
ಜತೆಗೆ
ಪರೀಕ್ಷೆ
ಪಾಕ್
ಚೀನಾ
ದರ
ವಶಕ್ಕೆ
ಇದೀಗ
ಪ್ರಸ್ತುತ
ಅಂತಹ
##ಂದ
ಇದ್ದಾರೆ
ಸೂಪರ್
##ರೋ
##ುದರಿಂದ
##ುದಕ್ಕೆ
ನಿಜ
##ಎಸ್
##ುದಾಗಿ
##ಟರ್
##ನನ್ನು
ಬಿಜೆಪಿಗೆ
ಒಳ್ಳೆಯ
ಜಿಲ್ಲೆಯ
ಪ್ರಕರಣದ
ಗೊತ್ತಿಲ್ಲ
ಪರ
ಬಂದಿಲ್ಲ
##ದೇ
ಸಂಪೂರ್ಣವಾಗಿ
##ತ್ತದೆ
ಆಕೆ
ಹೈಕೋರ್ಟ್
17
ಸಿದ್ದರಾಮಯ್ಯ
##ಕೊಳ್ಳುವ
##ನ್ನ
##ಬ್
ಸಾಧ್ಯತೆ
##್ಯ
ಅಧಿಕ
ಬಾರಿಗೆ
##ವರೆಗೆ
ಇನ್
ನಾಯಕರು
ರೂಪಾಯಿ
##3
ಇಂಗ್ಲೆಂಡ್
ಹೋಗಿ
ತಮಿಳು
ತೆಲುಗು
ಕೆಲ
ನಡೆಸಿದ್ದಾರೆ
##್ದರು
ರೈತರು
##ಕೊಳ್ಳಲು
ಸಮಿತಿ
ನಿರ್ಮಾಣ
##ತೆಯನ್ನು
##ಿಕೆ
##ೀಯ
ಅಮೆರಿಕ
ಆರೋಪ
ಇಂಥ
ಯಾದವ್
ಪ್ರಮಾಣ
ಮಾತು
##ಿಗಾಗಿ
##ಿಸಿದ
##9
##ವಾ
ಸುಪ್ರೀಂ
##ಪುರ
ಪೈಕಿ
ಹೊಂದಿದೆ
ಬಿಟ್ಟು
ಆಗಿತ್ತು
ಕ್ಷೇತ್ರದಲ್ಲಿ
##ಕರ್
##ವಾಗಿದ್ದು
ಹಿಂದಿನ
ಇದ್ದರು
##್ದ
ಮಾಡಿಲ್ಲ
ಸ್ಥಿತಿ
ಜತೆ
ಯುವ
ಅಷ್ಟೇ
ಕೋವಿಡ್
ಚರ್ಚೆ
ಶಕ್ತಿ
ಸಾವಿರ
ಫಲಿತಾಂಶ
ಹೇಳಿದೆ
##ಮಾ
##ಫ್
##ರಾಗಿ
ತಾನು
ದಾಖಲಿಸಲಾಗಿದೆ
ಸತ್ಯ
ಯಡಿಯೂರಪ್ಪ
##8
ಇದರಿಂದಾಗಿ
ವರೆಗೆ
##ಸಿದರು
ಮಾರಾಟ
ಅಂತಿಮ
ವಿರೋಧ
##ಿತ
ರೋಹಿತ್
##ಣಿ
##ದಕ್ಕೆ
##ಪಿ
ವೈರಲ್
500
ಕಥೆ
ನಿಮ್ಮನ್ನು
ಪಾಕಿಸ್ತಾನದ
ಮೂರನೇ
ಹಿಂದಿ
ವಿಧಾನ
ಎನ್ನಲಾಗಿದೆ
ನಡೆಸುತ್ತಿದ್ದಾರೆ
ಶಾಸಕ
ಎಲ್ಲಿ
ಮಧ್ಯೆ
ಮಾನವ
ಮಹಿಳೆ
##ಎ
ಗೌರವ
ನಡೆಸಿದ
ಸಾಲ
ಮಾರುಕಟ್ಟೆಯಲ್ಲಿ
ಸಂಚಾರ
ಸರಿಯಾಗಿ
##ಿಯ
ಉಪ
ಬೆಂಕಿ
ಲೈನ್
ಸ್ಟಾರ್
ನಡೆಯಿತು
ಆರು
##್ದಾರೆ
21
ದೇಶ
##ಿಸಬೇಕು
ನಿನಗೆ
ಮನೆಗೆ
ಯಾರಿಗೂ
ಶಾಲಾ
##ಪ
ನಿಜವಾಗಿಯೂ
ಮೇಲಿನ
ಅಭ್ಯರ್ಥಿ
ಪಶ್ಚಿಮ
##ಳಿ
ಪತ್ರ
ಪಾತ್ರ
ಮಹಿಳೆಯರು
##ಕೊಳ್ಳಿ
##ಿಸುತ್ತದೆ
ಆನ್
ಎಂದರೆ
ಬದಲಾವಣೆ
ಸಂಪರ್ಕ
##ಕೊಳ್ಳಬೇಕು
ಬರುವ
ಹಿಂದೂ
##ಗ್
ಟ್ರಂಪ್
24
ಅಂತಾರಾಷ್ಟ್ರೀಯ
ಆತನನ್ನು
ಕಠಿಣ
##ಿಸಲಾಗಿದೆ
22
ಪ್ರೀತಿ
ಸಾಧ್ಯ
##ೆವು
##ಚ್
ಕಷ್ಟ
##ತೆಯ
##ೊಳಗೆ
ಸರಿ
40
ಉದಾಹರಣೆಗೆ
ಭರವಸೆ
ಹೆಚ್ಚುವರಿ
ಯಾವಾಗ
ಅಧ್ಯಯನ
ಪರಿಶೀಲನೆ
ವಿಶ್ವದ
##ನಿಂದ
##ಿಸಿದೆ
ಏರ್
ದಿನಗಳ
##ತ್ತಾರೆ
ಆಸ್ಟ್ರೇಲಿಯಾ
ಇದಕ್ಕಾಗಿ
ಕೊಲೆ
ಪಂದ್ಯ
ನಗರದ
ಪ್ರಕರಣಗಳು
ಮತ್ತಷ್ಟು
##ಷ್ಟೇ
##ಸಲಾಗುತ್ತದೆ
##ಸುವುದು
ಪಂಜಾಬ್
ಪ್ರಯತ್ನ
ಬಿಜೆಪಿಯ
## 
ವೈರಸ್
##ವೋ
##ಿಸಿದರು
ಮೂಲ
ಮತ
ಮಾಡುತ್ತಿದ್ದಾರೆ
ಮೈತ್ರಿ
ಲೀಟರ್
ಸರಿಯಾದ
ನಡೆಸಿ
ವಿಜಯ್
##ಷನ್
ಕೇಳಿ
##ದಿಲ್ಲ
##ವಾಗಿವೆ
##ವಾಗಲಿದೆ
ಏರಿಕೆ
ಮದುವೆ
ಯಾರ
##ೕ
ವಿಚಾರ
ಆದೇಶ
ಚಿತ್ರಕ್ಕೆ
ತಿಳಿಸಿದೆ
ಮಾತುಕತೆ
ಸಲಹೆ
ಹತ್ಯೆ
##ಂಟ್
##ಕಿ
ಅಧಿಕಾರಿ
ಕೈ
ನಂಬಿಕೆ
ಪ್ರಕ್ರಿಯೆ
ರಿಂದ
##ಆರ್
##ತ್ತಾ
##ದನ್ನು
200
ಭದ್ರತಾ
ಭಾರಿ
ಆತ್ಮಹತ್ಯೆ
ಇತ್ತೀಚೆಗೆ
ಎನ್ನುವ
ಐಪಿಎಲ್
##ಮಿ
ತಿಳಿದು
ಪಡೆದ
ಬಜೆಟ್
ಇಬ್ಬರೂ
ಹೋರಾಟ
##ಹ
ಮಾತನಾಡಿದ
##ವರನ್ನು
ಭಾಗವಹಿಸಿದ್ದರು
##ಕೊಂಡ
ಅವುಗಳ
##ಡು
ಪರಸ್ಪರ
##ನೋ
ಅವರೊಂದಿಗೆ
ಕಂಡು
ಸಲ್ಮಾನ್
ಆದಾಯ
ಎನ್ನುವುದು
ರಾತ್ರಿ
##ಕಾ
##ೆಂದು
##ೇನು
ಅವಳ
ಪ್ರದೇಶದ
##ಯೋ
ನೇತೃತ್ವದ
ಸಾಂಸ್ಕೃತಿಕ
ಸಾಧನೆ
ಸೇರಿ
##ಣೆ
##ಸನ್
ಆಕೆಯ
##ಗೊಳಿಸಲು
##ದನು
##ನ್ನೇ
##ಲಿಲ್ಲ
##ಸಿದ್ದಾರೆ
ಕರೆ
ನೀಡಬೇಕು
##ಕ್ಕಿಂತ
ತರಬೇತಿ
ನಡೆಯಲಿದೆ
##ರಬಹುದು
##ಸಿದೆ
ಆರೋಪಿ
ಕಡೆ
ಮಹಾರಾಷ್ಟ್ರ
ಮಾಡಿದ್ದರು
ಮುಖ್ಯಸ್ಥ
ಆಸ್ಪತ್ರೆಯಲ್ಲಿ
ಗಂಭೀರ
ನಿರ್ದೇಶನ
ಹಾಗಾದರೆ
ಗಳಿಗೆ
ಪ್ರಥಮ
ಹೆಚ್ಚಾಗಿ
ಇದಲ್ಲದೆ
ಉನ್ನತ
ಕಡೆಗೆ
ಸುಳ್ಳು
##s
ಪ್ರದೇಶದಲ್ಲಿ
ಬಹುತೇಕ
ಸಂಬಂಧಿಸಿದ
##ಸುತ್ತಾರೆ
ಜಾಗತಿಕ
ಪಟ್ಟಿ
ಅಧಿಕೃತ
ಇರುವುದಿಲ್ಲ
ದಿ
ಉಪ್ಪು
ತಾವು
ಮುನ್ನ
ರೈಲು
##ವ್
##ಿಗಳು
ಅಗತ್ಯವಿಲ್ಲ
ಸರಳ
ಸಚಿವರು
ಹೈದರಾಬಾದ್
##ರಂದು
ಅರ್ಥ
ರಷ್ಟು
##ಲ್ಲಾ
ಎಕ್ಸ್
ಪೊಲೀಸರ
ಬಹಳಷ್ಟು
ವೈಯಕ್ತಿಕ
##ಳೆ
ಎಚ್ಚರಿಕೆ
##ದಂತೆ
ಕೊರೋನಾ
ಹೊರಗೆ
##ಗೊಂಡ
##ದ್ದೇವೆ
ಕರ್ತನ
ಕೇರಳ
ಚಮಚ
ನ್ಯಾಯಾಲಯ
##ೆನು
ಇಲ್ಲಿನ
ಸರ್ಕಾರಕ್ಕೆ
ಅಧಿಕಾರ
ಧಾರ್ಮಿಕ
ಧೋನಿ
ಪಡೆಯಲು
ಪ್ರತಿಯೊಂದು
ವಿದ್ಯಾರ್ಥಿಗಳಿಗೆ
ಸದಸ್ಯ
##ಗಳಾದ
ಕ್ಯಾಮೆರಾ
ಬಿಎಸ್
##ಯಿತು
ಇತರೆ
ಚಿತ್ರವನ್ನು
ನೆರವು
ರಲ್ಲಿ
##ಕೊಂಡಿದ್ದಾರೆ
##ವಾಗಿಲ್ಲ
##ೊಂದು
##ತ್ತಿದ್ದಾರೆ
##ದ್
ಕುಟುಂಬದ
ನೀಡುತ್ತದೆ
ವ್ಯಕ್ತಪಡಿಸಿದರು
ಸಹಕಾರ
ಸ್ಥಾನಕ್ಕೆ
ಆಗಿಲ್ಲ
ಸೇರಿಸಿ
ವಿಶ್ವಕಪ್
##ಟ್ಟು
ಘೋಷಣೆ
ಡೌನ್
ಸರಕಾರದ
##ಕ್ಸ್
##ಡೆ
ಉದ್ಯೋಗ
##ಬಿ
##ಲಾಗಿದೆ
##ಸುತ್ತೇವೆ
ಅವಧಿಯಲ್ಲಿ
ದಾಖಲೆ
ನಿಯಂತ್ರಣ
ಮಗ
ವರ್ಷ
ಸುಲಭ
##ಗಿಂತ
ಫೈನಲ್
##ೈ
ಏಳು
ತಲಾ
ತಂತ್ರಜ್ಞಾನ
ನೀಡಿದ್ದರು
##ಬಹುದು
ಯಾವುದೇ
ಓರ್ವ
ಪೂರ್ಣ
##ವಾಗಿರುವ
ಅವುಗಳಲ್ಲಿ
ಪ್ರಮಾಣದ
ವರ್ಷಗಳ
##ತ್ತವೆ
##ರಬೇಕು
##ರೇ
ಅಂದನು
##ತ್ತೇನೆ
ಘಟನೆಯಲ್ಲಿ
##ಗೊಂಡಿದೆ
ಅದಕ್ಕಾಗಿ
ಅದ್ಭುತ
ಕ್ಯಾನ್ಸರ್
ಬಂಧನ
ರಾಷ್ಟ್ರಪತಿ
##ವೆಂದರೆ
##ುವ
ಅವರೇ
ಜಯ
ನಗದು
ಮಾರುತಿ
ಹೇಳಿ
##ವುದು
ಇವು
ಪರಿಸರ
ಪಾಲ್ಗೊಂಡಿದ್ದರು
ಪ್ರದರ್ಶನ
ರಾಮ್
ಕ್ರೈಸ್ತ
ಪ್ರಕರಣದಲ್ಲಿ
ಸರಣಿ
##ಡಲು
##ಸಲಾಯಿತು
ಅಪಾರ
ಕೆಲಸವನ್ನು
ನೀಡಿಲ್ಲ
##ಕೊಂಡಿದೆ
ಬಣ್ಣ
ಅಷ್ಟು
ಪುತ್ರ
ಸಾಮರ್ಥ್ಯ
##ಾಗಿದ್ದು
ಯು
##ರಾಗಿದ್ದಾರೆ
ಕನಿಷ್ಠ
ಯೇಸುವಿನ
##ಲಿದೆ
##ಾನ್
ಗಂಭೀರವಾಗಿ
ಬುಕ್
ಹಣವನ್ನು
ಉಳಿದ
ವೈದ್ಯರು
ಭರ್ಜರಿ
ಸುಪ್ರೀಂಕೋರ್ಟ್
##ಿದ್ದರೆ
ಎಂದರೇನು
ಕಾಶ್ಮೀರ
ಮಾಡಿರುವ
##ತನ
ಎಂದಿಗೂ
ಟಾಟಾ
ಮಹತ್ವದ
ಕುಡಿಯುವ
ಬಳಕೆ
ಮಾತ್ರವಲ್ಲ
##ತ್ತಿದೆ
##ಷ್
ಅಭ್ಯರ್ಥಿಗಳು
ಬಹು
ರೈತರಿಗೆ
ಶಾಂತಿ
ವಿರುದ್ಧದ
##ಾರ
##ಿಸುತ್ತಾರೆ
ಪ್ರವೇಶ
ವ್ಯಕ್ತಪಡಿಸಿದ್ದಾರೆ
##ಕು
ಅತ್ಯಾಚಾರ
##ಾಗಿದ್ದಾರೆ
ಮಂಡಳಿ
##ಗಳೊಂದಿಗೆ
ಜೀವನದಲ್ಲಿ
ಬಂಧಿಸಿದ್ದಾರೆ
ಮಕ್ಕಳನ್ನು
##ಕೊಂಡರು
##ಯದ
##ಯನ್ನೂ
##ುದರ
##ನಾಗಿ
ಅಡಿಯಲ್ಲಿ
ಪ್ರಸಾದ್
ನ್ನು
ವಿಧಾನಸಭಾ
ಸ್ಥಳದಲ್ಲಿ
##ರದ
ಏಕದಿನ
ತೊಂದರೆ
ಪೂರ್ವ
ಮಂತ್ರಿ
ಮಾಡುತ್ತಾರೆ
ರಮೇಶ್
##ಸುತ್ತಿದೆ
ತಂಡಗಳು
ಮನೆಯ
ಮಹಾ
##ಾಗಿರುವ
ಅಪ್
ಮೂಲದ
##ಡುವ
ಅದರಿಂದ
ಆಧಾರ್
ಈಗಲೂ
ಜಾರಿಗೆ
ವಿದೇಶಾಂಗ
ಹೇಳಿದ್ದರು
##ೂರು
ಜೆ
ಸಾವಿನ
##ೀರಿ
ಕಂಪನಿಯು
ಬರುತ್ತದೆ
ರೈಲ್ವೆ
ಖಾತೆ
ಚುನಾವಣೆಗೆ
ಸಕ್ಕರೆ
##ಬಾರದು
ಅನುಮತಿ
ಕಪ್ಪು
ತನಕ
ನಡೆಸಿದರು
ಪಡೆದಿದ್ದಾರೆ
##ಕಾರ
##ಸಲಿಲ್ಲ
ಕುರಿತ
ಕೆಳಗೆ
ನಿಜಕ್ಕೂ
ಲಾಕ್
ಸೋನಿಯಾ
##ಕೊಳ್ಳುವುದು
ಇಂಗ್ಲಿಷ್
ಕಾಮಗಾರಿ
ಗುರಿ
ನಿರ್ದಿಷ್ಟ
ಮಗು
ಮಾಹಿತಿಯನ್ನು
ಶಾಸಕರು
##ದಿ
##ೆಲ್ಲ
ಕ್ಷೇತ್ರಗಳಲ್ಲಿ
ತೀರ್ಪು
ಇತಿಹಾಸ
ಉಚಿತ
ನಿರೀಕ್ಷೆ
ಪತ್ತೆ
ಫೋಟೋ
ಅವರಲ್ಲಿ
ಇಲಾಖೆಯ
ಪಟೇಲ್
ಬಳಸಿ
##ತ್ತೇವೆ
##ದ್ದೇನೆ
##ನೆಯ
ಅಂಥ
ಅನುಭವ
ಇಂಡಿಯನ್
ಕೊನೆಯ
ಚಾಲನೆ
ತನಿಖೆಗೆ
ಬ್ಯಾಟಿಂಗ್
##ಸುತ್ತೇನೆ
ಇಲ್ಲಿಗೆ
ಮಾಡಿದ್ದು
##ವಾಗುತ್ತಿದೆ
ಸಂಗಡ
##ಎಫ್
##ೀರಾ
28
ಒಳಗೊಂಡಿದೆ
ಪ್ರಾಥಮಿಕ
ಸಂಪುಟ
##ತ್ತಿರುವ
##ವಿತ್ತು
##ವಿನ
ಕ್ಷೇತ್ರದ
ನಿಜವಾದ
ನಿನ್ನನ್ನು
ಸ್ವಂತ
ಅರ್ಜುನ್
ಗ್ರಾಮೀಣ
ಪಡೆದು
ರೆಡ್ಡಿ
ಸಾವಿರಾರು
##ಸಲಾದ
##ೇನೆ
ಮನ್
ಸಿನಿಮಾದಲ್ಲಿ
ಸುಲಭವಾಗಿ
ಸೂಚನೆ
##ಯಾಗಿತ್ತು
##ಯೆ
ಮಟ್ಟದ
ಮಹಿಳೆಯರ
ಮುಖಂಡ
ಮೂಲಗಳು
ಲೈಂಗಿಕ
##ಂಬ
##ಯ್ಯ
##ಶ
ಗರಿಷ್ಠ
ಮಾಡುವುದಿಲ್ಲ
ವಿಜ್ಞಾನ
ವೆಚ್ಚ
ಸಂಸದ
ಸದ್ಯಕ್ಕೆ
ಹೊರ
##ಯಂತೆ
##ಸ್ಟ್
ನಡೆಸಲು
ಪೋಷಕರು
23
ಕಪ್
ಬಂತು
##ಾನೆ
ಇವರಿಗೆ
ಚೆನ್ನೈ
ನಮ್ಮಲ್ಲಿ
ಲೋಕಸಭೆ
ವಾಣಿಜ್ಯ
##ಟಾ
##ಮಾಡಿ
ಕಾರ್ಯಕರ್ತರು
##ನಾದ
##ಸಲಾಗಿತ್ತು
ಕೆಟ್ಟ
ವಿಚಾರದಲ್ಲಿ
##ದರೆ
ಆರೋಪಿಗಳನ್ನು
ತಿಂಗಳು
##ಸಲಾಗುತ್ತಿದೆ
ಫೇಸ್
ಬಹುಮಾನ
##ಐ
ಈವರೆಗೆ
ಕಾರಣಗಳು
ಪ್ರಕರಣವನ್ನು
ಪ್ರಮಾಣದಲ್ಲಿ
ಪ್ರಶ್ನೆಗೆ
ಆತನಿಗೆ
ಚಿಕ್ಕ
ನಾನೇ
ನೋವು
ಪದವಿ
ಸಾರಿಗೆ
ಹೇಳಿದ್ದು
##ವಾಗಿರುತ್ತದೆ
##ಸುತ್ತಾನೆ
##ೆಯ
ಕ್ಲಿಕ್
ಲಭ್ಯವಿದೆ
ಹೆಣ್ಣು
ಅಲ್ಲಿನ
ಆತಂಕ
ಜನಪ್ರಿಯ
ವಿವರ
ಹಾಜರಿದ್ದರು
ಹೆಸರನ್ನು
##ಲ್ಲಿರುವ
##ಿಸುವುದು
ಅಧಿಕಾರಕ್ಕೆ
ಈರುಳ್ಳಿ
ಶಿವಕುಮಾರ್
##ಸುತ್ತಿದ್ದಾರೆ
##ಿಸಿದ್ದಾರೆ
ಕಾರ್ಯಾಚರಣೆ
ಭದ್ರತೆ
ರಕ್ಷಣೆ
##ಂಟು
##ಗೇ
ಅರಣ್ಯ
ಮಾನಸಿಕ
ಮೊದಲ
ಮೈಸೂರು
ವಿಷಯವನ್ನು
##ಬೇಡಿ
ಅಮೆರಿಕದ
ಇತರರು
ಇರಬೇಕು
ಕಿ
ಕೀರ್ತನೆ
ಕೆಲವೊಮ್ಮೆ
ದೂರ
ಹಕ್ಕು
##ವನ್ನೇ
ಕ್ರಮಗಳನ್ನು
ಪೌಲನು
ವಿದ್ಯಾರ್ಥಿ
ಸ್ವತಃ
ಹೇಳುತ್ತಾರೆ
##ರುವುದು
ಪತಿ
ವ್ಯಾಪಾರ
##ವೇನು
60
ಬೇಡಿಕೆ
ಯುದ್ಧ
ಸುಜುಕಿ
##ಿಸಬಹುದು
ಒತ್ತಡ
ಪೋಸ್ಟ್
ಸ್ಪರ್ಧೆ
ಅನುಷ್ಕಾ
ನೀರನ್ನು
##ತ್ವ
2020
ಅಲಿ
ಆಕ್ರೋಶ
ಪಾತ್ರದಲ್ಲಿ
ಬಳಿಗೆ
ಬೃಹತ್
ಯಾವುವು
##ಗೊಳಿಸುವ
ಕೊರತೆ
ಪಟ್ಟಿಯಲ್ಲಿ
ಹೇಳಿದ
ಚಿನ್ನದ
ಮಗಳು
##ನಲ್ಲ
ಕರ್ನಾಟಕದ
ಚಾಂಪಿಯನ್
##ಗಿರುವ
##ಯಿಲ್ಲ
ಜಾರಿ
ಸ್ಪಷ್ಟ
##ಗಲು
##ಾಳೆ
##ಿರಲಿಲ್ಲ
ಇಂಧನ
ಮುಖಂಡರು
ಸಂಸ್ಥೆಯ
ತಲೆ
ಪುಟ
ಭಾಷೆ
ವಿಶೇಷವಾಗಿ
##ಗಿನ
ಮೊಹಮ್ಮದ್
ಲಕ್ಷಣಗಳು
ವಿಶ್ವಾಸ
ಶಿಕ್ಷೆ
##ಎಲ್
##ಸುತ್ತವೆ
ಇಲ್ಲಿವೆ
ಟಿಕೆಟ್
ಡಾಲರ್
ಹೂಡಿಕೆ
##ಜ
ಇದುವರೆಗೂ
##ಯೊಂದಿಗೆ
ಇದುವರೆಗೆ
ಬಚ್ಚನ್
ಮತ್ತಿತರರು
##ಟನ್
ನಾಲ್ವರು
ಪ್ರಚಾರ
ಮಾಡಲಾಗುತ್ತದೆ
ಸಹೋದರ
##್ರು
2019
ರೈ
##ಗಿದೆ
##ಮೆಂಟ್
##ಯಿ
##ಾಗಿದ್ದರು
##ೆಲ್ಲಾ
ವಿಧಾನಸಭೆ
ಸಚಿನ್
ಸೋಂಕು
ಆರೋಗ್ಯದ
ಚಿತ್ರಗಳು
##ಷ
##ಸಲಿದೆ
ಅನುಮೋದನೆ
ಇಷ್ಟ
ತೈಲ
ಸಚಿವೆ
ಸಿನಿಮಾದ
ಸೆಕ್ಷನ್
##ಯ್
ಜಾಲತಾಣದಲ್ಲಿ
ದಿನದ
##ತ್ತಾನೆ
ಅಧಿಕಾರಿಗಳ
ಚಾಲಕ
ನೀಡಿರುವ
ವಾಸ್ತವವಾಗಿ
ವಿಷಯಗಳನ್ನು
ಸಂಖ್ಯೆಯಲ್ಲಿ
ಸದಾ
##ದರ
ನೇರ
ಸಮಸ್ಯೆಗಳು
##ಗಳೇ
ಎನ್ನುತ್ತಾರೆ
ತಿಂಗಳ
ಸ್ಥಳ
##ವಾಗುವ
ಅಧ್ಯಕ್ಷತೆ
ಜವಾಬ್ದಾರಿ
ನೋಡೋಣ
ಮತದಾನ
ಮತ್ತೊಮ್ಮೆ
ಸುರೇಶ್
##ಥ
##ವರೆಗೂ
##ಸಲಿದ್ದಾರೆ
##ಿಗಿಂತ
ಅರುಣ್
ಇದ್ದ
ದೇವರಿಗೆ
ಪವರ್
ಪ್ರಿಯಾಂಕಾ
##ಿಂಗ್
ಗಾಯಗೊಂಡಿದ್ದಾರೆ
ಜೀವನದ
ಮೃತಪಟ್ಟಿದ್ದಾರೆ
ಸಮಸ್ಯೆಗಳನ್ನು
##ಯಲ್ಲ
ಆರಂಭಿಕ
ತಾಂತ್ರಿಕ
ನ್ಯಾಯಾಂಗ
ಹಲ್ಲೆ
##ಟು
##ದೊಂದಿಗೆ
ಎಲ್ಲವನ್ನೂ
ನೀತಿ
ಪದಕ
ಸೋಲು
##ತ್ತಿದ್ದರು
ಅನೇಕರು
ಆರಂಭ
ಖಂಡಿತ
ಖ್ಯಾತ
ಜಂಟಿ
ನೂರಾರು
ಮುಸ್ಲಿಂ
##ುದರಲ್ಲಿ
ಎಲ್ಲರ
ತಮಿಳುನಾಡು
##ಸಲಾಗುವುದು
35
ಓವರ್
ಕನಸು
ನ್ಯಾಯ
ಪ್ರಕಾಶ್
ರಾವ್
##ನ್ಸ್
ಆಸಕ್ತಿ
ನಷ್ಟ
##ಯಿದೆ
##ರಾಜ್
##ಾಗುವ
##ಾಯಿತು
ಎಣ್ಣೆ
ನಾನೂ
ಸಂಗತಿ
##ಟ್ಟ
##ಮನ್
ಅಗ್ನಿಶಾಮಕ
ಅತೀ
ಕರ್ನಾಟಕದಲ್ಲಿ
ಕಾರಣವಾಗಿದೆ
ಕಾರ್ಯಕ್ರಮದ
ಸ್ವಾತಂತ್ರ್ಯ
##ಂತ
##ಕರು
##ತ್ತಿಲ್ಲ
##ದಾಗಿ
##ಯರ್
##ವರ್
ಆಗುತ್ತದೆ
ಎದುರು
ಪರವಾಗಿ
##ಕೊಳ್ಳಬಹುದು
##ವಿರುವ
26
ಇಲ್ಲವೇ
ತಂಡಕ್ಕೆ
ನಿರ್ವಹಣೆ
ಪ್ರಕರಣಕ್ಕೆ
ಯಶಸ್ಸು
ಶುಲ್ಕ
ಹೇಳಿದನು
##ಗಳಿಗಾಗಿ
ಕೆಲವೇ
ವಾತಾವರಣ
ಹೊಂದಿದ್ದು
##ಿದ್ದೇನೆ
ಅಂಶಗಳು
ಆಂತರಿಕ
ಇಬ್ಬರ
ಕೋಚ್
ಜನರಲ್
ತೂಕ
ರಾಜೀವ್
ಶೀಘ್ರದಲ್ಲೇ
##ಡಬೇಕು
##ನಾಥ
##ರಾಗಿದ್ದರು
ಒಳಗೆ
ಮಂಗಳೂರು
ಮಾಡಬೇಕು
ವಿಭಾಗದ
ವೆಸ್ಟ್
##ಗಾರ
300
ಅಲ್ಲಿಂದ
ಕೆಂಪು
ಜಿಲ್ಲೆಯಲ್ಲಿ
ವಿದ್ಯಾರ್ಥಿಗಳ
##ಾಗಿತ್ತು
##ಾರ್
ಆರೋಪಿಗಳ
ಕೇವಲ
ಘಟನೆಯ
ದೀಪಿಕಾ
##ಮೆ
##ಲಾಯಿತು
##ೇಶ್
ಅಧ್ಯಕ್ಷೆ
ಏನಿದು
ಒಬ್ಬರು
ಬದಲಾಗಿ
ಬಲ
ಹಂತದ
##ರೊ
ಇಲ್ಲವೆ
ಉಭಯ
ಒಟ್ಟಿಗೆ
ದಿನಕ್ಕೆ
ದೆಹಲಿಯ
ಭಾರತವು
ಸಂಸ್ಕೃತಿ
ಉಪಾಧ್ಯಕ್ಷ
##ವನ
ಆದುದರಿಂದ
ಒತ್ತಾಯಿಸಿದರು
ಪುನಃ
ಪ್ರಯಾಣ
ಭೂಮಿಯ
ರಚನೆ
ವರೆಗೂ
ಸುಂದರ
ಹಳೆಯ
##ಂತಾಗಿದೆ
##ಂತಿಲ್ಲ
##ದಾ
ಇಷ್ಟು
ಕಾಯ್ದೆ
ಕೊಟ್ಟ
ತಿದ್ದುಪಡಿ
ದೇಶಕ್ಕೆ
ಪಡೆದರು
ಮೂಲಭೂತ
##ಿದ್ದಾನೆ
ಅನೇಕ
ಅನಿಲ್
ಆಟಗಾರ
ಎಲೆಕ್ಟ್ರಿಕ್
##ಲಿಗೆ
ಆರಂಭದಲ್ಲಿ
ಐತಿಹಾಸಿಕ
ಗೆದ್ದ
ನಂ
ಪ್ರದೇಶಗಳಲ್ಲಿ
ಆಯಿತು
ಕೇಜ್ರಿವಾಲ್
ಬಂದ್
ಮಟ್ಟದಲ್ಲಿ
ಲಾಭ
ವೆಬ್
ಸಂದರ್ಭ
##ಡರ್
##ತ್ತಿತ್ತು
##ರಲು
##ೀಸ್
ಅಭಿಪ್ರಾಯ
ತೀರ್ಮಾನ
ಬಾಕಿ
ಬಿಸಿಸಿಐ
ಮಾಡುತ್ತಿದೆ
ವಿಭಿನ್ನ
ಹೇಳುವುದು
##S
ಆಪ್
ಎಂದ
ಕೆಲಸದ
ತುರ್ತು
ವಹಿಸಿದ್ದರು
ಸಮಾರಂಭದಲ್ಲಿ
##ಲರ್
##ಶನ್
##ಸುತ್ತಾ
ಪ್ರಶ್ನೆಗಳು
ಸೇರಿಸಿ
##ಗಳಿಲ್ಲ
80
ಅದೊಂದು
ಆಧುನಿಕ
ಕಾಲೇಜು
ಕಾಶ್ಮೀರದ
ಗೂಗಲ್
ಜೀವ
ತಂಡವನ್ನು
##ಕಾರಿ
##ಾದ್ಯಂತ
##ಿಂದಲೂ
ಧರ್ಮ
ನೋಡಲು
ಸಭೆಯ
ಸೇನಾ
ಸ್ಥಳದಲ್ಲೇ
##ಗದ
##ಗುತ್ತದೆ
##ತ್ತಿದ್ದ
##ರುತ್ತವೆ
ಆಟೋ
ನ್ಯಾಷನಲ್
ನ್ಯೂಜಿಲೆಂಡ್
ಬೆಳವಣಿಗೆ
ಭೂಮಿ
ಮಗುವಿನ
ರವಿ
ಹಸಿರು
ಹೃದಯ
ಹೊತ್ತು
##ಮ್ಮ
##ಸಿತ್ತು
ಕುರಿತಂತೆ
ಬರಲಿದೆ
ಹೆಚ್
##t
##ಗರ
##ವಂತೆ
Home
ಆಗುವುದಿಲ್ಲ
ಇದನ್ನೂ
ನೇಮಕ
ಅಡಿ
ಗ್ರಾಂ
ದಿನೇಶ್
ದೊಡ್ಡ
ನನ್ನು
ಭಟ್
ರಾಜ್ಯಗಳ
ವಾರ
ಸಂಜೆ
##ಗುವ
ಆಗಿದ್ದು
ಆಗ್ರಹಿಸಿದರು
ಕಾರಿನ
ಗೊತ್ತು
ಟಿವಿ
ದೆಹಲಿಯಲ್ಲಿ
ಯೆಹೋವನಿಗೆ
ಸಂಜಯ್
##C
##ಜಾ
##ದಾಗ
##ಯಾಗಿದ್ದು
ಖುಷಿ
ತಕ್ಷಣವೇ
ದಂಡ
ನಗರದಲ್ಲಿ
ಬಹುಶಃ
ಸಂಘದ
##ಯರು
ಇಗೋ
ಇದಕ್ಕೂ
ಇರಲಿ
ಗೋವಾ
ನೇರವಾಗಿ
ಮಾತನಾಡಿ
ಮುಂಬರುವ
ಸೌಲಭ್ಯ
##ಂಡ್
##ಗು
ಅವರಿಂದ
ಒಮ್ಮೆ
ತಿಳಿಸಿವೆ
ದಾಖಲು
ಪಕ್ಷಕ್ಕೆ
ಮೃತ
ರಾಷ್ಟ್ರ
ವಾಹನಗಳ
ಸರ್ಕಾರವು
ಊಟ
ಕುಟುಂಬಕ್ಕೆ
ಕೃಷ್ಣ
ಮೇಲೆ
ಯಾಕಂದರೆ
ವಿಷಯಗಳ
##ಡಲಿಲ್ಲ
##ಣ್ಣ
ಅಲ್ಲಿಗೆ
ಏಪ್ರಿಲ್
ಕಾಲದಲ್ಲಿ
ಬರೆದಿದ್ದಾರೆ
ಮಾಡಲಾಗಿತ್ತು
##ಗೊಳಿಸಿ
##್ದೇವೆ
ಅಪಘಾತ
ಆಫ್ರಿಕಾ
ಕ್ರಮವಾಗಿ
ದೇಶಗಳ
ಪ್ರತಿದಿನ
ಪ್ರಶ್ನೆಗಳಿಗೆ
ಬಾಕ್ಸ್
ಮಗನಾದ
ರನ್ನು
ಸಾಹಿತ್ಯ
ಹವಾಮಾನ
ಹೊಂದಿದ್ದಾರೆ
##ನರ್
##ಯುವ
##ಳ್ಳ
ಠಾಣೆ
ಸಹಾಯಕ
##ಚಿ
##ಾಗಲಿ
##ಾರೆ
##ೂರ್
27
ಜಾಮೀನು
ನಟಿಸಿದ್ದಾರೆ
ನಿರಂತರ
ಬಿಐ
ಮಾದರಿ
##ಾದರೂ
##ಿರಬಹುದು
32
400
ಅಕ್ರಮ
ಆಗಿದ್ದಾರೆ
ಆರೋಪಿಯನ್ನು
ಟ್ವಿಟರ್
ಬಿಗ್
ಮುಂಚೆ
ಸಮಾಜ
ಸ್ಪೀಡ್
ಸ್ವಾಮಿ
ಆಧಾರದ
ಇಂದಿನ
ಕಾಳಜಿ
ಟೀಮ್
##ೈನ್
ಅಂತರರಾಷ್ಟ್ರೀಯ
ಇಮ್ರಾನ್
ಕೊರೊನಾ
ಗುಂಡಿನ
ದಾಖಲಿಸಿ
ನಾವೆಲ್ಲರೂ
ಬ್ಯಾಟ್ಸ್
ಲಂಡನ್
##ಟಿಂಗ್
##ಿಂದಾಗಿ
ಅಶೋಕ್
ಏನನ್ನು
ಕಲ್ಯಾಣ
ಕೈಗೊಂಡಿದ್ದಾರೆ
ಟಾರ್ಕ್
ದಾರಿ
ದಿನಾಂಕ
ಭಾಗದಲ್ಲಿ
ರಾಜನಾಥ್
##ದ್ದರೆ
##ದ್ದೇ
##ಲಿನ
##ಸೆ
##್ರ
ಜಿಎಸ್
ದೈಹಿಕ
ನ್ಯಾಯಮೂರ್ತಿ
ಬಿಸಿ
ರಾಜಸ್ಥಾನ
ರೋಗ
ಶ್ರೇಷ್ಠ
ಹೇಳುತ್ತದೆ
##ಗಳಿಗೂ
ಚಿತ್ರೀಕರಣ
ಪಾಟೀಲ್
ಪ್ರೊ
ಲೀಗ್
##ಕೊಳ್ಳುತ್ತಾರೆ
##ಷ್ಟ
##ಸಿದ್ದರು
ಆಗಿರುವ
ಪ್ರತ್ಯೇಕ
ಮೆಣಸು
ಲೋಡ್
ಹಂತ
ಹಾಗೇ
ಹೆಚ್ಚಳ
##ಧ
##ರುತ್ತಾರೆ
##ಸರ್
ಘಟನೆಗಳು
ಜಪಾನ್
ಧವನ್
ನಡೆಯುವ
ಮಾಡಲಾಯಿತು
ಮಾಡಿತ್ತು
ವನ್ನು
ಸಚಿವಾಲಯ
ಸೇರಿವೆ
ಹಾಲು
##ತ್ತಿವೆ
##ತ್ಮಕ
##ಯವರು
##ಿಂದಲೇ
70
ಉದ್ದೇಶ
ಒಳ್ಳೆಯದು
ನೀಡಲಾಗುವುದು
ಬಣ್ಣದ
ಯಾರಿಗೆ
ಶ್ರೀಲಂಕಾ
##e
##ತ್ತಲೇ
ಇದರೊಂದಿಗೆ
ಖಂಡಿತವಾಗಿಯೂ
ನಿಯಮ
ನ್ಯಾಯಾಲಯದ
ಮಟ್ಟಿಗೆ
ವಿಭಾಗದಲ್ಲಿ
ಶಕ್ತಿಯನ್ನು
ಶುಭ
ಸ್ಥಳೀಯರು
##ಯಾಯಿತು
##ುತ್ತದೆ
2018
ಕ್ರೀಡಾ
ಜೋಡಿ
ತನಗೆ
ದಾಖಲಿಸಿದ್ದಾರೆ
ನೆಟ್
ಬೆಂಗಳೂರಿನ
ಲಿಮಿಟೆಡ್
ಸಮಸ್ಯೆಯನ್ನು
##I
##ಾಗಿವೆ
ಅಧಿಕಾರಿಗಳಿಗೆ
ಕ್ಷೇತ್ರ
ಟಾಪ್
ದಾಖಲಿಸಿಕೊಂಡು
ಪಕ್ಷಗಳು
ಪೌರತ್ವ
ಬದುಕು
ಬಿಳಿ
ಮಹಿಳೆಯರಿಗೆ
ವಿರೋಧಿ
ಸ್ಪಷ್ಟವಾಗಿ
##ಗಳಾಗಿ
##ಮಾಡುವ
##ಸಾ
##ಸಿತು
##ಾರಿ
ಐಆರ್
ಗಡಿ
ಜಾತಿ
ಹಂತದಲ್ಲಿ
##ಡಾ
##ದರಿಂದ
##ಪಡಿಸಲು
##ಸುತ್ತಿಲ್ಲ
ಒಳ್ಳೇ
ಕಟ್ಟಡ
ದಾಖಲಿಸಿಕೊಂಡಿದ್ದಾರೆ
ಬಿಹಾರ
ವಿವಾದ
ವ್ಯಕ್ತಿಯ
ಶಿಕ್ಷಕರು
ಸಂತೋಷ
ಸರಕಾರಿ
##ಪತಿ
##ರಲಿ
##ಾಗಿದ್ದ
ಕಚೇರಿ
ಕ್ರಿಸ್ತನ
ಘಟನೆಗೆ
ವಾಹನಗಳು
ಹಾನಿ
##ಂದೇ
ತಿಳಿದುಬಂದಿದೆ
ಪುಡಿ
ಪ್ರಯೋಜನ
ಮಾಡಬಾರದು
ಹ್ಯುಂಡೈ
##ಂತೆಯೇ
##ವರೂ
##ಿಸುತ್ತೇವೆ
##ೇವೆ
ಅಕ್ಷಯ್
ಎಂಬುದರ
ಗಳಿಂದ
ಪುತ್ರಿ
ಮಾರುಕಟ್ಟೆ
ವಾಪಸ್
ವಿದೇಶಿ
ಸಿಕ್ಕಿಲ್ಲ
##ಬೇಕಾದ
##ಲಾಗುತ್ತದೆ
##ೀನ್
ಆದ್ಯತೆ
ಭಯ
ಭಾಷಣ
ಮಾರ್ಗ
ಸಂಭವಿಸಿದೆ
ಸಂಸ್ಥೆಗಳು
31
ಇತ್ತೀಚಿನ
ಕಾರಣಕ್ಕೆ
ಖರ್ಚು
ಜೂನ್
ನೀಡಲಾಗುತ್ತಿದೆ
ರಂದು
ವಾದ
##ಕಲ್
##ದ್ದಾನೆ
ಏನಾದರೂ
ಕಂಪನಿ
ಕುರಿತಾದ
ಕೊಡುಗೆ
ನೊಂದಿಗೆ
ಪ್ರವಾಸ
ಬದಲಿಗೆ
ಮನಸ್ಸು
ಮಿಲಿಯನ್
ಇಂಟರ್
ಉಸ್ತುವಾರಿ
ನಡೆಸುವ
ಯೋಗಿ
ಅದೂ
ಇರುವುದು
ದೇವರಾದ
ಪಡೆದಿದೆ
ಬೆಳ್ಳಿ
ಮಾತನ್ನು
ಯನ್ನು
ಸೇನೆ
ಹಿಡಿದು
##ಕೋ
ಆಧ್ಯಾತ್ಮಿಕ
ಆಯುಕ್ತ
ಆಸ್ಪತ್ರೆ
ದಾಖಲಾಗಿದ್ದು
ನಲ್ಲಿರುವ
ಮಾಡಿದರೆ
ಮಿಶ್ರಣ
ಶಾಲೆ
ಸಮಯದ
ಸರಣಿಯಲ್ಲಿ
##ಂದರೆ
##ಟಿಕ್
ಆಗಬೇಕು
ಆಸ್ತಿ
ಇಂಡೀಸ್
ಐಸಿಸಿ
ಕೆಪಿಸಿಸಿ
ನೇ
ಪದೇ
ಮೌಲ್ಯ
ಸಾರ್ವಜನಿಕರು
##ಯಬೇಕು
##ೀಕರಣ
ಇರಬಹುದು
ಗುಂಪು
ಜೇಟ್ಲಿ
ನೀಡುವಂತೆ
ಬಗ್ಗೆಯೂ
ವಿನ್ಯಾಸ
ಶೋಧ
ಸಚಿವಾಲಯದ
##ವನ್ನ
##ೆಂದರೆ
ಅಂತಾ
ಅದರಲ್ಲೂ
ಅನುದಾನ
ಇಳಿಕೆ
ದೇಶವನ್ನು
ನೀಡಿದ್ದ
ಪ್ರತಿಯೊಬ್ಬ
ಮಾಡುತ್ತೇನೆ
##ಯೆಂದು
##ಸಬೇಕೆಂದು
##ಾಂಶ
##ಿಸುತ್ತಿದ್ದಾರೆ
##್ದೇನೆ
##್ರೆ
ಅಪರಾಧ
ಕೇಂದ್ರದ
ಗಂಡು
ಡಿಜಿಟಲ್
ಮರಣೋತ್ತರ
ಮಹೇಶ್
ಮಾಡುತ್ತೇವೆ
ಯೋಗ
ವಾರ್ಷಿಕ
##ಗಬಹುದು
##ನದ
##ಬೇಕಿದೆ
##ಯರ
ಅಭಿಮಾನಿಗಳು
ಕಂಪನಿಯ
ಗ್ರಾಮಾಂತರ
ತೀರಾ
ಬೇಗ
ಭಾಗ
ರಾಜ್ಯಗಳಲ್ಲಿ
##ಂತೂ
##ತ್ತೀರಿ
##ಲಾದ
ಹೋಂಡಾ
##ರಣ
##ಿಯಾ
##ುತ್ತಿದೆ
##ುದೂ
29
ಅಂಶಗಳನ್ನು
ಅಪಾಯಕಾರಿ
ಆನಂದ್
ಎಂಟು
ಕುರಿತಾಗಿ
ಚಿನ್ನ
ತಕ್ಕ
ತಮಗೆ
ಮಾರ್ಚ್
ಮುಂತಾದ
ವ್ಯವಹಾರ
ಸೇವಾ
ಕಾಣಬಹುದು
ಕೆಲವೊಂದು
ಫ್ರಾನ್ಸ್
ಮಾಡಲಿಲ್ಲ
ಮಾತನಾಡಿದರು
ಮೋಹನ್
ಸಂಘಟನೆ
##ಂಗ
##ಗೊಂಡು
ಇಂಡಿಯಾದ
ಉಗ್ರ
ಒಪ್ಪಿಗೆ
ಕಾಶ್ಮೀರದಲ್ಲಿ
ದೇಶಾದ್ಯಂತ
ಮಾಧ್ಯಮ
##a
##ಸುತ್ತಿರುವ
##ಿಸಿದ್ದರು
ಎದುರಿಸಲು
ಕರೆಯಲಾಗುತ್ತದೆ
ಕೇಸ್
ಕ್ರಿಕೆಟಿಗ
ತರುವಾಯ
ನನಗೂ
ನೀಡಿದ್ದು
ಪಕ್ಷಗಳ
ಪರಿಸ್ಥಿತಿಯನ್ನು
ಪಾತ್ರವನ್ನು
ಬಿಡಿ
ಮುನ್ನಡೆ
ಮೇ
ಸಂಸ್ಥೆಯು
ಹೇಳಲು
ಹೊರತು
##ಇ
##ಎಂ
##ಬೇಕೆಂದು
ಉಗ್ರರ
ಕೈಗೊಳ್ಳಬೇಕು
ಜಾಗೃತಿ
ದಯವಿಟ್ಟು
ಯೋಜನೆಯ
ವ್ಯಾಪ್ತಿಯಲ್ಲಿ
##ದ್ದೆ
##ಪಡಿಸುವ
##ಯಾಗಲಿದೆ
ಅಡುಗೆ
ಇಲ್ಲದೆ
ಕಲೆ
ನಿರ್ಮಲಾ
ರಕ್ತ
ಸಂದರ್ಭಗಳಲ್ಲಿ
ಸಾವನ್ನಪ್ಪಿದ್ದಾರೆ
ಹಾಲಿ
##ದಲ್ಲಿರುವ
##ಸುತ್ತಿದ್ದರು
ಅಭಿವೃದ್ಧಿಗೆ
ಆಂಡ್ರಾಯ್ಡ್
ಆಟಗಾರರು
ಒಂದಾಗಿದೆ
ಜಿಲ್ಲಾಧಿಕಾರಿ
ತಾನೇ
ದೇವರನ್ನು
ಮಾಡಲಾಗುವುದು
ರಾಜ
ಸಿಗುತ್ತದೆ
##ಗಳಾಗಿವೆ
##ತ್ತಿರಲಿಲ್ಲ
ಕಾರನ್ನು
ಕ್ಕೆ
ಜಗತ್ತಿನ
ನಾಲ್ಕನೇ
ನಿರಂತರವಾಗಿ
ನ್ಯಾಯಾಲಯಕ್ಕೆ
ಬಂದರು
ಭಾರತವನ್ನು
ಮುಖ
ಶೂಟಿಂಗ್
##ಶಾಸ್ತ್ರ
ಒಟ್ಟಾರೆ
ಕಾರ್ಯಕ್ರಮಗಳು
ಜ್ಞಾನೋಕ್ತಿ
ಭಕ್ತರು
ಮಲಯಾಳಂ
ಶಾಲೆಯ
ಸಿದ್ಧತೆ
ಹೋಗುವ
##ನಗರ
##ರನ್
##ಾಗುತ್ತಿದೆ
##ೊಬ್ಬರು
ಆಮೇಲೆ
ಜಾಲತಾಣಗಳಲ್ಲಿ
ದೇಹದ
ಪರೀಕ್ಷಾ
ಪರೀಕ್ಷೆಗೆ
ಬಂದಾಗ
ಬೇಕಾದ
ವರ್ಗಾವಣೆ
ಸಂತಾಪ
##ಂದೂ
##ಚರ್
##ಡಲಾಗಿದೆ
##ರಿಸಲು
##ಸ್ವಾಮಿ
##ಾನ
ಜನರಲ್ಲಿ
ಟ್ವಿಟ್ಟರ್
ತನ್ನನ್ನು
ತಯಾರಿ
ನಡೆಯುತ್ತಿರುವ
ಪುಸ್ತಕ
ಬಂಧಿಸಲಾಗಿದೆ
ಬೆಂಗಳೂರಿನಲ್ಲಿ
ಮಾಡುವಂತೆ
ಮೀಟರ್
ಹಣದ
ಹೋಗಲು
ಆ್ಯಪ್
ಟಿ20
ಪಂದ್ಯಗಳಲ್ಲಿ
ಪ್ರಯಾಣಿಕರು
ವಿರುದ್ದ
ಸಿಕ್ಕಿದೆ
##ಗೌಡ
##ೋನ್
ಪ್ರಶ್ನಿಸಿದರು
ಬಂಡವಾಳ
ಲವ್
ವಿಷಯಗಳು
ಶಿವಸೇನೆ
ಶೇಕಡಾ
ಸಂಸ್ಥೆಗಳ
ಸಲ
ಸ್ವಾಮೀಜಿ
##ಂಡ
##ಗೊಳಿಸಿದೆ
##ಧಿ
##ಲಾಗುತ್ತಿದೆ
##ಿದ್ದೇವೆ
##ಿರಾ
##ಿಸಲಾಗುವುದು
##ಿಸುವುದಿಲ್ಲ
##ೊಂದಿಗಿನ
ಆಯೋಗ
ಉಂಟಾಗಿದೆ
ಐವರು
ಗೆದ್ದು
ಘಟಕದ
ಟಾಸ್
ಡಿಕ್ಕಿ
ನದಿ
ನೃತ್ಯ
ಪವಿತ್ರ
ಮಮತಾ
ವಸ್ತು
ಸೇವೆಯನ್ನು
##i
##ನ್ನಾಗಿ
##ಬೇಕಾಗಿದೆ
ಅಪಘಾತದಲ್ಲಿ
ಆಗುತ್ತಿದೆ
ಒಪ್ಪಂದ
ಜನತೆ
ಪ್ರಗತಿ
ಬಗೆಯ
ವಿಟಮಿನ್
ಸಾಕ್ಷಿ
ಸೆಪ್ಟೆಂಬರ್
ಸೈಟ್
##ರಲ್ಲಿರುವ
90
ಗಾಗಿ
ದಲ್ಲಿ
ಪಡೆದುಕೊಂಡಿದೆ
ಪ್ರವಾಹ
ಬದಲು
ಬರುವುದಿಲ್ಲ
ಸಹಿ
##ಯವರ
ಅವಳಿಗೆ
ಆದದರಿಂದ
ಇಸ್ರಾಯೇಲಿನ
ಭಾಷೆಗಳಲ್ಲಿ
ಮೊದಲೇ
ವೇತನ
ಸಮಿತಿಯ
ಸಿಟಿ
ಸ್ಥಾನವನ್ನು
ಹತ್ತು
ಹೆಚ್ಚಾಗಿದೆ
ಹೇಳುವ
ಹೊಣೆ
##ತರ
##ತ್ತಿ
##ಯನ್
##ಯಾಗಿದ್ದಾರೆ
##ಲದ
##ವರಲ್ಲಿ
##ಿಗಳ
150
45
ಅಸಮಾಧಾನ
ಆಧಾರಿತ
ಕಿಂಗ್ಸ್
ಗ್ರಾಮ
ಜೀವನವನ್ನು
ನಾಗರಿಕ
ಪ್ರಾರ್ಥನೆ
ಮುಕ್ತ
ಯೋಜನೆಯನ್ನು
ಶಾಲೆಗೆ
ಸಹಿತ
ಸಾಧ್ಯತೆಯಿದೆ
ಹೇಳಲಾಗಿದೆ
##ತ್ತೆ
##ಯಾನ್
##ೀರ್
ಆಗಲಿಲ್ಲ
ಕಣ್ಣು
ತಂಡದಲ್ಲಿ
ನೋಟಿಸ್
ಮಾಡಿಕೊಂಡು
##ಗಾರರು
##ಗೊಳಿಸಲಾಗಿದೆ
ಅಪೊಸ್ತಲ
ಅವಶ್ಯಕತೆ
ಗುರುತಿಸಲಾಗಿದೆ
ಜಾನ್
ಡೊನಾಲ್ಡ್
ಪ್ರಶ್ನೆಗಳನ್ನು
ಪ್ರೀತಿಯ
ಬರಲಿಲ್ಲ
ಬಿದ್ದು
ಸಂವಿಧಾನದ
ಸಮಾಜದ
ಸಲ್ಲಿಸಿದ್ದಾರೆ
##ಲಾಗಿತ್ತು
##ಸದ
##ಿಯಲ್ಲಿ
##ೇರ್
ಇವುಗಳನ್ನು
ಈತ
ಡಿಗ್ರಿ
ತಿಂಗಳಲ್ಲಿ
ದೇವಾಲಯ
ನಾಯಕರ
ವ್ಯವಹಾರಗಳ
ಹಂಚಿಕೊಂಡಿದ್ದಾರೆ
ಹಲವರು
##GB
##ಬೇಕಿತ್ತು
##ಯಾಗಿಲ್ಲ
##ರಾದರು
##ಳಿಗೆ
##ಿಸಿತು
ಆತ್ಮಹತ್ಯೆಗೆ
ಕಾಲೇಜಿನ
ಕ್ಕೂ
ತಿಳಿದಿಲ್ಲ
ತೆಗೆದು
ನಿಷೇಧ
ನೇತೃತ್ವದಲ್ಲಿ
ಪ್ಲಸ್
ಬಂಗಾಳ
ಭಾಷೆಯಲ್ಲಿ
ಮಾತುಗಳನ್ನು
ಸಮಯವನ್ನು
ಸಹಜವಾಗಿ
ಹಿನ್ನೆಲೆ
##ಯಾಗುತ್ತದೆ
##ಷಿ
ಗಣ್ಯರು
ಚೋಪ್ರಾ
ನಂತರದ
ಬಂಧಿಸಿ
ಮಧ್ಯ
ಮಧ್ಯಪ್ರದೇಶ
ಸುಷ್ಮಾ
ಸ್ಪೀಕರ್
ಹತ್ತಿರ
##y
##ಡುತ್ತಾರೆ
##ದರೂ
##ಯಾಗಿರುವ
##ಸಿಗೆ
##ಸಿನ
ಇಲ್ಲದಿದ್ದರೆ
ಏಕೈಕ
ಕತ್ತರಿಸಿ
ಕಿರುಕುಳ
ನಿರ್ದೇಶನದ
ಪರಿಣಾಮವಾಗಿ
ಯಾವುದೂ
ಯೋಧರು
ರೈತ
ವ್ಯವಸ್ಥೆಯ
ಸಮಗ್ರ
ಸಲುವಾಗಿ
ಸಾಮರ್ಥ್ಯವನ್ನು
ಸೀತಾರಾಮನ್
##ಕೊಂಡಿದ್ದರು
##ಗಿತ್ತು
##ದಿದ್ದಾರೆ
##ಮಾನ
##ಲ್ಲಿದೆ
##ಸಲಾಗಿದ್ದು
ಅತಿದೊಡ್ಡ
ಆಗಸ್ಟ್
ಆರೋಗ್ಯಕರ
ಇರಾನ್
ಒಂದೊಂದು
ಕೊಡುವ
ಖರೀದಿ
ಚರ್ಮದ
ತಂದೆಯ
ಪಂಚಾಯತ್
ಬಲಿ
ವಕ್ತಾರ
ವ್ಯವಸ್ಥೆಯನ್ನು
ಸಕ್ರಿಯ
ಸಿಗಲಿದೆ
ಹೈ
##ಗಳೇನು
##ತೆಗೆ
##ವಾದರೂ
##ಸಿರುವ
##ಸುವಂತೆ
ಅಂಬೇಡ್ಕರ್
ಅಂಶ
ತೆಗೆದುಕೊಂಡು
ನವೆಂಬರ್
ಪಾಸ್
ಪ್ರಸಿದ್ಧ
ಮತ್ತಾಯ
ಮಾಡಿದ್ದ
ಮೇಲೂ
ಯೆಹೋವನನ್ನು
ರಾಜಕಾರಣ
ವಿವಾಹ
ಹಬ್ಬದ
##ಂಕ್
##ನೆಂದು
##ವಾದದ್ದು
##ಸುವುದಿಲ್ಲ
##ೆಗೆ
ಕಾರಣದಿಂದ
ಗುಣಮಟ್ಟದ
ತಡೆ
ದೇವೇಗೌಡ
ನಿತೀಶ್
ಸರ್ಕಾರದಿಂದ
ಸಲ್ಲಿಸಿದರು
##ಗಲಿ
##ಮನ
##ಿಯನ್ನು
##ಿಸಲಾಗುತ್ತದೆ
250
ಅವರೂ
ಆಗುವ
ಇದ್ದು
ಇವುಗಳಲ್ಲಿ
ಉತ್ಪಾದನೆ
ಡೇವಿಡ್
ಬೆಳ್ಳುಳ್ಳಿ
ಯಲ್ಲಿ
ರಾಯಲ್
ರಾಯ್
ಲಕ್ಷಾಂತರ
ವ್ಯಾಪಕ
ಸಾಧ್ಯವಾಗಿಲ್ಲ
ಸಾಧ್ಯವೇ
ಸೇರಿದ
##ಕೊಂಡಿರುವ
##ಪು
##ಲ್ಲಿನ
##ಿದ್ದರೂ
##ಿರುತ್ತದೆ
ಆಕೆಗೆ
ಆಯ್ಕೆಯನ್ನು
ಇದ್ದರೆ
ಕ್ರೈಸ್ತರು
ಪಂ
ಬೆನ್ನಲ್ಲೇ
ಭವಿಷ್ಯದ
ಮೇರೆಗೆ
ರಾಜ್ಯಗಳು
ಲಾಲ್
ವಾಗ್ದಾಳಿ
ಸಂಶೋಧನಾ
ಹಾರ್ದಿಕ್
##ಗೊಳಿಸಿದ
##ಡುವುದು
##ಬೇಡ
##ವೊ
##ವೊಂದು
##ೊಡನೆ
##ೊಬ್ಬ
34
ಅಗಲಿದ್ದಾರೆ
ಇಸ್ರಾಯೇಲ್
ಕಾರ್
ಚಿಂತನೆ
ತರಲು
ದಾವೀದನು
ದಿನದಲ್ಲಿ
ನಾಯಕಿ
ಪಾಂಡ್ಯ
ವೈ
ಸಿಸಿ
ಸ್ಥಳಗಳಲ್ಲಿ
##D
##ಕುಮಾರ್
##ಗುತ್ತವೆ
ಅಪ್ಲಿಕೇಶನ್
ಕುಸಿತ
ಕೈಗಾರಿಕಾ
ಗೆಲುವಿನ
ಗೌಡ
ಚಲನಚಿತ್ರ
ಡಿಸೆಂಬರ್
ಬಡ್ಡಿ
ಬರೆದ
ಬ್ಯಾನರ್ಜಿ
ಭಾರತ್
ಮನುಷ್ಯ
ಮರು
ಮಾತುಗಳು
ಯೋಜನೆಗೆ
ವಸ್ತುಗಳನ್ನು
ಸ್ವತಂತ್ರ
##ಕ್ಕಿ
##ದಾರರು
##ಯಂ
##ಿಸಲಾಯಿತು
##್ದಾನೆ
ಅಭ್ಯರ್ಥಿಗಳ
ಆಸೆ
ಇವರನ್ನು
ಉಂಟು
ಕೀಪರ್
ಠಾಣೆಗೆ
ದೇಶಗಳಲ್ಲಿ
ಬೌಲಿಂಗ್
ಮಾಡು
ವಾರ್ತೆಗಳು
ವಿತರಿಸಲಾಯಿತು
ಶೇರ್
ಸ್ಥಾನದಲ್ಲಿ
##ಕೊಳ್ಳುತ್ತದೆ
##ಣದ
##ವಲ್
ಅಂತಿಮವಾಗಿ
ಕಂಡ
ಜೊತೆಗೆ
ತಂಡವು
ನೈಸರ್ಗಿಕ
ಪ್ರಭಾವ
ಬ್ಲಾಕ್
ರಿಲೀಸ್
ವಿವರಿಸಿದರು
ವೇಗವಾಗಿ
##ಿಸುತ್ತೇನೆ
##ೇನ್
ಎನ್ಎಂ
ಕಂಡಿದೆ
ಕೂದಲು
ಗೊತ್ತಾ
ಗ್ರಾಹಕರಿಗೆ
ಚಿಂತೆ
ತಮ್ಮನ್ನು
ಪಾವತಿ
ಪೈಪೋಟಿ
ಬಾಂಬ್
ಮಾಡಲಾಗುತ್ತಿದೆ
ಶಾಲೆಯಲ್ಲಿ
ಸುರಕ್ಷತೆ
ಹಾಕಿದ್ದಾರೆ
##ವುದಿಲ್ಲ
ಆಗಲಿದೆ
ಆಟ
ಎದ್ದು
ಒಟ್ಟಾಗಿ
ಔಟ್
ಕರೀನಾ
ಧನ್ಯವಾದ
ಪಾಠ
ಪ್ರಾದೇಶಿಕ
ಭ್ರಷ್ಟಾಚಾರ
ರದ್ದು
ರುಪಾಯಿ
ಲೋಕದ
ಶೈಕ್ಷಣಿಕ
ಸುರಕ್ಷಿತ
ಸುಶಾಂತ್
ಸ್ಥಾನಗಳನ್ನು
ಸ್ವಯಂ
ಸ್ವರಾಜ್
##ಕೊಳ್ಳುವಂತೆ
##ಗಳಲ್ಲೂ
##ಟಿಗೆ
##ಮಾನ್
##ಯೊ
##್ಕೆ
ಅರವಿಂದ್
ಆರೋಪಿಸಿದ್ದಾರೆ
ಕೆಲಸದಲ್ಲಿ
ಧನ್ಯವಾದಗಳು
ಪ್ಲೇ
ಮಧ್ಯಮ
ಯಾವತ್ತೂ
ವಿಶಿಷ್ಟ
ವ್ಯಾಯಾಮ
ಸಂವಿಧಾನ
ಸನ್
ಸರ್ಕಾರವನ್ನು
ಸಲ್ಲಿಸಿದ್ದರು
ಸವಾಲು
ಸ್ನೇಹಿತರು
##ಿಸಿತ್ತು
ಕ್ಷಮೆ
ತೀವ್ರವಾಗಿ
ನಂಬರ್
ಪ್ರಜಾಪ್ರಭುತ್ವ
ಬರೀ
ಮೊತ್ತ
ಸಂಚಾರಕ್ಕೆ
ಸದಸ್ಯರ
ಹೆತ್ತವರು
ಆಲ್
ಐಟಿ
ಕ್ಷೇತ್ರದಿಂದ
ಚಿತ್ರಗಳನ್ನು
ದಾಳಿಗೆ
ಧ್ವನಿ
ಪಟ್ಟು
ಪಡುಕೋಣೆ
ಬ್ರಿಟನ್
ವಾಯು
ವಿಷಯದ
ಹೆಜ್ಜೆ
##ದಾರ
##ಪಡಿಸಲಾಗಿದೆ
##ಯವನ್ನು
##ಸಿದ್ದ
##ಾಂತರ
##ಿಸುತ್ತಿದೆ
##ುದಾದರೆ
ಅಗ್ನಿ
ಅರ್ಜಿಯನ್ನು
ಇವುಗಳ
ಖಾಲಿ
ಚೀನಾದ
ದೃಶ್ಯ
ಪ್ರತಿಭಟನಾಕಾರರು
ಮಾಡಿದನು
ಸಾಧ್ಯವಾಗಲಿಲ್ಲ
##ದ್ದನ್ನು
##ಬಹುದಾದ
##ಲಿನ್
##ವಾದಿ
##ವಿಗೆ
##ಿಸಿರುವ
##ೊಂದಿಗೆ
ಅಭ್ಯಾಸ
ಆದಿತ್ಯನಾಥ್
ಏರಿಕೆಯಾಗಿದೆ
ಕೊನೆಗೆ
ಟೂರ್ನಿಯಲ್ಲಿ
ನಿಯಮಗಳು
ನಿರ್ಣಯ
ನೀವೇ
ಬರಲು
ಯಾರನ್ನೂ
ಸಂಬಂಧವನ್ನು
##ಬರ್
##ಿಸು
ಅಂದಾಜು
ಅಹಿತಕರ
ಇದಾಗಿದೆ
ಕತೆ
ಗಾಯಗೊಂಡ
ತಿಳಿದಿದೆ
ಮಿಶ್ರಾ
ಶಾಸಕರ
ಶಿಫಾರಸು
ಸಹಜ
ಹಣಕಾಸಿನ
ಹಾಡು
##ಜೆ
##ಸದೆ
##ಸಲ್ಪಟ್ಟ
##ಾಗುತ್ತದೆ
##ಿಸಲಿದೆ
##ಿಸುವಂತೆ
ಅಹ್ಮದ್
ಉದಾಹರಣೆ
ಜ್ಞಾನ
ನಡೆಸಲಾಗುತ್ತಿದೆ
ನೀಡಲಾಗುತ್ತದೆ
ಪಾಂಡೆ
ಪೂಜೆ
ರಾಮ
ವರದಿಯಾಗಿದೆ
ವಸತಿ
ಸತತ
ಸ್ಪರ್ಧೆಯಲ್ಲಿ
ಹೋಗಿದೆ
##d
##ಕೊಂಡಿಲ್ಲ
##ಗೊಳಿಸುತ್ತದೆ
##ಯಲು
##ವಿರಲಿಲ್ಲ
##ಸಲಿ
##ಿಸಿದನು
ಅಕ್ಟೋಬರ್
ಆಕೆಯನ್ನು
ಎಷ್ಟೋ
ಕಂಪ್ಯೂಟರ್
ಗಮನಾರ್ಹ
ಗೊತ್ತಿದೆ
ದಾಳಿಯಲ್ಲಿ
ನೀಡಲಾಯಿತು
ನೀಡಲಿದೆ
ಪಡೆಯುವ
ಪುಟ್ಟ
ಬಲವಾದ
ಮಾತಿನ
ಮೌಲ್ಯದ
ವರದಿಯನ್ನು
ವೇಳೆಗೆ
ಸಂದೇಶ
##ಗಬೇಕು
##ಡದ
##ಡಿಸಿ
##ದ್ದವು
##ನಿಯಾ
##ರಿಕ್
##ಸಬೇಕಿದೆ
##ಾಗಿಲ್ಲ
##ಾಧಿಕಾರಿ
ಅಮ್ಮ
ಕ್ರೆಡಿಟ್
ಚಿತ್ರಗಳಲ್ಲಿ
ತಂದಿದೆ
ತನಿಖಾ
ನಿರ್ಧಾರವನ್ನು
ಭಾವನೆ
ಮುಂದುವರಿದಿದೆ
ವೈದ್ಯರ
ಶಂಕರ್
ಸಂಬಂಧಪಟ್ಟ
ಸಚಿವರ
ಸೆಟ್
ಸ್ಮಿತ್
ಹಣ್ಣು
ಹಾಗಂತ
##E
##ಕಾಲ
##ಚ
##ತಿಗೆ
##ಲಿಂಗ್
##ಾರು
ಅಂದು
ಅನಂತರ
ಪ್ರಕರಣಗಳ
ಬೆಳೆ
ಬ್ಯಾಟರಿ
ಯೋಜನೆಗಳನ್ನು
ರಸ್ತೆಯಲ್ಲಿ
ವಸ್ತುಗಳ
ಸಂಘ
ಸಲಹೆಗಳು
##ಟೆ
##ಣಾ
##ನೊ
##ಬಲ್
##ಳಿಸಿ
##ಸಬೇಕಾಗಿದೆ
##ಸಿಂಗ್
ಕೆಲಸಕ್ಕೆ
ಗಾಯಾಳುಗಳನ್ನು
ನಿಧನ
ನೀಡಿತ್ತು
ಪಂದ್ಯಗಳ
ಪೋರ್ಟ್
ಬೈಬಲಿನ
ಭವಿಷ್ಯ
ಸಂಖ್ಯೆಯ
ಹೆಸರಿನಲ್ಲಿ
ಹೇಳುತ್ತಾನೆ
##ಂಟಿ
##ಕ್ಕಿಂತಲೂ
##ನಾಥ್
##ಪಡಿಸಿ
##ಮರ್
##ಹಿ
ಅಪಾಯ
ಅವಳನ್ನು
ಕೈಗೊಳ್ಳಲಾಗಿದೆ
ಗ್ರಾಮಸ್ಥರು
ಜಾಧವ್
ದೋಷ
ಪುರುಷರು
ಬನ್ನಿ
ಬಳಸಲಾಗುತ್ತದೆ
ಬಳಸಲು
ಬಾಗಿಲು
ಬೌಲರ್
ಮಾಡಿಕೊಂಡಿದ್ದಾರೆ
ವಿಚಾರಣೆಗೆ
ಸುಮ್ಮನೆ
##ತ್ಯ
##ರಾಮ್
##ಸಿದ್ದು
##ಸುತ್ತಿದ್ದ
##ೆಯನ್ನು
##ೇ
##ೇಯ
##ೇಶ್ವರ
ಇತ್ತ
ಎನ್ನುವುದನ್ನು
ಕೈಗೊಳ್ಳಲಾಗುವುದು
ಗ್ರಾಮದಲ್ಲಿ
ನಮ್ಮದು
ನಿಂತು
ಪುರುಷರ
ಬಾಲಕಿ
ಮಾಡುತ್ತಿಲ್ಲ
ಮುಖ್ಯವಾಗಿ
ಯೆಹೋವ
ವಿತರಣೆ
ಸಮಾನ
ಹೆಂಡತಿ
##ಟ್ಟಿ
##ಲಿದ್ದಾರೆ
##ಷೆ
ಅದರಂತೆ
ಇಂದಿರಾ
ಉಗ್ರರು
ಉತ್ತಮವಾಗಿ
ಎಲ್ಲಿಂದ
ಜನ್ಮ
ಜುಲೈ
ಪಡೆ
ಮಾಡಬೇಡಿ
ಯಶಸ್ವಿ
ಶರ್ಮ
ಶಿಪ್
##ಗಳೆಂದರೆ
##ಗೊಂಡಿತು
##ಪುರ್
##ಷ್ಟೆ
##ಸಿದನು
2020ರ
37
ಆರೋಗ್ಯಕ್ಕೆ
ಕಾಣಿಸಿಕೊಂಡಿದ್ದಾರೆ
ಕಾರ್ಯಕ್ರಮವನ್ನು
ಗಾಯ
ಪ್ರೆಸ್
ಮಾತ್ರವಲ್ಲದೆ
ಸಿದ್ಧ
ಸೂಚಿಸಿದ್ದಾರೆ
ಸೆನ್ಸಾರ್
##MP
##ಂಡರ್
##ದಕ್ಕೂ
##ನೊಂದಿಗೆ
##ಯಾಗಿವೆ
##ರಿಗೂ
##ಲಕ್ಷ
##ಸಬಾರದು
##ಿರುವುದು
ಅಲ್ಲವೇ
ಕೇರಳದ
ಚಿದಂಬರಂ
ಚುನಾವಣೆಯ
ಠಾಕೂರ್
ತೆಲಂಗಾಣ
ನೀಡುವುದು
ಮನಮೋಹನ್
ಮಾಡಿದ್ದೇನೆ
ಮೆಚ್ಚುಗೆ
ಮೋದಿಗೆ
ವಚನ
ವಿಶ್ರಾಂತಿ
ಹಿಟ್
##ನಿಕ್
##ಾಗಬೇಕು
##್ನು
ಅರ್ಧ
ಆಯೋಗದ
ಆರೋಪಿಗಳು
ಇಂಡಿಯನ್ಸ್
ತನಿಖೆಯನ್ನು
ತಿಳಿಯಲು
ನಡೆದಿಲ್ಲ
ಪ್ರಯತ್ನಿಸಿ
ಮಂದಿಗೆ
ಮಾಡಿತು
ರಜೆ
ರೀತಿಯ
ಶಿಖರ್
ಸೂಚಿಸುತ್ತದೆ
ಹೋದರು
##ಗನ್
##ಗಿದ್ದ
##ಜು
##ದಲ್ಲ
##ಿಸುತ್ತವೆ
125
ಅಧಿಕೃತವಾಗಿ
ಎಂದೇ
ಒದಗಿಸುತ್ತದೆ
ಕಾರುಗಳು
ಕೇಳಿದ
ತೆರೆ
ನಡೆಯುತ್ತದೆ
ನ್ಯೂಸ್
ಪಂದ್ಯದ
ಪಟ್ಟಣದ
ಪ್ರತಿಯೊಬ್ಬರೂ
ಪ್ರವಾಸಿ
ಪ್ರವಾಸಿಗರು
ಮೋದಿಯವರು
ರೆಡ್
ವಿಶೇಷ
ಸಂಶೋಧನೆ
ಹಬ್ಬ
ಹೆಮ್ಮೆ
##ಂಡಿ
##ಟಲ್
##ಡದೆ
##ಯಾಗಿದ್ದರು
##ಸಬೇಡಿ
##ಸ್ಟರ್
ಅಜಿತ್
ಆರಂಭವಾಗಿದೆ
ಇಲ್ಲಿಯವರೆಗೆ
ಜನತೆಗೆ
ಜನವರಿ
ದಿನಗಳು
ದೇವಾಲಯದ
ಭೀಕರ
ಮಾದರಿಯನ್ನು
ಮುಂದುವರೆದಿದೆ
ವ್ಯತ್ಯಾಸ
ಶತಕ
ಸಾಕು
ಸಾಕ್ಷಿಗಳು
ಸಿಂಧು
ಹೋದ
##ತಿದೆ
##ದವರು
##ದ್ದರಿಂದ
##ನಿಲ್ಲ
##ಲನ್ನು
##ಶಿ
##ಸರು
##ುತ್ತಾರೆ
ಅವುಗಳು
ಅಷ್ಟೆ
ಒಪ್ಪಂದಕ್ಕೆ
ತಾಯಿಯ
ನಡೆದಿತ್ತು
ಮರಳಿ
ಮಾದರಿಯ
ಶುದ್ಧ
ಶುರು
##ಗೊಳ್ಳುತ್ತದೆ
##ತನದ
##ಫರ್
##ೀಮ್
##ೇಂದ್ರ
##ೋತ್ಸವ
75
ಅದನ್ನೇ
ಅರಿವು
ಆಂಧ್ರ
ಆಫರ್
ಇನ್ನಿಂಗ್ಸ್
ಇವರಲ್ಲಿ
ಜಾರ್ಖಂಡ್
ಜಿಬಿ
ದಳ
ಪ್ರಶ್ನಿಸಿ
ಬಾಬು
ಬಿಗಿ
ರಾಜ್ಯಕ್ಕೆ
ವರ್ಷಗಳಲ್ಲಿ
ಸಲ್ಲಿಸಲು
ಸಿಪಿ
ಹೆಚ್ಚಿಸಲು
##ಚ್ಚು
##ಠ
##ಾಮ್
##ಿಸಿದ್ದು
##ೇಟ್
ಏನನ್ನೂ
ಕಂಪನಿಗಳು
ಕಡ್ಡಾಯ
ಕಾರಣವೇನು
ದಾಖಲಾಗಿತ್ತು
ನಾನಾ
ನಾಯ್ಡು
ಪಡೆಯುತ್ತಿದ್ದಾರೆ
ಪ್ರಾಣ
ಬೆದರಿಕೆ
ಮಗುವಿಗೆ
ಮಾಡಲಿದೆ
ಮಾಡಿದ್ದೇವೆ
ಸಂಬಂಧಿಸಿ
ಸಮಸ್ಯೆಗೆ
ಹೆಚ್ಚಿಸುತ್ತದೆ
ಹೊಸ
ಹೋಯಿತು
##ಎನ್
##ಗಾ
##ಡನ್
##ಯಲ್
##ಿರಬೇಕು
##ಿಸುತ್ತಿರುವ
##ೂರಿ
ಅಳವಡಿಸಲಾಗಿದೆ
ಇಡಿ
ಇದಾದ
ಇರುತ್ತವೆ
ಎಂಬುದಾಗಿ
ಎಚ್ಚರಿಕೆಯಿಂದ
ಎರಡನೆಯ
ಏನೋ
ಕ್ರಿಸ್
ನಿಧಾನವಾಗಿ
ನಿಯಮಗಳನ್ನು
ಬಂಧನಕ್ಕೆ
ಬೇಸರ
ಭಾಗದ
ಭೂ
ಮನೋಹರ್
ಮಾಡುತ್ತಿರುವ
ಶೀಘ್ರವೇ
ಸಚಿವರಾದ
ಸಾಂಪ್ರದಾಯಿಕ
ಸ್ಟೇಟ್
##ಡುತ್ತದೆ
##ತ್ತಿದ್ದೇವೆ
##ದಿಂದಾಗಿ
##ದ್ರ
##ಮಾಡಲು
##ರಿಸುವ
##ಸಬಹುದಾಗಿದೆ
##ೋಸ್
ಅಪ್ಪ
ಅಬ್ದುಲ್
ಕಾರ್ಯಕ್ರಮಗಳನ್ನು
ಜಾರ್ಜ್
ದ್ವಿತೀಯ
ನಿಲ್ದಾಣ
ಬೆರೆಸಿ
ಮಸೂದೆ
ಮಹಾರಾಷ್ಟ್ರದ
ಯೋಚನೆ
ಶೀಘ್ರ
ಸಂಸತ್
ಸಾ
##A
##ಗುತ್ತಿದೆ
##ಡಬಹುದು
##ಡಿಯಲ್ಲಿ
##ತ್ತೀರಾ
##ಪದ
##ಬ
##ವಾಗುವುದು
##ಿನಲ್ಲಿ
ಅಭಿಷೇಕ್
ಆಚರಣೆ
ಕಾದು
ತರುವ
ದ್ವಿಪಕ್ಷೀಯ
ನಿವೃತ್ತ
ನೀಡುವುದಿಲ್ಲ
ಪ್ರಾಚೀನ
ಬಿಜೆಪಿಯವರು
ಬೆಳಿಗ್ಗೆ
ವಿಶ್ವವಿದ್ಯಾಲಯ
##l
##ಗಡೆ
##ಚೆ
##ಡಬೇಡಿ
##ಬು
##ಯಾಗುವ
##ಯ್ತು
##ಲ್ಸ್
##ಳನ್ನು
##ವರೇ
##ವಿಲ್ಲದೆ
##ಸಿಕೊಂಡು
##ಾನಂದ
##ಾಯ
##ೇನೂ
##್ನೂ
800
ಅಂದ್ರೆ
ಅವರಿಗೂ
ಜಿಯೋ
ಠಾಣಾ
ತಿಳಿದುಬಂದಿಲ್ಲ
ದಾಳಿಯ
ಮೊದಲಿಗೆ
ಮೋಟಾರ್
ರಾಜಧಾನಿ
ರಾಜ್ಯಾಧ್ಯಕ್ಷ
ಸಕಾರಾತ್ಮಕ
ಹೆಸರಿನ
##ಗಲಿದೆ
##ಗಾರಿಕೆ
##ಡಬಾರದು
##ತ್ತಾಳೆ
##ವಾಗಿದ್ದಾರೆ
##ಿಗಳಿಗೆ
ಅಭಿನಯದ
ಆಕರ್ಷಕ
ಉಡುಪಿ
ಎಂಎಸ್
ಕೊಟ್ಟು
ಚಂದ್ರ
ನ್ಯೂ
ಪವಾರ್
ಬಹುಮತ
ಮಟ್ಟ
ರೂಪದಲ್ಲಿ
ಸತ್ಯವನ್ನು
ಸ್ಥಾನದಲ್ಲಿದೆ
ಹಕ್ಕುಗಳ
ಹೊಂದಿವೆ
ಹೊಸದಾಗಿ
##ತೆಗಳನ್ನು
##ದಾಗಿದೆ
##ಬಹುದಾಗಿದೆ
##ವಾಗುವಂತೆ
##ವಾಗುವುದಿಲ್ಲ
##ಸಿಸ್
##ಿದ್ದವು
##ಿಸುತ್ತಾನೆ
##ೇತರ
##ೇಶ
ಎಲ್ಲೂ
ದಿನೇ
ನೀಡುತ್ತಾರೆ
ನೆಲದ
ನೋಂದಣಿ
ಪಂಚಾಯಿತಿ
ಬಂದಿತ್ತು
ಬದಲಾವಣೆಗಳನ್ನು
ರಾಷ್ಟ್ರಗಳ
ಸಭಾ
ಸಾರುವ
ಸಿಕ್ಕಿತು
ಹಂಚಿಕೆ
ಹುಡುಕಾಟ
##ಂತಿ
##ಂದರ್
##ಕಾಯಿ
##ಡಿಂಗ್
##ರಿಯಾ
##ರೆಂದು
##ಿಸಲಿಲ್ಲ
##್ಸ್
NW
ಆಗುತ್ತಿಲ್ಲ
ಆಹಾರವನ್ನು
ಇಂದಿಗೂ
ಕರಣ್
ಗೂ
ಚಾರ್ಜ್
ದಿನದಿಂದ
ದುರಂತ
ದೌರ್ಜನ್ಯ
ನಿತಿನ್
ಮಹಾರಾಷ್ಟ್ರದಲ್ಲಿ
ಮಾಡಬೇಕೆಂದು
ಮೆಂಟ್
ಮೋಟಾರ್ಸ್
ಯೆಶಾಯ
ವಲಯದ
ಸಿಲಿಂಡರ್
ಸಿಹಿ
ಹೀಗಿದೆ
##ದೂ
##ಪರ್
##ರಿಯ
##ವಾಗಲಿ
##ಿಕೆಯ
##ೀನಾ
ಅಂತರಾಷ್ಟ್ರೀಯ
ಆಗಾಗ
ಆಯ್ಕೆಗಳು
ಉತ್ಪಾದನಾ
ಕಾರ್ಯಕರ್ತರ
ಕಾರ್ಯಗಳು
ಕುತೂಹಲ
ನಿಲ್ದಾಣದಲ್ಲಿ
ನೀರಿನಲ್ಲಿ
ಫಲ
ಬಾಂಗ್ಲಾದೇಶ
ಮಕ್ಕಳಲ್ಲಿ
ವಹಿಸಬೇಕು
ಸಂಗ್ರಹ
ಸಂಬಂಧಿತ
ಸಲ್ಲಿಸಿದ
ಸುಧಾರಣೆ
ಹೆದ್ದಾರಿ
##ಡಿದ
##ಪಡಿಸಿದ್ದಾರೆ
##ಪಡುವ
##ಯುತ
##ೆಟ್
44
ಇನ್ನಿತರ
ಇರಬೇಕು
ಕಾಫಿ
ಕೈಯಲ್ಲಿ
ಗಾಳಿ
ದೀಪಾವಳಿ
ದುಬಾರಿ
ಬೇಗನೆ
ಮನೆಯಿಂದ
ಯುಎಸ್
ರವೀಂದ್ರ
ವೈಜ್ಞಾನಿಕ
ಷಾ
ಹತ್ತಿರದ
##ಕರಿಗೆ
##ಗುತ್ತಿರುವ
##ಟ್ಸ್
##ತ್ವದ
##ಬೇಕೆಂಬ
##ಭಾಗದಲ್ಲಿ
##ರಿನ
##ಲ್ಲಿಯೂ
##ಾದರು
##ೀಲ್
##ೈರ್
##್ತ
ಏಷ್ಯಾ
ಕಾರ್ಮಿಕ
ತೋರಿಸುತ್ತದೆ
ಧರ್ಮದ
ನಿಯಂತ್ರಿಸಲು
ಬಾಸ್
ಮಂಡ್ಯ
ಮನುಷ್ಯನ
ಮಹತ್ವ
ಯಶಸ್ವಿಯಾಗಿ
ಯಾಕೆಂದರೆ
ಹೋಟೆಲ್
##P
##T
##ಕೊಳ್ಳುತ್ತೇವೆ
##ತ್ರ
##ವೊಂದನ್ನು
##ಸಲ್
##ಿಸಲಾಗಿತ್ತು
##ೀತು
##ುದಕ್ಕಾಗಿ
ಅಭ್ಯರ್ಥಿಯಾಗಿ
ಅಷ್ಟಕ್ಕೂ
ಆಯ್ಕೆಗಳನ್ನು
ಆರಂಭಿಸಿದ್ದಾರೆ
ಐಫೋನ್
ಕಾರುಗಳ
ಕಾರ್ಮಿಕರು
ಕೆಜಿ
ಚರ್ಚೆಗೆ
ದಾಖಲೆಗಳನ್ನು
ದೂರವಾಣಿ
ಮಹೀಂದ್ರಾ
ಮೇಲೆಯೂ
ರಷ್ಯಾ
ವೇಗದ
ವ್ಯಕ್ತಿಗಳು
ಹಣ್ಣುಗಳು
ಹುದ್ದೆ
##ಕೊಂಡನು
##ಯನ
##ಲಾಗುವುದು
##ವಾಗಲಿಲ್ಲ
##ಸುತ್ತಿವೆ
ಅವಕಾಶವನ್ನು
ಇನ್ನೇನು
ಈವರೆಗೂ
ಎಐಸಿಸಿ
ಕರೆದುಕೊಂಡು
ಕಾರಿನಲ್ಲಿ
ಗೇರ್
ಜನ
ದ್ವಿಚಕ್ರ
ನಡೆಸಬೇಕು
ನಿರ್ಮಾಪಕ
ಪಾಯಿಂಟ್
ಯುನೈಟೆಡ್
ರವರೆಗೆ
ವಂಚನೆ
ವಿನಿಮಯ
ವಿವರಗಳನ್ನು
ಸಿಗಲಿಲ್ಲ
ಸ್ಪಷ್ಟನೆ
ಹೃದಯದ
##ಕ್ಟ್
##ತರು
##ನಾದರೂ
##ರ್ಟ್
##ಲಾಗಿ
ಅಭಿನಯಿಸಿದ್ದಾರೆ
ಒನ್
ಕಾಲದ
ಕೈಗೊಂಡಿಲ್ಲ
ಗಮನಕ್ಕೆ
ಗುಣಮಟ್ಟ
ಟೀ
ದಿಲ್ಲಿ
ದೀಪಕ್
ಫ್ರೆಂಚ್
ಬರುತ್ತಿದೆ
ಬಾರಿಯ
ಭಯೋತ್ಪಾದನೆ
ಮಾತ್ರವೇ
ಮುಖಂಡರಾದ
ಮೆಗಾಪಿಕ್ಸೆಲ್
ಶತಮಾನದ
ಸಂವಹನ
ಸರಳವಾಗಿದೆ
ಸಿಗುತ್ತಿಲ್ಲ
ಸಿನ್ಹಾ
ಸೂಕ್ಷ್ಮ
##o
##ಡಲಿದೆ
##ನಿನ
##ಯಾಗುತ್ತಿದೆ
##ಸಬೇಕಾಗುತ್ತದೆ
##ಾಸ್
ಆಗಿರುತ್ತದೆ
ಒತ್ತು
ಔಷಧ
ಕಾಣುತ್ತದೆ
ಗೌರಿ
ತದನಂತರ
ನಡೆಸುತ್ತಿದೆ
ನೀಡಲಾಗಿತ್ತು
ನೀಡಿತು
ಬರುತ್ತಾರೆ
ಭಾಗಗಳಲ್ಲಿ
ಯಾರಾದರೂ
ವಿವರಗಳು
ಸಾಕ್ಷಿಗಳ
ಸುಲಭವಲ್ಲ
ಸೆ
ಸೆಮಿಫೈನಲ್
##ಂದಿ
##ಕೊಳ್ಳಲಾಗಿದೆ
##ಗರು
##ಜನ
##ಪರ
##ಯಲ್ಲಿರುವ
##ರಿತ
##ವರಿ
##ಸಬೇಕಾದ
##ಾಗಲಿದೆ
##ಿಕೆಯನ್ನು
##ಿಸುತ್ತಾ
##ೀಗ
ಅಧ್ಯಕ್ಷರು
ಆಗಿದ್ದರು
ಕಪಿಲ್
ಗ್ರಾಮದ
ಗ್ರಾಹಕರು
ಡಿಎ
ತೀರ
ದಿನಾಚರಣೆ
ನಡೆಸಿದೆ
ನಿಖರ
ಬಂದರೆ
ಬೆಳಕಿಗೆ
ಮನ್ನಾ
ಮಿತಿ
ಮುಂಬೈನಲ್ಲಿ
ವಿರೋಧಿಸಿ
ಸರಕಾರಕ್ಕೆ
ಸರಕಾರವು
ಸ್ಕೂಟರ್
ಹಾಗಿದ್ದರೂ
##ಕೊಳ್ಳುತ್ತಿದ್ದಾರೆ
##ಜರ್
##ತಾರೆ
##ಪಟ್ಟ
##ಬ್ಬ
##ಮದ
##ಯುತ್ತದೆ
##ಸಿಲ್ಲ
##ಾಯ್
ಅಸಾಧ್ಯ
ಆಹ್ವಾನ
ಎಲ್ಲಿಗೆ
ಏನಿದೆ
ಕೊಟ್ಟನು
ಕ್ರಿಮಿನಲ್
ಖಚಿತ
ತಿಳಿವಳಿಕೆ
ನಾ
ನಾಮಪತ್ರ
ಬಜಾಜ್
ಬೆಳಗ್ಗೆ
ಮಂದಿಯನ್ನು
ಮನಸ್ಸಿಗೆ
ಮರಣ
ಮಾಡುವಾಗ
ಮಾತನಾಡಲು
ರಕ್ತದ
ವಾಸ್ತವದಲ್ಲಿ
ಶೋ
ಸಹಕಾರಿ
ಸಾವಿಗೆ
ಹಾಕಲು
##ಗಿದ್ದಾರೆ
##ಜನ್
##ತಿನ
##ಿಸಿಲ್ಲ
##ೂನ್
36
ಅವಧಿ
ಆಧರಿಸಿ
ಕರ್ತವ್ಯ
ಕಾಯಿಲೆ
ಕ್ಷೇತ್ರಕ್ಕೆ
ಗುರುತು
ಘಟನಾ
ಜಿಲ್ಲೆಗಳಲ್ಲಿ
ನಮನ
ಪ್ರಶ್ನಿಸಿದ್ದಾರೆ
ಬಿದ್ದ
ಮಂಡಳಿಯ
ಮನೆಗಳು
ಮೃತರ
ಮೋದಿಯವರ
##L
##ಕವಾಗಿ
##ಕೊಂಡು
##ಚ್ಚಿ
##ತೆಯಿಂದ
##ಲೇಬೇಕು
##ಾಲ್
##ಿದ
##ೂಲ್
##್ಡ್
ಒದಗಿಸುವ
ಓಪನ್
ಗ್ರೂಪ್
ಟನ್
ತಡೆಯಲು
ತಪಾಸಣೆ
ತಿರುಗೇಟು
ದಳದ
ದೃಷ್ಟಿಯಿಂದ
ಧೈರ್ಯ
ಪಡೆಯಬಹುದು
ಪರಿಷತ್
ಪಾರ್ಟಿ
ಪ್ರವಾಸೋದ್ಯಮ
ಪ್ಲಾಸ್ಟಿಕ್
ಬಂದಿದ್ದಾರೆ
ಬಿಜೆಪಿಯಿಂದ
ಮಹೇಂದ್ರ
ಲಿಖಿತ
ಲೋಕಸಭೆಯಲ್ಲಿ
ವಿಚಾರವಾಗಿ
ವೃತ್ತಿ
ಸಂಪನ್ಮೂಲ
ಸುದೀಪ್
ಸುನಿಲ್
ಹಾಕಿದ
##h
##ದೋ
##ನಲ್
##ನಿಂಗ್
##ಪಟ್ಟು
##ಭರಿತ
##ರಾಮ
##ಸಸ್
##ಹನ
##ಾತ್ಮಕ
ಗುರಿಯನ್ನು
ದರದಲ್ಲಿ
ದಾಖಲಿಸಿಕೊಂಡಿರುವ
ನಡೆದಿದ್ದು
ನಿರ್ದೇಶಕರು
ಪರಿಣಾಮಕಾರಿ
ಮುಖರ್ಜಿ
ವಹಿವಾಟು
ವಾಜಪೇಯಿ
ವಿಜಯ
ಶಾಶ್ವತ
ಸಂವಾದ
ಹರೀಶ್
##ಗಾರರ
##ಪಡಿಸಿದ
##ಲೆಂಡ್
##್ರಾ
33
more
ಅಧ್ಯಕ್ಷರಾಗಿ
ಆಗಿ
ಆದಷ್ಟು
ಎಚ್ಚರ
ಒಲಿಂಪಿಕ್ಸ್
ಕಲ್ಲು
ಕ್ಲಬ್
ನಿಗದಿತ
ನೀಡುತ್ತಿದೆ
ನುಡಿದರು
ಪರಿಗಣಿಸಿ
ಪ್ರಬಲ
ಪ್ರಶ್ನೆಯೇ
ಬಿಜೆಪಿಯನ್ನು
ಬೆಳಕು
ಮಾ
ವಲಯದಲ್ಲಿ
ವಲಸೆ
ವಿರೋಧವಾಗಿ
ಶುಭಾಶಯಗಳು
ಸಂಸದೀಯ
ಸಮ್ಮಿಶ್ರ
ಸರಿಯಲ್ಲ
ಹೋಗಿದ್ದಾರೆ
##ಂಶ
##ಕಿಂಗ್
##ಚನಾ
##ದನ
##ಶೀಲ
##ಾಂಗ್
##ೋರ್
ಅಂಕ
ಅಥವ
ಅಶ್ವಿನ್
ಇವನು
ಎಂದಿದ್ದರು
ಕೋವಿಂದ್
ತಕ್ಕಂತೆ
ತಯಾರಕ
ಬೆಲೆಯಲ್ಲಿ
ಮಗನ
ಮೀಡಿಯಾದಲ್ಲಿ
ರಾಜೇಶ್
ಸಂತಸ
ಸಂಸದರು
ಸಕಲ
ಸಮೀಪದ
ಸೌದಿ
##ಕೊಂಡಿತು
##ಕೊಳ್ಳುತ್ತೇನೆ
##ಕ್ಕಿಲ್ಲ
##ಜನೆ
##ಬಾದ್
##ಬೇಕಾಗುತ್ತದೆ
##ಭ
##ಳ್ಳಿ
##ುವುದು
##ೋಲ್
ಅಜಯ್
ಅಮೆರಿಕಾ
ಇಂಟರ್ನೆಟ್
ಈತನ
ಕಾವೇರಿ
ಕೆಲವರಿಗೆ
ಕ್ಷಣ
ಗಾಯಗಳಾಗಿವೆ
ಜಾಸ್ತಿ
ನಂಬಿಕೆಯನ್ನು
ಪಾಲಿಗೆ
ಪ್ರಧಾನಮಂತ್ರಿಯವರು
ಬಂದಿವೆ
ಬಿಲ್
ರಾಜಕೀಯದಲ್ಲಿ
ಲ್ಯಾಂಡ್
ಸದ್ಯದಲ್ಲೇ
ಸ್ಕೂಲ್
##M
##ಂದ್ರ
##ಕೆಯ
##ಗೊಳಿಸಬೇಕು
##ಗೋ
##ಡಿನ
##ತೆಯು
##ದ್ರೆ
##ಬೇಕಾಗಿಲ್ಲ
##ಮೂರ್ತಿ
##ಯಾದರು
##ಾನಿ
##ೋದು
##್ತು
ಅಂತರ
ಅಂತೆಯೇ
ಅದೃಷ್ಟವಶಾತ್
ಅಮಿತಾಬ್
ಉಚಿತವಾಗಿ
ಕಾರ್ಯವನ್ನು
ಕೀರ್ತ
ಕ್ರಿಸ್ತನು
ಗ್ರೀಕ್
ನದಿಯ
ನಿವೃತ್ತಿ
ನೇಮಕಾತಿ
ಬ್ರೇಕ್
ಭಾರತೀಯರು
ವಸ್ತುಗಳು
ವಿಭಾಗ
ಸುತ್ತಲೂ
##ಎಚ್
##ಕೊ
##ಗಲಿಲ್ಲ
##ಗೊಂಡಿತ್ತು
##ಧ್ಯ
##ವಾರ
##ೀಕೃತ
##ೀನ
##ೆಲ್
ಆಂಧ್ರಪ್ರದೇಶ
ಈಶಾನ್ಯ
ಉತ್ತರವನ್ನು
ಕೇಂದ್ರಾಡಳಿತ
ಕೊಂಚ
ಕ್ರಮವನ್ನು
ತಲುಪಿದೆ
ನಡೆಸಲಾಗಿದೆ
ನಿಜವಾಗಿ
ನೀರಿನಿಂದ
ಪಾಕಿಸ್ತಾನಕ್ಕೆ
ಫೆಬ್ರವರಿ
ಮಿ
ಯೋಜನೆಗಳು
ರುಚಿ
ವರ್ಮಾ
ವಿಧಾನಗಳು
ಸಮುದ್ರ
ಸಾಧಿಸಲು
ಸಿಆರ್
ಸ್ಕ್ರೀನ್
ಹಳದಿ
ಹುಡುಗಿ
##ಕದ
##ರೊಂದಿಗೆ
##ಲೋ
##ವೊಂದರಲ್ಲಿ
##ಸೋಣ
ಅಂಗವಾಗಿ
ಅದಕ್ಕೂ
ಅನಿಲ
ಆಧಾರದಲ್ಲಿ
ಎಲ್ಲಿಯೂ
ಕಾನೂನಿನ
ಕಾರಣವಾಗುತ್ತದೆ
ಕೊಡಲು
ಜಲ
ನಾವೇ
ಪಂದ್ಯವನ್ನು
ಪರ್ಯಾಯ
ಬಹಿರಂಗ
ಬಿಹಾರದ
ಬೇಕಾದರೂ
ಬ್ರಿಟಿಷ್
ಮಾನ್ಯತೆ
ಯಾವುದೆ
ರಸ
ಲಿಂಕ್
ವಿಚಾರವನ್ನು
ವಿಧಿ
ವಿವರಣೆ
ಸಂಭ್ರಮ
ಸರಾಸರಿ
ಸಾಧಿಸಿದೆ
ಹೊಂದಿರುತ್ತದೆ
##ಂಜ್
##ಗೊಂಡಿಲ್ಲ
##ದಾರರ
##ದ್ದಾಗ
##ರಲಿದೆ
##ಲಾಗುವುದಿಲ್ಲ
##ವಷ್ಟೇ
##ವಾಗಿಯೂ
##ಷಾ
##ಸನ್ನು
##ಸರ
##್ದರಿಂದ
2016
48
ಅನುಮಾನ
ಅಭಿನಂದನೆ
ಆಗಿವೆ
ಆತ್ಮಿಕ
ಆರೋಪಿಸಿದರು
ಕಾಲೇಜ್
ಗುಣಗಳನ್ನು
ಗೆಲ್ಲುವ
ಗೊಂದಲ
ಡೇಟ್
ನಾಟಕ
ನ್ಯೂಯಾರ್ಕ್
ಪಟ್ಟಿಯನ್ನು
ಪಾರ್ಕಿಂಗ್
ಪುಣೆ
ಪ್ರತಿಭಟನೆಯಲ್ಲಿ
ಬರೆದು
ಬಲೆ
ಬ್ಯಾಂಕಿಂಗ್
ಮಹಿಳೆಯ
ಸಮೀಕ್ಷೆ
##ಕೊಂಡೆ
##ಡಲಾಯಿತು
##ತಿಯ
##ಥ್
##ದ್ದಾಗಿದೆ
##ದ್ದೀನ್
##ಧಿಕಾರಿ
##ಬಹುದೇ
##ಯಿಂದಾಗಿ
##ರಲ್
##ವರಲ್ಲ
##ವಳು
##ಹಾ
##ಾಡಿ
##ಾರ್ಥ
##ೊಂದರಲ್ಲಿ
ಆರೋಪದ
ಉದ್ಯಮ
ಒತ್ತಾಯಿಸಿದ್ದಾರೆ
ಕರಾವಳಿ
ಚರ್ಚ್
ತಾಜಾ
ತಿಳಿದ
ನ್ಯಾಯಾಲಯದಲ್ಲಿ
ಪಾಲು
ಮಾರ್ಗದಲ್ಲಿ
ರಜನಿಕಾಂತ್
ಸಂತೋಷ್
ಸಹೋದರಿ
ಸೋಷಿಯಲ್
ಸೌಲಭ್ಯಗಳನ್ನು
ಹೊಂದಿದ
##ಕೊಳ್ಳಲು
##ಕ್ತ
##ಗುತ್ತೆ
##ಚಾರ
##ನಿದೆ
##ಶೆ
##ೂಂದು
ಆಗಮಿಸಿದ
ಆಗ್ರಹ
ಆಮದು
ಆಸ್ಪತ್ರೆಯ
ಕಾರಣಕ್ಕೂ
ಕಾರ್ಯಕ್ರಮಕ್ಕೆ
ಗಮನಿಸಿ
ತೀರ್ಪನ್ನು
ದಿನಗಳಿಂದ
ದೇವಸ್ಥಾನ
ದೇಹ
ನಡೆದು
ನಡೆಯುತ್ತಿವೆ
ನಾವೂ
ನೈತಿಕ
ಬಯಸುವ
ಭಾಷೆಯ
ಮತ್ತೊಬ್ಬ
ಮೊದಲು
ಮೊತ್ತದ
ರೀತಿಯಲ್ಲಿ
ಶಿಕ್ಷಕ
ಸೇವನೆ
ಸೇವಿಸಿ
##V
##ಂಗೆ
##ದಾನ
##ನದಲ್ಲಿ
##ನಿಸುತ್ತದೆ
##ರಲ್ಲ
##ಳದ
##ಶಾ
##ೇಲ್
38
ಅಭಿಮಾನಿಗಳಿಗೆ
ಅಸ್ಸಾಂ
ಆಪಲ್
ಒಳಗೊಂಡ
ಕಾರ್ಯಗಳನ್ನು
ಖಾತೆಗೆ
ತಜ್ಞರು
ತನ್ನದೇ
ತಾಳ್ಮೆ
ದಿಂದ
ದಿನದಂದು
ನಮಗೂ
ನಲ್ಲೂ
ನಿತ್ಯ
ಪರಿಣಾಮಗಳನ್ನು
ಪವನ್
ಪಾಲಿಕೆ
ಪುರಾತನ
ಪೂರೈಕೆ
ಪ್ರಕರಣಗಳಲ್ಲಿ
ಬಳಸಬಹುದು
ಬಾಲ್
ಮಾಲಿನ್ಯ
ಯೋಚಿಸಿ
ಶಿಕ್ಷಕರ
ಶುಭಾಶಯ
ಸಂಪರ್ಕಿಸಿ
ಸಂಭವಿಸಿದ
ಸಿಸಿಟಿವಿ
ಹುದ್ದೆಗೆ
ಹೆಚ್ಚಿದೆ
ಹೇಳುತ್ತೇನೆ
ಹೊರಟು
ಹೊರತುಪಡಿಸಿ
##ಗುವುದು
##ಗೊಂಡಿದ್ದಾರೆ
##ಗೊಂಡಿವೆ
##ಡನ್ನು
##ನಸ್
##ನಿಸಿತು
##ನಿಸ್
##ಬಾ
##ಯಾಗಬೇಕು
##ರಡು
##ವಾಗಿದ್ದ
##ವಿದ್ದು
##ೀಯ
##ೇರಿ
ಅದನ್ನ
ಇಷ್ಟೊಂದು
ಗಳಿಸಿ
ದೇಶಗಳು
ನಡೆಯಲಿರುವ
ನಿಗಾ
ನಿಮ್ಮಲ್ಲಿ
ಪ್ಯಾನ್
ಪ್ರಶಸ್ತಿಯನ್ನು
ಮನೆಗಳಿಗೆ
ಮಾಡಲಿದ್ದಾರೆ
ಮೇಯರ್
ಲಾರಿ
ವಕೀಲ
ಸದ್ದು
ಸಭೆಗೆ
ಸ್ಥಾನಗಳಲ್ಲಿ
ಹೀರೋ
##ಗರ್
##ಗೊಳ್ಳಲಿದೆ
##ಡುತ್ತಿದ್ದಾರೆ
##ಬಲ್ಲ
##ಮಯ
##ಯಾಗಿದ್ದ
##ಲನ
##ವಾಗಿಯೇ
##ೆಲ್ಲರೂ
43
ಆಟದ
ಕೇಸು
ಕ್ಯಾಮರಾ
ಗಂಡ
ಗುಂಡು
ಚಿಕಿತ್ಸೆಗಾಗಿ
ಜೀವನಕ್ಕೆ
ಠಾಕ್ರೆ
ಡೇ
ನಡೆಸಿದ್ದರು
ನಿಂಬೆ
ನೆರವಾಗುತ್ತದೆ
ಪ್ರಸಕ್ತ
ಬಣ್ಣಗಳು
ಬರುತ್ತವೆ
ಬೋರ್ಡ್
ಮನುಷ್ಯನು
ಮಾಡಿಕೊಳ್ಳಿ
ರಜಪೂತ್
ರಸ್ತೆಗಳು
ಲೆಕ್ಕ
ಶಮಿ
ಸಾಂಕ್ರಾಮಿಕ
ಸಾಮರ್ಥ್ಯದ
ಸಾಲಿನಲ್ಲಿ
ಹಿಟ್ಟು
ಹೋಲಿಸಿದರೆ
##ಂದೆ
##ಕೊಳ್ಳಬೇಡಿ
##ದಲ್ಲೂ
##ದಿದೆ
##ಪಡಿಸಿದೆ
##ಪಾಲ್
##ವಾಗ
##ಿಸುತ್ತಿದ್ದರು
##ುದಾದರೂ
##ೈಸ್
ಅಂದರು
ಅಗತ್ಯವಿರುವ
ಅಚ್ಚರಿ
ಇಲ್ಲದ
ಏನೇನು
ಕರೆಯುತ್ತಾರೆ
ಚಿತ್ರವು
ಟೀಸ್ಪೂನ್
ದೇಶಿಯ
ನಾಗರಿಕರು
ನಿರ್ವಹಣಾ
ಪ್ಲಾನ್
ಮಳೆಯಿಂದಾಗಿ
ಮಾಡಿಕೊಳ್ಳಲು
ಮಾಡುತ್ತಿದ್ದರು
ಮಾರುಕಟ್ಟೆಗೆ
ಮೊದಲನೇ
ರಣವೀರ್
ರವರು
ವರಿಷ್ಠಾಧಿಕಾರಿ
ಸದಸ್ಯರಾದ
ಸಾಧ್ಯವಾಗುತ್ತದೆ
ಸುಳಿವು
ಸೇನೆಯ
ಸೋಂಕಿತರ
##ಗಿಂತಲೂ
##ಗಿರಿ
##ದಾರರಿಗೆ
##ಲೆಟ್
##ವಾನ್
##ವಿಲ್ಲದ
##ಾಗಲು
##್ರಿ
41
65
ಅಂಡ್
ಅಡ್ವಾಣಿ
ಅಧಿಕಾರಿಯೊಬ್ಬರು
ಅರಸನಾದ
ಆಗಲ್ಲ
ಇತ್ಯಾದಿ
ಇಬ್ಬರನ್ನು
ಉಳಿದಿದೆ
ಕೃತ್ಯ
ಕೇಳಿದರು
ಖಾತೆಯಲ್ಲಿ
ಜೈನ್
ತಮ್ಮದೇ
ನಿಧನಕ್ಕೆ
ನೀರಿಗೆ
ಪ್ರಶ್ನೆಯನ್ನು
ಮರಗಳು
ಮಹಾನ್
ಮಿಶ್ರಣವನ್ನು
ಯುವಕರು
ವಿಶ್ವವಿದ್ಯಾಲಯದ
ಶಾರುಖ್
ಶ್ರೀಮಂತ
ಸಾರ್ವಜನಿಕರ
ಸಿನಿಮಾವನ್ನು
ಸೈಫ್
##ಕತೆ
##ಕಾಲದಲ್ಲಿ
##ಡುತ್ತಾನೆ
##ನವನ್ನು
##ಪಡಿಸುತ್ತದೆ
##ರಿಸಬೇಕು
##ರಿಸಿ
##ರ್ಡ್
##ಾಟ
##ೀನಿ
##ೆಂಬ
Read
ಅಂಗಡಿ
ಅನ್ವಯ
ಆಗಿರಬಹುದು
ಆನಂತರ
ಇತರರಿಗೆ
ಎಂಥ
ಕಮಲ್
ಕೆಲಸಗಳು
ಖರ್ಗೆ
ಚಕಮಕಿ
ತಾಪಮಾನ
ತಿರುಗಿ
ತೆರಳಿ
ನಕಲಿ
ನಡೆಸುತ್ತಿರುವ
ನಿಗದಿ
ಬಳಕೆದಾರರು
ಮಾಂಸ
ಮೇಲ್ಮನವಿ
ರಫೇಲ್
ವಯಸ್ಸಿನ
ವಿಪರೀತ
ವಿಫಲವಾಗಿದೆ
ವಿಷಯವಾಗಿ
ವೀಡಿಯೋ
ಸಂಘಟನೆಯ
ಸಂಭವಿಸಿಲ್ಲ
ಸಂಭವಿಸುತ್ತದೆ
ಸೈನಿಕರು
ಹರಿದು
ಹೇಗಿದೆ
ಹೊಂದಿಲ್ಲ
##ಗುತ್ತಾರೆ
##ಗೊಳ್ಳುವ
##ಚನೆ
##ಝ್
##ಡಲ್ಲ
##ಬೇಕಿಲ್ಲ
##ಳಿದ
##ವಾದರೆ
##ಸಾಧ್ಯವಿದೆ
##ೕನೆ
2014
2015
42
ಅಂತರದಿಂದ
ಅತಿಯಾದ
ಅಭ್ಯರ್ಥಿಗಳಿಗೆ
ಅಮೆಜಾನ್
ಅಮೆರಿಕನ್
ಅಹಮದಾಬಾದ್
ಆದೇಶವನ್ನು
ಎಂದಿನಂತೆ
ತೆಂಡೂಲ್ಕರ್
ನಷ್ಟು
ನಿದ್ದೆ
ನಿರ್ಧಾರಕ್ಕೆ
ನಿರ್ಮಾಣಕ್ಕೆ
ಪ್ರತಿಯೊಬ್ಬರಿಗೂ
ಪ್ರೀತಿಯನ್ನು
ಬಿದ್ದಿದೆ
ಬ್ಯಾಕ್
ಮಗಳ
ಯಾರನ್ನು
ಯುವಕ
ರಚಿಸಲು
ವ್ಯಕ್ತವಾಗಿದೆ
ಶಿಕ್ಷಣದ
ಸಹಾಯದಿಂದ
ಸಿಗುವ
ಹೌಸ್
##ಢ
##ಯಕ್ಕೆ
##ರಾಜ
##ಲ್ಲದೆ
##ಳಲು
##ಷಣೆ
##ಸಲಾಗಿಲ್ಲ
##ಹ್
##ೊಂದನ್ನು
##ೊಮ್ಮೆ
ಅಡ್ಡ
ಆಗಾಗ್ಗೆ
ಆಗ್ರಹಿಸಿದ್ದಾರೆ
ಆರಂಭದ
ಇದೂ
ಉತ್ಪನ್ನಗಳು
ಉತ್ಪಾದಿಸುತ್ತದೆ
ಒಳಗೊಂಡಿದೆ
ಕಾರ್ಯದಲ್ಲಿ
ಕೊನೆಯಲ್ಲಿ
ಗಂಗೂಲಿ
ತರಕಾರಿಗಳು
ದಂಪತಿ
ದಾಸ್
ನಂಬಿಗಸ್ತ
ನಾಯಕಿಯಾಗಿ
ನಿದ್ರೆ
ಪ್ರಕ್ರಿಯೆಯನ್ನು
ಬಂಧಿತ
ಬಟ್ಟೆ
ಬಯಸುವುದಿಲ್ಲ
ಮೀ
ರಾಜ್ಯಪಾಲ
ಲುಕ್
ಲೂಕ
ಸಮುದಾಯ
ಸಾಲದ
ಸಿಬಿ
ಹಿರಿಯರು
ಹೇಳಿಕೆಯನ್ನು
##ಒ
##ಗಲ್
##ಗಳನ್ನ
##ವಾಗಿರಲಿಲ್ಲ
##ಸ್ತ್ರ
##ಿಗಳನ್ನು
##ೋಣ
##್ದೆ
55
ಅಂಬಾನಿ
ಆಗಮಿಸಿ
ಆದಿಕಾಂಡ
ಎಂತಹ
ಕರ್ತನಿಗೆ
ಕರ್ತನೇ
ಕಾರ್ತಿಕ್
ಕುಸಿದು
ಕ್ಷೇತ್ರಗಳ
ಗುಂಡೂರಾವ್
ದೇಶೀಯ
ಧನಾತ್ಮಕ
ನೀಡುವುದಾಗಿ
ಪಡೆದಿರುವ
ಪೂಜಾರಿ
ಬರಬೇಕು
ಬಳಸುವ
ಮಲ್ಯ
ಮಾಡಿಕೊಳ್ಳಬೇಕು
ಮುಂದಕ್ಕೆ
ಮೂಲಸೌಕರ್ಯ
ಲಸಿಕೆ
ವರ್ಷಗಳಿಂದ
ವಿದ್ಯಾರ್ಥಿಗಳನ್ನು
ವ್ಯಕ್ತಿಯನ್ನು
ಶಾಕ್
ಸಿಇಒ
ಸುನೀಲ್
ಹಾಸನ್
ಹಿಮಾಚಲ
##ಕೆಯಲ್ಲಿ
##ಡಲಾಗುತ್ತದೆ
##ಥಿ
##ದ್ದರೂ
##ಬೇಕು
##ರವನ್ನು
##ರಿಂಗ್
##ಸಲಿಕ್ಕಾಗಿ
##ಾಲಯ
##ಿಕ್
##ಿರಲಿ
##ುತ್ತಾ
##ೇಸ್
##ೌಟ್
ಅನುಗುಣವಾಗಿ
ಅನ್ನೋದು
ಅಷ್ಟೊಂದು
ಉದ್ದೇಶದಿಂದ
ಕುಟುಂಬಗಳಿಗೆ
ಕೂಡಲೆ
ಕೊಡಬೇಕು
ಖಂಡಿಸಿ
ಚಿಕಿತ್ಸೆಗೆ
ಚಿತ್ರರಂಗದ
ಛತ್ತೀಸ್
ಜನತಾ
ಜನಸಂಖ್ಯೆ
ಜಿಲ್ಲೆ
ತಾತ್ಕಾಲಿಕ
ತುಂಬಿ
ದೀರ್ಘ
ದೈನಂದಿನ
ನಿಧಿ
ಪರಿಪೂರ್ಣ
ಪ್ರಯಾಣಿಕರ
ಮಧ್ಯಾಹ್ನ
ಮರದ
ಮಾಧ್ಯಮಗಳ
ಯತ್ನ
ಯೋಹಾನ
ವಿಮೆ
ವಿಷಯಗಳಲ್ಲಿ
ವೈದ್ಯರನ್ನು
ವ್ಯಕ್ತಿಗೆ
ಸಂಖ್ಯೆಯನ್ನು
ಸಂದೀಪ್
ಸೇರಿದ್ದಾರೆ
##m
##ಕನ
##ಕಾರದ
##ಟದ
##ಟಿನ
##ಟೆಡ್
##ಪಿನ
##ಪೂರ್ಣ
##ಫಿ
##ರಾಗಿರುವ
##ವನಲ್ಲ
##ವುಗಳನ್ನು
##ವೆಲ್
##ಸ್ತು
##ಹಾರ
##ೆನ್
##್ಲಿ
##ೕವೆ
ಇತಿಹಾಸದಲ್ಲಿ
ಉದಾಹರಣೆಗಳು
ಎಂಟ್ರಿ
ಎಲ್ಲೆಡೆ
ಏನ್
ಐಪಿಸಿ
ಕೆಲಸಗಳನ್ನು
ಕೊನೆಗೂ
ಕೋರಿ
ಗೊತ್ತೇ
ಗೌತಮ್
ಚೆಕ್
ದೇವ್
ನಡೆ
ಪರಿಶುದ್ಧ
ಪಾಟೀಲ
ಪುನರಾವರ್ತಿಸಿ
ಪೋಸ್ಟರ್
ಬರುವುದು
ಬ್ಯಾಡ್ಮಿಂಟನ್
ಭಯೋತ್ಪಾದಕ
ಭಾವನಾತ್ಮಕ
ಮಗುವನ್ನು
ಮಳೆಯ
ಮಹಾತ್ಮ
ಮಾಡಲಿ
ಮಿಲಿಟರಿ
ಮುಂಬೈನ
ರಸ್ತೆಯ
ರಾಷ್ಟ್ರದ
ವಾಗಿ
ವಿಚಿತ್ರ
ಸರಕು
ಸರ್ಕಾರಗಳು
ಹೆಗಡೆ
##ಕನು
##ದಲ್ಲೇ
##ಬದ್ಧ
##ಯಬಹುದು
##ವಂತ
##ಹಿಸಲು
##ುತ್ತವೆ
##್ತಾ
ಉಮೇಶ್
ಎತ್ತರದ
ಏನೇ
ಕೆಎಲ್
ತಮಿಳುನಾಡಿನ
ನಡೆದಿವೆ
ನನ್ನಿಂದ
ಬದುಕಿನ
ಮದ್ಯ
ಮೊತ್ತವನ್ನು
ಯಿಂದ
ಯುದ್ಧದ
ಯುವತಿ
ರಣಬೀರ್
ರಾಘವೇಂದ್ರ
ವಿರುದ್ಧವಾಗಿ
ವ್ಯವಸ್ಥಾಪಕ
ಸದ್ಯದ
ಸಹೋದರರು
ಸುತ್ತ
ಸ್ಯಾಮ್
##ಕೊಂಡಿತ್ತು
##ಕೊಳ್ಳಲಿಲ್ಲ
##ಖ್
##ಟಿಸ್
##ಡಲಿ
##ಬಲ್ಲೆವು
##ಳಿನ
##ವತಿ
##ವ್ಯ
##ೀರ
ಅಟಲ್
ಅರ್ಹತೆ
ಆಗಬಹುದು
ಇದೆಯೇ
ಇರಲಿದೆ
ಇವೆಲ್ಲವೂ
ಉಳಿತಾಯ
ಎಲ್ಲರನ್ನೂ
ಒಂದೆರಡು
ಒಬ್ಬನು
ಕೀ
ಕೆಳಗಿನಂತೆ
ಚಂದ್ರಶೇಖರ್
ಜೇಮ್ಸ್
ಜ್ವರ
ಟಿಎಂಸಿ
ತಾಣ
ನೀಲಿ
ಪಕ್ಷವನ್ನು
ಪಟ್ಟಣ
ಪತ್ರವನ್ನು
ಪುಸ್ತಕದ
ಪ್ರಕೃತಿ
ಫಲಿತಾಂಶಗಳು
ಬಂದಿದ್ದು
ಬಂದಿರುವ
ಮಧ್ಯದಲ್ಲಿ
ಮಾರ್ಗವನ್ನು
ವಹಿಸಿ
ವಾಷಿಂಗ್ಟನ್
ಸ್ಥಿರ
ಹಾಕುವ
##ಂತ್
##ಗೊಂಡಿರುವ
##ತೆಗಳು
##ತ್ತಿದ್ದೆ
##ರಹಿತ
##ಳಿಕೆ
##ವಾಗಬೇಕು
##ವಾದವು
##ೃತ
##ೕಯ
ಅಲ್
ಕಿರಿಯ
ಗಡ್ಕರಿ
ಗೇಮ್
ಜಾಗ
ಟೇಬಲ್
ಪ್ರಕ್ರಿಯೆಯು
ಮತ್ತಿತರ
ಮರಾಠಿ
ಮಾಡುತ್ತಿದ್ದ
ಮುಂಭಾಗದಲ್ಲಿ
ಮೆಮೊರಿ
ಯುಪಿಎ
ರಿಲಯನ್ಸ್
ವಿಧಾನವನ್ನು
ಸಂಪುಟದ
ಸಮಾಜವಾದಿ
ಸಮುದಾಯದ
ಸೈತಾನನು
ಸೈನಾ
ಸ್ಪಷ್ಟಪಡಿಸಿದ್ದಾರೆ
ಹಲವೆಡೆ
##p
##ಕೊಳ್ಳುವುದಿಲ್ಲ
##ಗಿಲ್ಲ
##ಗೊಳಿಸಿದರು
##ಟರಿ
##ದವು
##ನೆಯನ್ನು
##ಪೂರ್ವಕ
##ಲನ್
##ವನ್ನಾಗಿ
##ವುಳ್ಳ
##ಸಿದರೆ
##ುಲ್
##ೇಜ್
##ೈಡ್
##್ದನ್ನು
ಅದೃಷ್ಟ
ಅಧ್ಯಕ್ಷತೆಯಲ್ಲಿ
ಅಧ್ಯಕ್ಷರಾದ
ಅಪರೂಪದ
ಇದ್ದವು
ಇರುತ್ತಾರೆ
ಒಡಿಶಾ
ಕೇಂದ್ರದಲ್ಲಿ
ಕೈಫ್
ಕೊಡಿ
ಗುಡ್
ಚಾಲಕನ
ಟ್ರಾಫಿಕ್
ತಿಳಿಸಲಾಗಿದೆ
ದೊರೆಯಲಿದೆ
ನಿಮಿತ್ತ
ನಿಲುವು
ಪರೀಕ್ಷೆಯ
ಪಾಕಿಸ್ತಾನದಲ್ಲಿ
ಪಾರ್ಕ್
ಪಿಎಫ್
ಪ್ರದೇಶಗಳು
ಪ್ರಾಮುಖ್ಯ
ಭಾಷೆಯನ್ನು
ಮನಸ್ಸನ್ನು
ಮುಖ್ಯಮಂತ್ರಿಯಾಗಿ
ವರ್ಗದ
ವ್ಯಕ್ತಿಯು
ಸಂಚಾರಿ
ಸರ್
ಸೈತಾನನ
ಸ್ಥಳವನ್ನು
ಹಾಟ್
ಹೇಳಿಕೆಗೆ
##ಂಬುದನ್ನು
##ಕೋಟಿ
##ಖಾ
##ಗಳಷ್ಟು
##ಟವನ್ನು
##ಡುತ್ತಾ
##ಪುರದ
##ಲ್ಲಿಯೇ
##ಷಕ
##ಷ್ಠ
##ಸಾರ
##ುತ್ತಿದ್ದಾರೆ
##ೊಳಗಿಂದ
ಅಂಚೆ
ಅಂದ
ಅದಕ್ಕಿಂತ
ಆಟೋಮ್ಯಾಟಿಕ್
ಆನಂದ
ಆಪ್ತ
ಉತ್ತೇಜನ
ಉತ್ಪಾದಿಸುವ
ಒಂದನ್ನು
ಕನ್ನಡದ
ಕಿರಣ್
ಕೋಡ್
ಜಗತ್ತು
ಡೇಟಾ
ತರಕಾರಿ
ದಾಖಲಿಸಲಾಗಿತ್ತು
ನಟಿಸುತ್ತಿದ್ದಾರೆ
ನೋಡಬಹುದು
ಬಾಹ್ಯಾಕಾಶ
ಬಿಡುವುದಿಲ್ಲ
ಭಾಗಿಯಾಗಿದ್ದರು
ಮುಂದೆಯೂ
ಮೊದಲಾದವರು
ಮೊರೆ
ರವಿಶಂಕರ್
ರಾಕೇಶ್
ರಾವತ್
ಲೇಖನದಲ್ಲಿ
ವಾರ್ಡ್
ವೆಚ್ಚದಲ್ಲಿ
ವೇಗ
ಸೆರೆ
ಸ್ಪಷ್ಟಪಡಿಸಿದರು
ಹಿಂಭಾಗದಲ್ಲಿ
ಹೇಳಿದ್ದೇನು
ಹೇಳಿಲ್ಲ
##ಕೊಂಡಿದ್ದ
##ಕೊಂಡಿದ್ದು
##ಕೊಳ್ಳಿರಿ
##ಗಳಿಗಿಂತ
##ಗೊಳಿಸಿತ್ತು
##ಡುತ್ತೇವೆ
##ಪೇಟೆ
##ಬೇಕಾದರೆ
##ವಾದುದು
##ೇಶನ್
2017
ಅನಂತ್
ಅಮೀರ್
ಅವುಗಳಿಗೆ
ಆಗಿರಲಿಲ್ಲ
ಇತರರ
ಗಳಾದ
ಗೋಪಾಲ್
ಘಟನೆಯನ್ನು
ಚಟುವಟಿಕೆ
ಡ್ಯುಯಲ್
ತೆಗೆದುಕೊಳ್ಳಿ
ತೊಳೆಯಿರಿ
ನನ್ನಲ್ಲಿ
ಪತ್ತೆಯಾಗಿಲ್ಲ
ಪ್ರಯೋಜನಗಳು
ಪ್ರಶಸ್ತಿಗೆ
ಪ್ರಸಾರ
ಪ್ರೀತ್
ಫಾರ್
ಬಯಸುತ್ತೇನೆ
ಭುವನೇಶ್ವರ್
ಮಾತಿಗೆ
ಮೊಕದ್ದಮೆ
ರಾಣಿ
ವರ್ಲ್ಡ್
ವಿಮಾನಯಾನ
ಶಾಸಕಾಂಗ
ಸಂದರ್ಶನ
ಸತೀಶ್
ಸಿಎಎ
ಸುದ್ದಿಗೋಷ್ಠಿಯಲ್ಲಿ
ಸ್ವಾಗತ
ಹಕ್ಕನ್ನು
ಹೀಗಿವೆ
ಹೀಗೆಯೇ
ಹೋಗುವುದಿಲ್ಲ
##ಡುತ್ತಿದೆ
##ನಂದರೆ
##ರಿಸಲಾಗಿದೆ
##ಲಿರುವ
##ಾಜ್
##ಾಡ್
##ೇಗೌಡ
##ೇದ
##್ದವು
##್ರೂ
ಇಂಚಿನ
ಇದನ್ನೇ
ಉಂಟಾಗುವ
ಕಚ್ಚಾ
ಖಂಡಿತಾ
ಟ್ರಾನ್ಸ್
ತಂದು
ತಪ್ಪಿಸಲು
ತಾಲೂಕು
ನಿರ್ಮಾಣದ
ನೌಕರರ
ಪತ್ರದಲ್ಲಿ
ಪರೀಕ್ಷೆಯಲ್ಲಿ
ಪ್ರೋತ್ಸಾಹ
ಫೆ
ಬಾಲಕಿಯ
ಮಟ್ಟವನ್ನು
ಮಲ್ಲಿಕಾರ್ಜುನ
ಮುಂದಾಗಿದೆ
ಮೆಟ್ರೋ
ವಾಹನಗಳನ್ನು
ಶಾಲೆಗಳಲ್ಲಿ
ಸಮಯಕ್ಕೆ
ಸಮಸ್ತ
ಸಿಬ್ಬಂದಿಗಳು
ಸೇರ್ಪಡೆ
ಸೇವೆಗಳ
ಸೈಕಲ್
ಹಿನ್ನಲೆಯಲ್ಲಿ
##Name
##er
##ಂದರಲ್ಲಿ
##ಣವನ್ನು
##ತೆಯಲ್ಲಿ
##ತ್ತಿದ್ದೇನೆ
##ತ್ವವನ್ನು
##ಪಿಸಿ
##ಯುತ್ತಾ
##ಯೇ
##ರುತ್ತೇನೆ
##ಲ್ಲೇ
##ಸ್ಥ
##ಾಟ್
ಅಂತ್ಯ
ಅಗರ್ವಾಲ್
ಅನುಕೂಲ
ಅನ್ನೋ
ಅವಕಾಶಗಳು
ಇತ್ತೀಚೆಗಷ್ಟೇ
ಉಪಮುಖ್ಯಮಂತ್ರಿ
ಉಳಿದಂತೆ
ಎಂದವರು
ಎಸ್ಯುವಿ
ಒಪ್ಪಂದದ
ಓದಲು
ಕಲಾ
ಕೃತಜ್ಞತೆ
ಡೆಲ್ಲಿ
ತಾಲ್ಲೂಕು
ದೂರದ
ದೃಷ್ಟಿಯಲ್ಲಿ
ದೇವರೇ
ನಾರಾಯಣ
ನಿರ್ವಹಿಸಲು
ನೈಟ್
ಪರಿಶೀಲಿಸಿ
ಪುರುಷ
ಫೋಟೋಗಳು
ಬಿಡುಗಡೆಯಾಗಲಿದೆ
ಬೀರುತ್ತದೆ
ಬೆಲೆಯನ್ನು
ಭಾವನೆಗಳನ್ನು
ಮಂಜುನಾಥ್
ಮಂದಿರ
ಮನೀಶ್
ಮೃತರು
ಲೈಫ್
ಲೋಕದಲ್ಲಿ
ವರ್ಕ್
ವಿಸ್ತರಣೆ
ವೇದಿಕೆ
ಸಮುದ್ರದ
ಸಲ್ಲಿಕೆ
ಸಾರಿ
ಹೋಗುತ್ತದೆ
##ಜಿಸಿ
##ದ್ದನು
##ಧನೆ
##ಯಾದರೂ
##ರನು
##ವಾಡ
##ವಾಸ
##ವಿರುತ್ತದೆ
##ಶಾಸ್ತ್ರದ
##ಸನ
##ಹಿಸುವ
##ಾರದ
##ಾವಳಿ
##ೆಗಳು
##ೈಟ್
39
ಅಭಿವೃದ್ಧಿಯ
ಆಸ್ಟ್ರೇಲಿಯಾದ
ಕಲಾವಿದರು
ಕ್ರೀಡೆ
ಗಳಿಸಿದ
ಗುಪ್ತಾ
ಘೋಷಿಸಿದ್ದಾರೆ
ಜೆಟ್
ಜೈಲು
ಜೋಶಿ
ತಿವಾರಿ
ನಮೂದಿಸಿ
ನಾವೇನು
ನೀಡಲಿಲ್ಲ
ಪೂರ್ತಿ
ಪೈಲಟ್
ಫಾರ್ಮ್
ಬಂದಿತು
ಬದಲಾವಣೆಗಳು
ಬಾಯಿ
ಬಿಜೆಪಿಯಲ್ಲಿ
ಭಾರತೀಯರ
ಮಠದ
ಲೋಕ
ವರ್ಗ
ವೇಣುಗೋಪಾಲ್
ವೈಟ್
ಶಿವರಾಜ್
ಸರ್ಕಾರದಲ್ಲಿ
ಸ್ವಾಗತಿಸಿದರು
ಹರಿಯಾಣ
##00
##ಣೆಯ
##ದಲ್ಲಿದೆ
##ಮಟ್ಟಿಗೆ
##ಯಲ್ಲೂ
##ರಿದ
##ಲಾರೆ
##ಷ್ಟಿದೆ
##ಸಿಕೊಂಡಿದ್ದಾರೆ
##ಸಿನಲ್ಲಿ
##ಿದ್ದಾಳೆ
##ಿನ್
##್ನ
ಉತ್ಪನ್ನಗಳ
ಉಪಯುಕ್ತ
ಎದುರಾಗಿದೆ
ಗಿಂತ
ಚೊಚ್ಚಲ
ನಾಥ್
ನಿಖರವಾಗಿ
ನಿಶ್ಚಿತ
ನೀಡಲಿದ್ದಾರೆ
ಪರಿಣಾಮಗಳು
ಪ್ರಜಾಪ್ರಭುತ್ವದ
ಫುಲ್
ಮಕ್ಕಳಿದ್ದಾರೆ
ಮರ
ಮಾಧ್ಯಮಗಳು
ವಾರ್ನರ್
ಸಂಭಾವ್ಯ
ಸಮಾವೇಶದಲ್ಲಿ
ಹೊಡೆದು
##ಂತಿದೆ
##ಕ್ಟರ್
##ಚಿತ್ರ
##ಚ್ಚ
##ಟೊ
##ದಳು
##ದೊಂದು
##ದ್ದೀರಿ
##ನಾಗಿದ್ದ
##ನೆಂದರೆ
##ಭಾವ
##ಲ್ಲಿದ್ದಾರೆ
##ಳುವ
##ವಾರು
##ಷಿಸಲು
##ಸಲಾಗಿರುವ
##ೀವಿ
##ುತ್ತಲೇ
##ೆಗಳನ್ನು
##ೆಯಲ್ಲಿ
##ೇಕೆ
ಅಖಿಲ
ಅಧ್ಯಕ್ಷತೆಯನ್ನು
ಅಮೆರಿಕದಲ್ಲಿ
ಅರಸನು
ಆಗಲೇ
ಆಟಗಾರರ
ಇದೆಲ್ಲ
ಇನ್ಸ್
ಈಗಿನ
ಒತ್ತಾಯ
ಕಂಗನಾ
ಕಡಿಮೆಯಾಗುತ್ತದೆ
ಕಾರ್ಯನಿರ್ವಹಿಸುತ್ತದೆ
ಕ್ವಾರ್ಟರ್
ಗಾತ್ರ
ಘಟಕ
ಟೀಕೆ
ತೋರಿಸುವ
ತ್ವರಿತವಾಗಿ
ದೂರಿನ
ನೀಡುತ್ತಿದ್ದಾರೆ
ಪುನರ್
ಬಿಡುಗಡೆಗೆ
ಬೈಬಲಿನಲ್ಲಿ
ಮಾಡುವುದನ್ನು
ಮಾರ್ಗದರ್ಶನ
ಮ್ಯಾನ್
ಯಶ್
ಶರದ್
ಸಂದೇಶವನ್ನು
ಸಮಾಜದಲ್ಲಿ
ಸಾಮೂಹಿಕ
ಸಾರ್ವಜನಿಕರಿಗೆ
ಸಿನಿಮಾಗಳಲ್ಲಿ
ಹೆಚ್ಚಿಸುವ
##G
##n
##ಕೊಳ್ಳಿ
##ಕ್ಕೇ
##ಗುತ್ತಿವೆ
##ತೂ
##ರರು
##ಲ್ವಾ
##ಳೆಯ
##ವಿಸ್
##ಶ್ರೀ
##ಸಿಕೊಳ್ಳಲು
##ಿಯಾಗಿ
##್ತಿದೆ
ಅಂಕಿ
ಅಭ್ಯರ್ಥಿಗಳನ್ನು
ಇದಕ್ಕಿಂತ
ಇನ್ನೊಬ್ಬ
ಇರಲು
ಕಣ್ಣಿಗೆ
ಕಾನ್ಫರೆನ್ಸ್
ಕಿಂಗ್
ಕೃಪೆ
ಕೊಟ್ಟಿದ್ದಾರೆ
ಕೊನೆ
ಕೌಟುಂಬಿಕ
ಗೋಲು
ಟೈಮ್
ದೇವೇಂದ್ರ
ನಿಯಮಿತವಾಗಿ
ನಿರಾಕರಿಸಿದ್ದಾರೆ
ನಿವಾಸಿಗಳು
ನೆಮ್ಮದಿ
ನೋಟ್
ನೋಡಿದ
ಪೀಠ
ಬಡ
ಬೈಬಲನ್ನು
ಮನೆಯನ್ನು
ಮಾಡಿವೆ
ಮಾದರಿಯು
ಮೀಡಿಯಾ
ರಫ್ತು
ರಾಜಕೀಯಕ್ಕೆ
ರಾಸಾಯನಿಕ
ವಯಸ್ಸು
ವೋಲ್ಟೇಜ್
ಸಂಪರ್ಕವನ್ನು
ಸರಣಿಯ
ಹಿಂದುಳಿದ
ಹೊರತಾಗಿ
##ಕೊಳ್ಳುವ
##ಚಿತ
##ಡಿಕೆ
##ಣ್ಯ
##ಯುತ್ತಿದೆ
##ರಾನ್
##ರೀ
##ರುವುದಿಲ್ಲ
##ರ್ರಿ
##ವರಿಗೂ
##ಿಸಬಾರದು
2019ರ
600
ಅರಸನ
ಅವಕಾಶವಿದೆ
ಉಸಿರಾಟದ
ಎಕರೆ
ಒಕ್ಕೂಟ
ಕಳುಹಿಸಲಾಗಿದೆ
ಕುಟುಂಬದಲ್ಲಿ
ಕೇರಳದಲ್ಲಿ
ಕೌಂಟರ್
ಗವರ್ನರ್
ಜಗದೀಶ್
ನಾವೆಲ್ಲ
ನಿರ್ಧರಿಸಿದೆ
ನೀರಿನ
ಪ್ರಕಟಣೆ
ಪ್ರತಿಷ್ಠಿತ
ಪ್ರಯತ್ನಗಳು
ಪ್ರಯಾಣಿಕರಿಗೆ
ಪ್ರೀತಿಯಿಂದ
ಫೋರ್ಡ್
ಬಂದಿದ್ದೇನೆ
ಭಾಗವಾಗಿ
ಯೋಜನೆಗಳ
ವರ್ಷದಲ್ಲಿ
ವಿಧಾನಸಭೆಯಲ್ಲಿ
ವ್ಯಕ್ತಿಗಳ
ಸಾಧ್ಯವಾಗುತ್ತಿಲ್ಲ
ಸಿಬಿಐಗೆ
ಸುಂದರವಾದ
ಸ್ನಾತಕೋತ್ತರ
ಸ್ವಚ್ಛ
ಹುಟ್ಟು
ಹೊಂದಿವೆ
ಹೋಗಬೇಕು
##ಂತ್ರ
##ಕೊಳ್ಳಬಾರದು
##ಕ್ಕು
##ಗದೆ
##ಚಿಸಬೇಕು
##ಡ್ಡಿ
##ತ್ತಿದ್ದು
##ದರ್
##ಯರಿಗೆ
##ರಗಳು
##ರಿಸುತ್ತದೆ
##ರ್ಥ
##ಲೆಯ
##ಸಬಹುದಾದ
##ಾಗುವುದು
##ಿಸುತ್ತಿದ್ದ
##ಿಸುತ್ತಿದ್ದೇವೆ
##ೆನ್ಸ್
##ೋಕೆ
##್ಯಾಶ್
ಆತ್ಮ
ಆರೋಪವನ್ನು
ಆರ್ಥಿಕತೆ
ಉದ್ಯಮಿ
ಎಣಿಕೆ
ಏಷ್ಯನ್
ಕಡೆಯಿಂದ
ಕಣ್ಣುಗಳು
ಕಾರಣಗಳಿಗಾಗಿ
ಕಾರಣವಾಗಬಹುದು
ದರವನ್ನು
ದೃಷ್ಟಿ
ನಗರಗಳಲ್ಲಿ
ನಿರ್ಬಂಧ
ಪಂತ್
ಪುಸ್ತಕದಲ್ಲಿ
ಪ್ರಿಯಾಂಕ
ಬಂದೋಬಸ್ತ್
ಬೆಂಗಳೂರಿಗೆ
ಬೆಂಬಲವನ್ನು
ಮಿಷನ್
ಮುನ್ನೆಚ್ಚರಿಕೆ
ರಿಸರ್ವ್
ರೈಲ್ವೇ
ಲಭ್ಯ
ಲಭ್ಯವಿರುವ
ವಾರದ
ವಿಳಾಸ
ಶುಲ್ಕವನ್ನು
ಸರಬರಾಜು
ಸಲ್ಲಿಸಿದ್ದ
ಸ್ಥಿತಿಯಲ್ಲಿ
ಸ್ಫೋಟ
ಹಾಕಿದರು
ಹಿಂದಕ್ಕೆ
##R
##ಂಗಿ
##ಕಾರರು
##ಗೊಂದು
##ತ್ರಿ
##ದಾದ
##ದ್ರು
##ನೀಯ
##ನ್ನೆಲ್ಲಾ
##ಯಿತ್ತು
##ಲ್ಡ್
##ಲ್ಲೆ
##ವರಾಗಿದ್ದಾರೆ
##ಿರುತ್ತಾರೆ
##್ತಿ
##ೖ
ಅಂಶವನ್ನು
ಅಲ್ಲೇ
ಆಗಿದ್ದ
ಆಯಾ
ಆರಂಭಿಸಿದರು
ಇದೆಲ್ಲಾ
ಉಂಟಾಗುತ್ತದೆ
ಕುಸಿದಿದೆ
ಕೂಗಿದರು
ಕೊಡುತ್ತದೆ
ಕ್ಯಾಪ್ಟನ್
ಕ್ರಮಕ್ಕೆ
ಜಯಲಲಿತಾ
ಜೆಎನ್
ಜೋಹರ್
ಡಿಸ್
ದಿನವೂ
ದೇವಿ
ದೇಶದಾದ್ಯಂತ
ನಂತ್ರ
ನಾಯಕ್
ಪಂದ್ಯಗಳನ್ನು
ಪ್ರತಿಮೆ
ಪ್ರಾಣಿ
ಬಗೆ
ಬದಲಾಗಿದೆ
ಬಾಲಕ
ಬಿಹೆಚ್ಪಿ
ಮಾಯಾವತಿ
ಲಂಕೇಶ್
ವಿಜೇತ
ವಿನಾಯಿತಿ
ಶಂಕೆ
ಶ್ರೀನಿವಾಸ್
ಸಂಭಾಷಣೆ
ಸಮಸ್ಯೆಗಳಿಗೆ
ಸರ್ಜಾ
ಹೆಚ್ಚಾಗುತ್ತದೆ
ಹೊರಡಿಸಿದೆ
ಹೋಗು
ಹೋದನು
##r
##ಕೂ
##ಗೊಂಡಿದ್ದು
##ಟ್ಟೆ
##ಪಡಿಸಬೇಕು
##ಪಾತ
##ಪಿತ
##ಯವು
##ರಂತೆ
##ಲಾಗಿದ್ದು
##ಲಾಗುವ
##ವನಿಗೆ
##ಸ್ಥಾನ
##ಹದ
##ಾಗುವುದಿಲ್ಲ
##ುದೆಂದು
##್ಯಾನ್
ಅಲ್ಲಲ್ಲಿ
ಆದಿ
ಆದಿತ್ಯ
ಆಹಾರದ
ಉತ್ತಮವಾದ
ಎಲ್ಲಿದೆ
ಕಾಲೇಜಿನಲ್ಲಿ
ಕೃತ್ಯಗಳು
ಗಳಿಸಿದ್ದಾರೆ
ಜಯಂತಿ
ತಾಲೂಕಿನ
ತೃಪ್ತಿ
ನಡೆಸಲಾಗುತ್ತದೆ
ನಿರೀಕ್ಷೆಯಿದೆ
ಪಕ್ಷದಲ್ಲಿ
ಪೋಲಿಸ್
ಪ್ರಕರಣಗಳನ್ನು
ಪ್ರಶಾಂತ್
ಫುಟ್ಬಾಲ್
ಬಂದೆ
ಬಳಕೆಯ
ಬ್ಲ್ಯಾಕ್
ಮಾಡುತ್ತವೆ
ಮಾಡೋಣ
ಮಿಸ್
ಮುಸ್ಲಿಮರು
ಮೆಡಿಕಲ್
ವಂದಿಸಿದರು
ವರದಿಗಳು
ಸಂಬಂಧಿ
ಸಲ್ಲಿಸುವ
ಸಿಕ್ಕ
ಸೌರವ್
ಹೆಡ್
##ಕೊಳ್ಳುತ್ತಿದೆ
##ಕ್ಷ
##ಟಕ್ಕೆ
##ಡ್ಸ್
##ದಲ್ಲಿದ್ದಾರೆ
##ಯಲಿಲ್ಲ
##ರಾಗಿದ್ದ
##ಲಾಗಿರುವ
##ಲಿತ
##ಳಿಯ
##ವಾಗುತ್ತವೆ
##ವಿದು
##ಸ್ಥಿತಿ
##ಾಗಲೇ
##ಾತ
##ಾವಧಿ
##ೀಶ್
##ೇಕ್
##ೇಲಿ
370
370ನೇ
999
ಅಗ್ರ
ಅಮಾನತು
ಆವೃತ್ತಿ
ಇರಿಸಿ
ಉದ್ಘಾಟಿಸಿದರು
ಎಂಜಿನಿಯರಿಂಗ್
ಎಲ್ಲವನ್ನು
ಒದಗಿಸಲು
ಕಂಪೆನಿ
ಕಡಿಮೆಯಾಗಿದೆ
ಕೇಳಿದೆ
ಕೌನ್ಸಿಲ್
ಗಂಟೆಗೆ
ಘೋಷಿಸಿದೆ
ಜಗತ್ತಿನಲ್ಲಿ
ಜೈಲಿಗೆ
ದತ್
ನಾನೇನು
ಪರಿಸ್ಥಿತಿಯಲ್ಲಿ
ಪ್ರತಿಯೊಬ್ಬರ
ಪ್ರೀಮಿಯಂ
ಬಳಸಿಕೊಂಡು
ಬಿಹಾರಿ
ಭಾಗವಹಿಸಲಿದ್ದಾರೆ
ಭೀತಿ
ಮಾಡಲ್ಲ
ಮಾಧ್ಯಮಗಳಲ್ಲಿ
ಮೀನು
ಮುಂತಾದವರು
ಮೃತದೇಹವನ್ನು
ಮೋಸ
ವಾಸ್ತವ
ಶತಮಾನದಲ್ಲಿ
ಶವ
ಶಿಸ್ತು
ಸಂಗತಿಗಳು
ಸಂಘಟನೆಗಳು
ಸಮಾರಂಭ
ಸಾಧ್ಯತೆಗಳಿವೆ
ಸಾರಾ
ಸುರಕ್ಷತಾ
ಹಾದಿ
ಹಿಂದೆಯೂ
ಹೇಳಬಹುದು
ಹೊತ್ತಿಗೆ
##ಂತಾಯಿತು
##ಕ್ಷನ್
##ಗಲ್ಲ
##ಡೆಯ
##ತ್ತೇನೆ
##ಧಾ
##ನಂತೆ
##ಪನ್ನು
##ಯಾಗಲು
##ಯಿಸಿ
##ರಣಾ
##ರತೆ
##ರೆಯ
##ಳಾ
##ವಾಗಬಹುದು
##ವಾಣಿ
##ಸಾದ
##ಸುತ್ತಿದ್ದೇವೆ
##ಸುವಲ್ಲಿ
##ಹಳ್ಳಿ
##ಾಳ
##ಿರುತ್ತವೆ
##ಿಸೋಣ
##ುತ್ತಿದ್ದು
##ೈಲ್
##್ಯಾಕ್
120
ಅಭಿವೃದ್ದಿ
ಇಷ್ಟೇ
ಎಂಬುದೇ
ಐದನೇ
ಕೈಗೆ
ಕೊಟ್ಟರು
ಕೋರಿದ್ದಾರೆ
ಗೇಮ್ಸ್
ಜವಾಬ್ದಾರಿಯನ್ನು
ತಿಂಗಳಿಗೆ
ತ್ವರಿತ
ಪದ
ಪುರ
ಪೂ
ಪ್ರಕಟ
ಪ್ರಕಟನೆ
ಪ್ರಾಧಿಕಾರ
ಬಂದಿದ್ದ
ಮಧ್ಯಪ್ರದೇಶದ
ಮಾಹಿತಿಗಾಗಿ
ಮಿಶ್ರ
ಮೂರನೆಯ
ಮೆರವಣಿಗೆ
ಯೋಜನೆಯಡಿ
ರಷ್ಯಾದ
ರೋಗದ
ವರದಿಯಾಗಿಲ್ಲ
ವಿಧಾನಗಳನ್ನು
ಸೇರಿಸಲಾಗಿದೆ
ಹೋರಾಟದಲ್ಲಿ
##ಂಡು
##ಕ್ಕ
##ಟ್ಟಿದ್ದಾರೆ
##ತಿಲ್ಲ
##ದರಲ್ಲಿ
##ಯದಲ್ಲಿ
##ಯುವುದು
##ರಣ್
##ರಸ್
##ವೆಂಬ
##ಿಯು
##ುತ್ತೇನೆ
##ುವುದಿಲ್ಲ
##ೇಷನ್
ಅಂದಹಾಗೆ
ಆರಿಸಿ
ಇವುಗಳು
ಇವೆಲ್ಲ
ಉದ್ದೇಶಿಸಿ
ಉಲ್ಲಂಘನೆ
ಏನಾಯಿತು
ಒಳ್ಳೆ
ಕಡಿವಾಣ
ಕಡ್ಡಾಯವಾಗಿ
ಕಾರ್ಮಿಕರ
ಕೇಂದ್ರೀಯ
ಗಣೇಶ್
ಗುಣ
ಚಾಲೆಂಜರ್ಸ್
ಚೌಧರಿ
ಠಾಣೆಯ
ಡಿಸ್ಕ್
ತಿರಿಗಿ
ದಾವೀದನ
ದುಃಖ
ಪಡೆಯುವುದು
ಪತ್ತೆಗೆ
ಪಾಲ್
ಪಾಸಿಟಿವ್
ಪ್ರಶಸ್ತಿಗಳನ್ನು
ಫೀಚರ್
ಬಿಎಂಡಬ್ಲ್ಯು
ಬಿಡುಗಡೆಯಾದ
ಬುಮ್ರಾ
ಭವಿಷ್ಯದಲ್ಲಿ
ಮತದಾರರು
ಮನಸ್ಸಿನಲ್ಲಿ
ಮನುಷ್ಯರು
ಮಾಡಿಕೊಂಡ
ರಾಜು
ರಿಯಲ್
ಲಕ್ಷಣಗಳನ್ನು
ಶಾಹಿದ್
ಶ್ರೀದೇವಿ
ಸಮಸ್ಯೆಗಳ
ಸವಾಲುಗಳನ್ನು
ಸಿಂಗಲ್
ಸೈಬರ್
ಸ್
ಸ್ಟೋರಿ
ಹಾಡುಗಳು
ಹೇಳು
##ಂದ್
##ಕೊಂಡಿದೆ
##ಗದಲ್ಲಿ
##ದತ್ತ
##ದಿನ
##ದ್ದಲ್ಲ
##ನೆಗೆ
##ಬಿಡಿ
##ರ್ಸ್
##ಲೊ
##ವಿನಿಂದ
##ಷಿಸುವ
##ಷ್ಟಕ್ಕೆ
##ಸುತ್ತೀರಿ
##ಹಾಕಲು
##ಿನಿಂದ
##ೌಂಡ್
51
ಅಕಾಡೆಮಿ
ಅನುಕೂಲಕರ
ಅಪಘಾತಕ್ಕೆ
ಆರೋಗ್ಯ
ಆಳವಾದ
ಇಂಜಿನಿಯರಿಂಗ್
ಇರಿ
ಔಷಧಿ
ಕಂಚಿನ
ಕಂಡುಬರುತ್ತದೆ
ಕಟ್ಟಿ
ಕಾರಣವಾಯಿತು
ಗೆಲ್ಲಲು
ಗ್ರಾಹಕರ
ಚಟುವಟಿಕೆಗಳನ್ನು
ಜೊತೆಯಾಗಿ
ಟೆನಿಸ್
ಟ್ರೋಫಿ
ತರಗತಿ
ದಾಖಲೆಗಳು
ದುಡ್ಡು
ನಿಖಿಲ್
ನಿರೀಕ್ಷಿತ
ನೈಜ
ನೋಡಬೇಕು
ಪಕ್ಷದಿಂದ
ಪರಿಣಾಮವನ್ನು
ಪ್ರತಾಪ್
ಪ್ರಮಾಣವನ್ನು
ಫೋಟೋಗಳನ್ನು
ಬಳಕೆದಾರರಿಗೆ
ಭಾಗವಾಗಿದೆ
ಮಾಸ್ಟರ್
ಮುಗಿದ
ವತಿಯಿಂದ
ವರದಿಯಲ್ಲಿ
ವಲಯ
ವ್ಯವಸ್ಥೆಯಲ್ಲಿ
ಸುಟ್ಟು
ಸೂಚಿಸಿದರು
ಸೆಂಟರ್
ಸೆಲ್ಫಿ
ಹಾಕಿದೆ
##ಂಡಾ
##ಚನ
##ತನು
##ಧನ
##ಪಡೆ
##ಪಿಸಿದ
##ಯಲ್ಲೇ
##ಯಿರಿ
##ರಣೆ
##ರುವುದಾಗಿ
##ವನೂ
##ವರೆ
##ಹರ್
##ಿಲ್ಲದ
##ಿಸಲಿದ್ದಾರೆ
##ುಗಳು
##ುತ್ತಿತ್ತು
##ುತ್ತೇವೆ
##ುದಲ್ಲ
##ೆಯಿಂದ
64
ಅಂತರದಲ್ಲಿ
ಅದೇ
ಆಡಿ
ಆಶೀರ್ವಾದ
ಎಂಬುದಕ್ಕೆ
ಎಡ
ಎದುರಿಸುತ್ತಿರುವ
ಐಶ್ವರ್ಯ
ಒಂದುವೇಳೆ
ಒಣ
ಕಾರಣಕ್ಕಾಗಿ
ಜಗಳ
ತಾರೆ
ನಡುವಣ
ನಿರ್ದಿಷ್ಟವಾಗಿ
ನೋಡುವ
ಪತ್ರಿಕೆ
ಪೇತ್ರ
ಪ್ರದೇಶಗಳ
ಬರೆದುಕೊಂಡಿದ್ದಾರೆ
ಬುಡಕಟ್ಟು
ಬೆಣ್ಣೆ
ಭೂಮಿಯನ್ನು
ಮಂಜೂರು
ಮದುವೆಯ
ಮನೋಭಾವ
ಮಾಡುತ್ತಾನೆ
ಮಾಡುತ್ತಿದ್ದೇವೆ
ಲೈಟ್
ವಾಟ್ಸಾಪ್
ವಿಡಿಯೋವನ್ನು
ವಿಶ್ವಾಸವಿದೆ
ವೃತ್ತಿಪರ
ವ್ಯಾಪಕವಾಗಿ
ಶುಂಠಿ
ಶ್ರದ್ಧಾ
ಶ್ರೀನಿವಾಸ
ಸತ್ಯದ
ಸರ್ಕಾರವೇ
ಸೃಷ್ಟಿ
ಹಾಗಾದ್ರೆ
ಹೇಳಿಕೊಂಡಿದ್ದಾರೆ
ಹೊಂದಿದ್ದರು
##ಕೇಟ್
##ಕ್ರಮ
##ಗೊಳ್ಳಲು
##ಗೋಸ್ಕರ
##ಡಿದರು
##ಣ್
##ದಾಯಕ
##ದ್ದೂ
##ಧು
##ಫ
##ಬೇಕಾಯಿತು
##ಮು
##ಮೇಲೆ
##ಯಾಂಡ್
##ರೇಟ್
##ಲಾಗಲಿಲ್ಲ
##ಲಾಗುತ್ತಿತ್ತು
##ವಾಲ್
##ಸಲಿವೆ
##ಸಲ್ಪಟ್ಟಿದೆ
##ಾಗಿಯೂ
##ಾದರೆ
##ಾರಾ
##ಿಗೋಸ್ಕರ
##ೋನಿ
ಅಂದಿನ
ಅಕ್ಕಿ
ಅಬ್ದುಲ್ಲಾ
ಅಮೆರಿಕಾದ
ಅವನ್ನು
ಅವಶ್ಯಕ
ಉದ್ದ
ಎತ್ತಿ
ಕಡಿತ
ಕಾಲು
ತಂತ್ರಜ್ಞಾನದ
ದಿನವನ್ನು
ನಂತಹ
ನಡೆಸಿದ್ದು
ನಿಮಗಾಗಿ
ನೀತಿಯನ್ನು
ಪರಮೇಶ್ವರ್
ಪುತ್ರರು
ಬಣ್ಣಗಳಲ್ಲಿ
ಬಳಕೆಗೆ
ಭೌತಿಕ
ಮಣ್ಣು
ಮತದಾರರ
ಮಾಡುತ್ತಿದ್ದೇನೆ
ಮೀಸಲು
ಮುಂದುವರಿಯಲಿದೆ
ಮುಂಬಯಿ
ಮ್ಯಾನುವಲ್
ಯೇಸುವನ್ನು
ವಿದ್ಯಾರ್ಹತೆ
ವಿಶ್ವಸಂಸ್ಥೆಯ
ಶಿವ
ಸಂಬಂಧವಿಲ್ಲ
ಸೋಶಿಯಲ್
ಸ್ಥಳದಿಂದ
ಹಿಂದು
##ಂಗಾ
##ಂಬುದು
##ಕರಣ
##ಕರಣೆ
##ಕಾಲದ
##ಕ್ತಿ
##ಖ
##ಗುತ್ತಾ
##ಗೊ
##ಗೊಳಿಸುವುದು
##ಟಿವ್
##ಟೀಸ್
##ಣಿಕೆ
##ತನವನ್ನು
##ದಿದ್ದರೆ
##ಫ್ಟ್
##ಮಾಡಿದ
##ರವಾಗಿ
##ರಿಸಿದ
##ಿಸಲಾಗುತ್ತಿದೆ
##ೂಟ್
##ೂರ
##ೆಸ್
##್ತಿಲ್ಲ
##ೕರಿ
49
ಅಂಶಗಳ
ಅಧಿವೇಶನ
ಅನುಸರಿಸಿ
ಅಭಿಮಾನಿಗಳ
ಆವೃತ್ತಿಯ
ಇಲ್ಲವಾದರೆ
ಎಮ್
ಓಡಿ
ಗೋಯಲ್
ತಿನ್ನಲು
ತಿಳಿಸಿ
ತುಸು
ದೇವಾಲಯವು
ದೇಶವು
ನಡೆಯಬೇಕು
ನಾಶ
ನೀರಾವರಿ
ಪಂದ್ಯಗಳು
ಪಡೆಗಳು
ಪೇತ್ರನು
ಪ್ರತೀ
ಪ್ರದಾನ
ಬಂಗಾಳದ
ಬಟನ್
ಬೇಕಾಗುತ್ತದೆ
ಭಾಗವನ್ನು
ಮಗನು
ಮಾಡಿರಿ
ಮಾಡುವಲ್ಲಿ
ಮಾದರಿಯಲ್ಲಿ
ಮುಗಿದಿದೆ
ಯಾರೊಬ್ಬರೂ
ರಹಸ್ಯ
ರಾಷ್ಟ್ರಗಳು
ರೋಡ್
ಲಭ್ಯವಾಗಲಿದೆ
ಲಾಠಿ
ವಿಜ್ಞಾನಿಗಳು
ಶಿಕ್ಷಣವನ್ನು
ಸಣ್ಣಪುಟ್ಟ
ಸೀಟು
ಸ್ಥಿತಿಯನ್ನು
ಹೃದಯವನ್ನು
ಹೆಗ್ಡೆ
##ing
##ಕಿನ
##ಗಳಿದ್ದವು
##ಟಿನಲ್ಲಿ
##ಡಿಸುವ
##ಪುರದಲ್ಲಿ
##ಮಣಿ
##ಯಲಿದೆ
##ರನ್ನಾಗಿ
##ರವರೆಗೆ
##ಲಾಗದು
##ಲ್ಲಿದ್ದ
##ಳಿಸಿದ
##ಷಣ
##ಸಬೇಕು
##ುದಕ್ಕೂ
1000
ಅಂದಿನಿಂದ
ಅಪಘಾತದ
ಅಮೂಲ್ಯ
ಅಯ್ಯರ್
ಆಕ್ಷೇಪ
ಆಘಾತ
ಆಡುವ
ಇಂಗ್ಲೀಷ್
ಇತ್ತೀಚಿಗೆ
ಇಬ್ಬರಿಗೂ
ಇಸ್ರೋ
ಎಂಜಿನಿಯರ್
ಎಲ್ಲದಕ್ಕೂ
ಒಂಬತ್ತು
ಕಾರುಗಳನ್ನು
ಕುಡಿಯಲು
ಕೊರಿಂಥ
ಕೋರ್ಸ್
ಗಾಯಗೊಂಡಿದ್ದರು
ಟೀಸರ್
ತಪ್ಪಿಸಿ
ತಿಳಿಯಿರಿ
ತೋರಿಸು
ದಾಖಲಿಸಿಕೊಂಡಿದ್ದು
ನೀರವ್
ನೀವೂ
ನೆಚ್ಚಿನ
ಪಠ್ಯ
ಪಡೆದುಕೊಂಡಿದ್ದಾರೆ
ಪಿಎಂ
ಬಯಸುತ್ತಾರೆ
ಬಿಕ್ಕಟ್ಟು
ಬಿಡುಗಡೆಯಾಗಿದೆ
ಭಿನ್ನ
ಮದುವೆಗೆ
ಮರಣದ
ಮಾದರಿಗಳನ್ನು
ಮುಖ್ಯವಾಗಿದೆ
ಮುರಿದು
ಮೈ
ರಶ್ಮಿಕಾ
ರಸ್ತೆಗಳಲ್ಲಿ
ರಹಿತ
ರಾಜ್ಯಗಳಿಗೆ
ವಿವಾದಕ್ಕೆ
ವೀಡಿಯೊ
ವೇಗಿ
ವೇರ್
ಸರ್ದಾರ್
ಸಿಸ್ಟಮ್
ಸೀಸನ್
ಸೂಚಿಸಿದೆ
ಸೇವೆಗಳನ್ನು
ಸ್ನಾನ
ಹಕ್ಕುಗಳನ್ನು
ಹಿಂಸಾಚಾರ
##B
##ಕ್ಷೆ
##ಗಳಲ್ಲಿನ
##ಗಾರರಿಗೆ
##ಚ್ಚಲು
##ಬಲ್ಲದು
##ಯನ್ನ
##ಲಾರದು
##ವಾಗಿರುವುದು
##ವುಗಳು
##ಶದ
##ಹು
##ಿಕೆಯು
##ಿದ್ದೆ
##ಿಸದೆ
##ುತ್ತಾನೆ
##ೂದ್
##್ತೆ
ಅಪಾಯವನ್ನು
ಆಫೀಸ್
ಆಶ್ಚರ್ಯ
ಇಲಾಖೆಗೆ
ಕತ್ತರಿಸಿದ
ಕತ್ರಿನಾ
ಕಾಣುತ್ತಿಲ್ಲ
ಕೂಲಿ
ಕೇಳಲು
ಗಣನೀಯ
ಗ್ರೀನ್
ಜಡೇಜಾ
ಜೈವಿಕ
ಡಬಲ್ಸ್
ದುರಸ್ತಿ
ನಿರ್ಮಿಸಲು
ನೋಡು
ಪರಾರಿಯಾಗಿದ್ದಾನೆ
ಪುಸ್ತಕಗಳನ್ನು
ಪೂಜಾ
ಪ್ರಾಯೋಗಿಕ
ಬಿಲಿಯನ್
ಮಧುಮೇಹ
ಮಳೆಯಿಂದ
ಮಾಡಲಾದ
ಮುಂದಾಗಿದ್ದಾರೆ
ಯಾರೋ
ಯೆಹೂದದ
ಯೋಧರ
ರಂಜನ್
ರಾಜಸ್ಥಾನದ
ರೋಗ
ರೋಗಿಗಳ
ವಿಜೇತರಿಗೆ
ವೇಳಾಪಟ್ಟಿ
ವೈಯಕ್ತಿಕವಾಗಿ
ಶಾಸಕರನ್ನು
ಶಿವಮೊಗ್ಗ
ಸಂಗ್
ಸಿದ್ಧವಾಗಿದೆ
ಸೇವಕರು
ಸೌಂದರ್ಯ
ಹೆಚ್ಚಾಗುತ್ತಿದೆ
##ಕೆಯನ್ನು
##ಡಿಯಾ
##ಡುತ್ತಿದ್ದರು
##ಣದಲ್ಲಿ
##ದಲ್ಲಿನ
##ದಿಂದಲೇ
##ನನ
##ಮಟ್ಟದ
##ರವು
##ರಿದ್ದಾರೆ
##ವೇನೂ
##ಾಂ
##ಿರಲು
##ೀತ
##ೀಯಾ
99
ಆಡಳಿತದ
ಆಧಾರ
ಆರಂಭಿಸಲು
ಇದನ್ನ
ಇಬ್ರಿಯ
ಎಸ್ಪಿ
ಒಂದಿಷ್ಟು
ಕಚೇರಿಯಲ್ಲಿ
ಕಡೆಗಳಲ್ಲಿ
ಕುಮಾರ
ಕೆಎಸ್
ಕೈಗಳನ್ನು
ಕ್ಷೇತ್ರಗಳಿಗೆ
ಗಾಯಗೊಂಡಿದ್ದು
ಗ್ರಾಹಕ
ಚರ್ಮ
ಚಿತ್ರರಂಗದಲ್ಲಿ
ಜನರೇ
ಜ್ಞಾನವನ್ನು
ಟೈಮ್ಸ್
ತೃತೀಯ
ತೆಗೆದುಕೊಳ್ಳುವ
ಪಿಂಚಣಿ
ಪುರಸ್ಕಾರ
ಪೇಸ್ಟ್
ಪ್ರಪಂಚದ
ಪ್ರಯತ್ನವನ್ನು
ಪ್ರೌಢ
ಬಾ
ಬಾಡಿಗೆ
ಬೆಳಕಿನ
ಮಸೀದಿ
ಮಾಡುವುದರಿಂದ
ಮೀಸಲಾತಿ
ರಾಜ್ಯಸಭಾ
ವಿಮಾ
ಸಂಬಳ
ಹಾಗೆಂದು
ಹೆಚ್ಚುತ್ತಿದೆ
ಹೊಸದಿಲ್ಲಿ
##ಂಚ್
##ಕೊಂಡಿದ್ದೇನೆ
##ಚೆಗೆ
##ಜಿತ
##ಜ್ಞ
##ಟ್ಟಿನ
##ತದ
##ತ್ತಿನ
##ತ್ತೇವೆ
##ಪೂರ್ವಕವಾಗಿ
##ಯವರಿಗೆ
##ಲಂ
##ವರಾಗಿ
##ವಿನ್
##ಿದು
##ಿಯೂ
##್ದಾಳೆ
##್ಯಾಟ್
52
ಅಲ್ಲಿಯೇ
ಅವಲಂಬಿಸಿರುತ್ತದೆ
ಆಗ್ರಹಿಸಿ
ಇಸವಿ
ಉತ್ಪನ್ನಗಳನ್ನು
ಒತ್ತಡವನ್ನು
ಒತ್ತಿ
ಕಂಡುಬಂದಿದೆ
ಕಷ್ಟದ
ಕಾರಣದಿಂದಾಗಿ
ಕೊಟ್ಟಿಲ್ಲ
ಚೆನ್ನಾಗಿದೆ
ಜೊತೆ
ತಲುಪಲು
ತಿಳಿಸುತ್ತದೆ
ತೆಗೆದುಕೊಳ್ಳಬೇಕು
ನಡೆದವು
ನಡೆಯದಂತೆ
ನಡೆಸಲಾಯಿತು
ನಿರ್ದೇಶಿಸಿದ್ದಾರೆ
ನೂರು
ನೇಪಾಳ
ಪುಸ್ತಕಗಳು
ಪ್ರೀಮಿಯರ್
ಬಳಿಯಲ್ಲಿ
ಬಾಂಧವ್ಯ
ಬೆಲೆಗಳು
ಭೂಮಿಯಲ್ಲಿ
ಮರುದಿನ
ಮಳೆಗೆ
ಮುಖವನ್ನು
ರವಿಚಂದ್ರನ್
ಲಘು
ಲಾಂಚ್
ವಾಕ್ಯವು
ವಿಶ್ವದಾದ್ಯಂತ
ಸಂಕಷ್ಟ
ಸದಸ್ಯರನ್ನು
ಸೂಚಿಸಲಾಗಿದೆ
ಸೆಂಟ್ರಲ್
ಸೇವೆಗಳು
ಸೇವೆಯಲ್ಲಿ
ಸ್ಥಾನಮಾನ
ಸ್ನೇಹ
ಹುಟ್ಟಿದ
ಹುದ್ದೆಗಳಿಗೆ
ಹೊಂದಿದ್ದ
##w
##ಂದರ
##ಕವನ್ನು
##ಗಳಲ್ಲಿಯೂ
##ಗುವುದಿಲ್ಲ
##ಗೊಳಿಸಿದ್ದಾರೆ
##ಜಿಸುವ
##ಟ್ಟನ್ನು
##ಡಲ್
##ಡೋಣ
##ನಿಗೂ
##ನೂರು
##ಪಾ
##ಪೆ
##ಪ್ಪಾ
##ಬಲ
##ಬಲ್ಲರು
##ಬಾರ್
##ಬಿಸಿ
##ಮುಖ
##ಯುತ್ತವೆ
##ಶಕ್ತಿ
##ೀಕರಿಸುವ
ಅರ್ಹ
ಅಷ್ಟರಲ್ಲಿ
ಆಗಲಿ
ಆಯ್ದ
ಇದ್ದೇ
ಇರುವುದರಿಂದ
ಇಲ್ಲೊಂದು
ಇಸ್ರಾಯೇಲ್ಯರು
ಕನ್ನಡದಲ್ಲಿ
ಕಲಿಯಲು
ಕಾರ್ಯನಿರ್ವಾಹಕ
ಕಿಡಿ
ಕೈಗೊಂಡಿದೆ
ಕ್ಯಾರೆಟ್
ಗಮನವನ್ನು
ಗುಪ್ತಚರ
ಚಟುವಟಿಕೆಗಳು
ಜಾಲ
ಜೊತೆಯಲ್ಲಿ
ಟ್ರಕ್
ಡ್ರಾ
ತಯಾರಿಸುವ
ತಾನೆ
ದ್ರಾವಿಡ್
ನಾಯಕರಾದ
ನಿಲ್ಲಿಸಿ
ಪತ್ರಕರ್ತ
ಪತ್ರಿಕಾ
ಪಾಲಕರು
ಪುನೀತ್
ಪ್ರತಿಯೊಬ್ಬರು
ಪ್ರತ್ಯೇಕವಾಗಿ
ಪ್ರಯತ್ನಗಳನ್ನು
ಪ್ರಶಸ್ತಿಗಳು
ಪ್ರೋಟೀನ್
ಫಂಡ್
ಬರುವಂತೆ
ಬೆನ್
ಬೆಲೆಯು
ಬೆಳಗಾವಿ
ಮಹಾನಗರ
ಮುಖಾಂತರ
ಮೋಟಾರು
ಯಾವುದಕ್ಕೂ
ರಾಜ್ಯವು
ವೀಸಾ
ವ್ಯಕ್ತವಾಗಿತ್ತು
ಸಮಾರಂಭದ
ಸಾಥ್
ಸಿಗುವುದಿಲ್ಲ
ಹಾಗಿದ್ದರೆ
ಹಾನಿಯಾಗಿದೆ
ಹೃದಯದಲ್ಲಿ
ಹೊಂದಾಣಿಕೆ
##ಂಗು
##ಕನ್
##ಡದಂತೆ
##ಡುತ್ತೇನೆ
##ದಾಸ್
##ಬಿಯಾ
##ರಾತ್ರಿ
##ರಾವ್
##ಳಿಸಲು
##ವನ್
##ವಾಗಿರಬೇಕು
##ಸುತ್ತಿತ್ತು
##ಾಣ
##ಿಸಿದ್ದ
##ಿಸೋಣ
47
58
ಅತ್ಯಧಿಕ
ಆಗಲು
ಆರಂಭವಾಗಲಿದೆ
ಆರಂಭವಾಯಿತು
ಆರಂಭಿಸಿದೆ
ಆರೋಗ್ಯವನ್ನು
ಆವರಣದಲ್ಲಿ
ಇಲ್ಲಿಯವರೆಗೂ
ಇಸ್ರೇಲ್
ಏನಾಗುತ್ತದೆ
ಐಷಾರಾಮಿ
ಔಷಧಿಗಳನ್ನು
ಕಳಪೆ
ಕಾರ್ಯಕಾರಿ
ಕಾಶ್ಮೀರಕ್ಕೆ
ಕ್ರಮಗಳು
ಗಳಿಸಿದರು
ಗಳಿಸಿದೆ
ಚಾರ್ಜಿಂಗ್
ಜನರಿಂದ
ಜಿಲ್ಲಾಡಳಿತ
ಜೋರಾಗಿ
ತಯಾರಿಸಲು
ತೆರೆಗೆ
ಧಾರವಾಡ
ನಡೆಸಲಾಗುವುದು
ನಿಂತಿದೆ
ನಿಕ್
ನಿಭಾಯಿಸಲು
ನಿರೋಧಕ
ನಿರ್ಮಿಸಲಾಗಿದೆ
ನೆಹರೂ
ನೋಟ
ಪದ್ಧತಿ
ಪರಮಾಣು
ಪ್ಯಾಕೇಜ್
ಪ್ರಯೋಗ
ಫ್ಯಾಷನ್
ಬಂದನು
ಬಂದಿರಲಿಲ್ಲ
ಬರೆಯಲು
ಬಲಿಷ್ಠ
ಬೀಚ್
ಭಾವಿಸುತ್ತೇನೆ
ಮಾಡುತ್ತಾ
ಮಾದಕ
ಮಾನ್ಯ
ಮಾರ್ಕ್
ಮೃತಪಟ್ಟ
ಮೊದಲಾದ
ಮೋಶೆಯು
ಯಾವುದೋ
ರೋಗಿಗಳು
ರೌಂಡರ್
ರ್
ಶವವನ್ನು
ಶಾಸಕರಾದ
ಶಾಸ್ತ್ರೀಯ
ಶೀಘ್ರದಲ್ಲಿ
ಸಂಕಷ್ಟಕ್ಕೆ
ಸಂತೋಷವನ್ನು
ಸಂಸ್ಕೃತ
ಸಾಲಿನ
ಸಿಕ್ಸರ್
ಸಿವಿಲ್
ಸೇರಿದೆ
ಸೇವೆಯ
ಸ್ಮೃತಿ
ಹುಡುಗ
##ಕೃಷ್ಣ
##ಕೊಂಡಿದ್ದಾರೆ
##ಗಿದ್ದರು
##ಚಂದ್ರ
##ಜಿತ್
##ಡಿಸಲು
##ಮಾಡಿದೆ
##ಯನು
##ಯಲ್ಲಿನ
##ಯೆಲ್
##ರದೆ
##ರಬಾರದು
##ರಾಗಿದ್ದೇವೆ
##ಲ್ಪಟ್ಟ
##ವರ್ಧನ್
##ಸಲಾಗುತ್ತಿತ್ತು
##ಹಣ
##ಾದಲ್ಲಿ
##ಿಸಿದರೆ
##ೂರಿನ
##ೋಗ
2000
46
vs
ಅಧ್ಯಯನದ
ಅನನ್ಯ
ಅಮಿತಾಭ್
ಅಲ್ಪ
ಅವಕಾಶಗಳನ್ನು
ಆರೋಪಗಳನ್ನು
ಇದೆಯಾ
ಉಗ್ರರನ್ನು
ಉತ್ತರಪ್ರದೇಶ
ಎಎಪಿ
ಎರಡನೇ
ಕಟ್
ಕಾಣಿಸಿಕೊಳ್ಳಲಿದ್ದಾರೆ
ಕಾರಣಗಳಿವೆ
ಕಿತ್ತಳೆ
ಕುಂಬ್ಳೆ
ಕೊಚ್ಚಿ
ಕ್ಯಾಮೆರಾವನ್ನು
ಗಳಿಕೆ
ಗುಂಪಿನ
ಚಂದ್ರಯಾನ
ಟೈಪ್
ದಂಪತಿಗೆ
ದಶಲಕ್ಷ
ದುಷ್ಟ
ದೂರಿದರು
ಧಕ್ಕೆ
ಧರಣಿ
ನಂಬಿಕೆಯ
ಪುರ್
ಪುಲ್ವಾಮಾ
ಪೂರೈಸಲು
ಪ್ಯಾಕ್
ಪ್ರತಿಯಾಗಿ
ಪ್ರಾರಂಭಿಸಿ
ಪ್ರೇರಿತ
ಬಗೆಗಿನ
ಬಿಟ್ಟರೆ
ಬೀಸಿದ್ದಾರೆ
ಬೆಳವಣಿಗೆಗೆ
ಬೈಬಲು
ಮತಗಳ
ಮದ್ರಾಸ್
ಮಾಡಿಕೊಂಡಿದೆ
ಮಾಡಿರಲಿಲ್ಲ
ಮಾತನಾಡುವ
ಮುಖ್ಯಮಂತ್ರಿಗಳು
ಮೂವರ
ಯಶಸ್ಸನ್ನು
ರಕ್ತದೊತ್ತಡ
ರಕ್ಷಿಸಲು
ಲೇಖನ
ಶಾಲೆಗಳು
ಶೇಕಡ
ಶೇಖ್
ಸಮಾಧಾನ
ಸಲಹೆಯನ್ನು
ಸಿಬ್ಬಂದಿಗೆ
ಸೂಕ್ತವಾದ
ಸ್ಟೀವ್
ಹಂತಗಳಲ್ಲಿ
ಹಚ್ಚಿ
ಹಾಲಿವುಡ್
ಹಾಲ್
ಹುತಾತ್ಮ
ಹೋಗಿಲ್ಲ
##al
##ಗಳಿಂದಲೂ
##ಗಳಿರುತ್ತವೆ
##ಡುತ್ತವೆ
##ಡುವಂತೆ
##ತಿಯನ್ನು
##ಬೆ
##ಬ್ಬರು
##ಮಲ್
##ಮಾಡಿದನು
##ಯಾಂಕ್
##ಯಾಗುವುದು
##ರಿಸುವುದು
##ಳ್
##ವಾಗಲು
##ವಾಗಿದ್ದರು
##ಸಲಿದ್ದು
##ಾರಂತೆ
##್ದೇ
##್ಯಾ
2021ರ
ಅಂತೀರಾ
ಅಧಿವೇಶನದಲ್ಲಿ
ಇಂಜಿನಿಯರ್
ಇನಿಂಗ್ಸ್
ಕಾರಣವಾಗಿತ್ತು
ಕೆಲವರ
ಖಾತೆಯನ್ನು
ಗಾಯಕ
ಚರಣ್
ಚಳಿಗಾಲದಲ್ಲಿ
ಟು
ದುರದೃಷ್ಟವಶಾತ್
ನಡೆದಿರುವ
ನಲ್ಲಿನ
ನವೀನ್
ನಾಯಕತ್ವ
ನಿಮಗೂ
ನಿರೂಪಿಸಿದರು
ನಿರ್ಣಾಯಕ
ಪಂದ್ಯಕ್ಕೆ
ಪಡುವ
ಪಡೆಯಲಾಗಿದೆ
ಪಡೆಯಿರಿ
ಪಾಪ
ಬಂಗಾಳದಲ್ಲಿ
ಬಡವರ
ಬಡವರಿಗೆ
ಬರುತ್ತಿಲ್ಲ
ಬಿಬಿಎಂಪಿ
ಬೆಚ್ಚಗಿನ
ಬ್ಲೂ
ಭೇಟಿಯಾಗಿ
ಮಕ್ಕಳೊಂದಿಗೆ
ಮನೋಭಾವವನ್ನು
ಮೂರ್ತಿ
ಮೂಲಕವೇ
ಮೂಲತಃ
ಯಶಸ್ವಿಯಾಗಿದ್ದಾರೆ
ಯೋಧ
ರಿಯಾಯಿತಿ
ರೋಗಿಗಳಿಗೆ
ವರುಣ್
ವಾಹನಗಳಿಗೆ
ವಿಡಿಯೊ
ವಿದ್ಯಾರ್ಥಿಗಳಿಂದ
ವಿಪತ್ತು
ವಿರುದ್ಧವೂ
ವುಡ್
ಶಕ್ತಿಯ
ಸಂಶೋಧಕರು
ಸರ್ವ
ಸಾಫ್ಟ್
ಸಿಕ್ಕಾಪಟ್ಟೆ
ಸೊಪ್ಪು
ಸೋಮವಾರ
ಸ್ಪಿನ್ನರ್
ಹಿಂಸೆ
##ಂಗಲ್
##ಂಡೆ
##ಕದಲ್ಲಿ
##ಗಿದ
##ಗುತ್ತಿದ್ದಾರೆ
##ಟರು
##ಟ್ಟಿಗೆ
##ಡಬೇಕಾಗಿದೆ
##ಡುಗೆ
##ದನ್
##ದಿರುವ
##ನೆಸ್
##ಬೇಕಾಗಿತ್ತು
##ಯವಾಗಿ
##ರನ್ನೂ
##ರಿದ್ದರು
##ರುತ್ತೇವೆ
##ರುವಂತೆ
##ರ್ಯ
##ಲದಲ್ಲಿ
##ಸಲೂ
##ಸಿಕೊಳ್ಳಿ
##ಾಗಿದ್ದಾನೆ
##ಿಗೇ
##ಿದ್ದಲ್ಲಿ
##ುದಕ್ಕಿಂತ
54
ಅಧಿಕಾರದ
ಅನಿವಾರ್ಯ
ಅನ್
ಅವಧಿಯ
ಅವರೊಬ್ಬ
ಆಯ್ತು
ಆರೈಕೆ
ಆಲಿಯಾ
ಇರಬಾರದು
ಉತ್ಪನ್ನ
ಐಶ್ವರ್ಯಾ
ಒಳ
ಕಂದಾಯ
ಕಂದು
ಕಟ್ಟಡದ
ಕಾಣುತ್ತಿದೆ
ಕಾರ್ಟ್
ಕೂಡಿದ
ಕೆಲವೊಮ್ಮೆ
ಕೋ
ಗಂಗಾ
ತಡೆಗಟ್ಟಲು
ತಪ್ಪಿತಸ್ಥರ
ದರ್ಶನ
ದಲಿತ
ದೇಹವನ್ನು
ಧೂಮಪಾನ
ನಷ್ಟವಾಗಿದೆ
ನಿಯಂತ್ರಣಕ್ಕೆ
ನೀಡುತ್ತವೆ
ನ್ಯಾ
ಪಟ್ಟ
ಪದಾಧಿಕಾರಿಗಳು
ಪಾತ್ರಗಳಲ್ಲಿ
ಪಿಟಿಐ
ಪ್ರತಿಶತ
ಫಿಲ್ಮ್
ಬರ
ಬೆಂಕಿಯನ್ನು
ಬೆಸ್ಟ್
ಮಹೀಂದ್ರ
ಮೂಡಿ
ಯೋಬ
ಲಕ್ಷಕ್ಕೂ
ವಶಪಡಿಸಿಕೊಳ್ಳಲಾಗಿದೆ
ವಾಲ್
ವಿದೇಶ
ವಿಳಂಬ
ವಿವಾದಾತ್ಮಕ
ವಿಷಯಕ್ಕೆ
ಸಭೆಯನ್ನು
ಸಲಹೆಗಾರ
ಸಾಧನ
ಸಿಖ್
ಸೇವೆಗೆ
ಸ್ಟೋರ್
ಸ್ವರ್ಗೀಯ
ಹೆಚ್ಚಿನವರು
ಹೇಳಿದಂತೆ
ಹೋದರೆ
##ಂದೂರು
##ಕೆಗಳು
##ಕೊಳ್ಳುತ್ತಾನೆ
##ಗದು
##ಗಿಸಿ
##ತ್ತದೋ
##ದಾಗಿತ್ತು
##ಧಾನ
##ನಕ್ಕೆ
##ಪ್ರಸಾದ್
##ಯನ್ನಾಗಿ
##ರತಿ
##ರಾಗಿದ್ದು
##ರೆಡ್ಡಿ
##ಲಾಸ್
##ವಣೆ
##ಷ್ಟೂ
##ಸ್ಸು
##ಾಮನ
##ಿಲ್ಲದೆ
##ಿಸಲಾದ
##ೀಟ್
##ುತ್ತಿರುವ
##ುರ
##ೆಡ್
##ೇಡ್
##ೋಟ್
##್ವ
Kannada
ಅಂಕಗಳನ್ನು
ಅನುಭವವನ್ನು
ಅನೇಕವೇಳೆ
ಆಚರಿಸಲಾಗುತ್ತದೆ
ಆಟಗಾರ್ತಿ
ಆರಂಭಿಸಿದ
ಒಕ್ಕೂಟದ
ಕಳೆದುಕೊಂಡಿದ್ದಾರೆ
ಕಾಯ್ದೆಯಡಿ
ಕುಟುಂಬದವರು
ಕೇನ್
ಗುರುತಿನ
ಗೊತ್ತಿರಲಿಲ್ಲ
ಜಂಟಿಯಾಗಿ
ಟ್ರಸ್ಟ್
ತಲೆಗೆ
ತೊರೆದು
ನವರು
ನಿಂತ
ನಿರುದ್ಯೋಗ
ಪೀಡಿತ
ಪೈಸೆ
ಪ್ರತಿನಿಧಿಗಳು
ಪ್ರತಿಯೊಂದು
ಫ್ಲಿಪ್
ಬೆಲೆಯ
ಬ್ಯಾಂಕುಗಳು
ಭಾಷಣದ
ಮತಗಳು
ಮನೋಜ್
ಮಹಿಳೆಯನ್ನು
ಮಾಡುವುದಾಗಿ
ಮಾರ್ಗದ
ಮಾರ್ಟಿನ್
ಮೌನ
ರಾಶಿ
ಲೆಕ್ಕಾಚಾರ
ವಾಟ್ಸ್
ವಿದ್ಯಾರ್ಥಿನಿ
ಶನಿವಾರ
ಶೌಚಾಲಯ
ಶ್ರೀನಗರ
ಷರೀಫ್
ಸಂಕ್ಷಿಪ್ತ
ಸಂತೋಷದ
ಸಂಯುಕ್ತ
ಸಂರಕ್ಷಣೆ
ಸುದೀರ್ಘ
ಸೋದರ
ಹಂತಕ್ಕೆ
##10
##ಂಡಿಂಗ್
##ಕರಿಸಿ
##ಕೊಟ್ಟರು
##ಗಳಂತಹ
##ಗಾಂಧಿ
##ಗಿಸಲು
##ಗುತ್ತಿತ್ತು
##ತನ್ನು
##ಪಲ್
##ಪಿಎಸ್
##ಮಾಡು
##ಯಲ್ಲಿದೆ
##ಯಷ್ಟೇ
##ರಾಜು
##ರಿಸಬಹುದು
##ರಿಸಿದೆ
##ಲಿವೆ
##ಸಿವೆ
##ಸುಗಳು
##ಸುವರು
##ಾಗಲಿಲ್ಲ
##ಾಬಾದ್
##ಿಯಾದ
##ಿರೋ
##ಿಸಬೇಕಾದ
##ುದರೊಂದಿಗೆ
##ೆಲ್ಲವೂ
##ೊಂಡು
##ೋಪ್
ಅಧಿಕಾರಿಗಳನ್ನು
ಅನ್ವಯಿಸುತ್ತದೆ
ಅಭಿನಂದನೆಗಳು
ಆಡಲು
ಆಫ್ರಿಕಾದ
ಆಯ್ಕೆಯಾಗಿದ್ದಾರೆ
ಆರ್ಥಿಕವಾಗಿ
ಕುಟುಂಬಗಳು
ಕುಳಿತು
ಕೂಡಿ
ಕೇಳುವ
ಕ್ರಮೇಣ
ಗೌರವಿಸಲಾಯಿತು
ಚಿತ್ರತಂಡ
ಚಿಹ್ನೆಗಳು
ಜೈ
ಡಿಕೆ
ತಂಡಗಳ
ತಕ್ಕೊಂಡು
ತಿಳಿಸಿದ್ದರು
ತೀರ್ಪಿನ
ದಿನಾಂಕವನ್ನು
ನಡೆಯುತ್ತಿಲ್ಲ
ನಿರ್ಮಾಣವಾಗಿದೆ
ನ್ಯಾಯಾಲಯವು
ಪಂಡಿತ್
ಪಟ್ಟಣದಲ್ಲಿ
ಪದಾರ್ಥಗಳನ್ನು
ಪರಿಚಯ
ಪರೀಕ್ಷೆಯನ್ನು
ಫಲಿತಾಂಶವನ್ನು
ಬದಲಾಯಿಸಲು
ಬಾಂಗ್ಲಾ
ಬಾರ್
ಭರ್ತಿ
ಮುಖದ
ಮೂಡಿಸಿದೆ
ಯಾರಿಂದಲೂ
ಯಾವುದನ್ನು
ಯುವರಾಜ್
ರವರ
ರಾಧಿಕಾ
ರಾಯಲ್ಸ್
ವರ್ಷಕ್ಕೆ
ವಿಷಯವಾಗಿದೆ
ಷೇರು
ಸಂಸತ್ತಿನ
ಸನ್ಮಾನಿಸಲಾಯಿತು
ಸರಣಿಯನ್ನು
ಸಾಧ್ಯವಾದಷ್ಟು
ಸಾಲವನ್ನು
ಸಿನೆಮಾ
ಹೇಗಾದರೂ
##ಂಟೆ
##ಂತಾಗುತ್ತದೆ
##ಂದಾ
##ಕರಿಸಬೇಕು
##ಕೊಳ್ಳಲಿ
##ಕೊಳ್ಳಲಿದೆ
##ಕ್ಷಿ
##ಚಕ
##ಡುತ್ತಿದ್ದ
##ಡುತ್ತಿರುವ
##ಣಗಳು
##ದನೆ
##ದನ್ನೂ
##ದಯ
##ಪಿಸುವ
##ಪ್ಟ್
##ಬಂದ
##ಮ್ಮೆ
##ರಿಲ್ಲ
##ಲ್ಲು
##ಳಿಸುವ
##ಸ್ಥರ
##ಾರೋ
##ಾರ್ಪಣೆ
##ಿರುವುದರಿಂದ
##ಿಸುವಾಗ
ಅಖಿಲೇಶ್
ಅತ್ಯಗತ್ಯ
ಇತಿಹಾಸದ
ಇದ್ದೇನೆ
ಉದ್ಧವ್
ಉಪಚುನಾವಣೆ
ಏನೆಂದು
ಏರಿದೆ
ಕೋಪ
ಕೋರಿದರು
ಗಡಿಯಲ್ಲಿ
ಗೆದ್ದಿದ್ದಾರೆ
ಚಿಕಿತ್ಸೆಯ
ಜೊತೆಗಿನ
ಟ್ರೈಲರ್
ತ್ರಿವಳಿ
ದಾಖಲಿಸಿಕೊಂಡ
ದಾಖಲಿಸಿದ್ದರು
ನಂತರದಲ್ಲಿ
ನಿರ್ದೇಶನಾಲಯ
ನೋಟು
ಪಡೆಯಿತು
ಪರಿಣಾಮಕಾರಿಯಾಗಿ
ಪರಿಹಾರವನ್ನು
ಪೌಲನ
ಪ್ರದೀಪ್
ಬಂದಿದ್ದರು
ಬಹುದೊಡ್ಡ
ಬ್ಯಾಟ್
ಮಾಡಿದ್ದಾನೆ
ರಚಿಸಲಾಗಿದೆ
ರಭಸಕ್ಕೆ
ವಕೀಲರು
ವಾಕ್ಯವನ್ನು
ಸಮ್ಮತಿ
ಸಹಾಯವನ್ನು
ಸೂಚನೆಗಳನ್ನು
ಸ್ಟ್ರೀಟ್
ಸ್ಪಂದನೆ
ಹಾಗಲ್ಲ
ಹೆಗ್ಗಳಿಕೆಗೆ
ಹೆಚ್ಚುವರಿಯಾಗಿ
ಹೇಳುವುದಾದರೆ
##le
##ಂತು
##ಂಪಲ್
##ಂಭ
##ಕೊಂಡಿವೆ
##ಕೊಟ್ಟ
##ಗಳಂತೆ
##ಡಲಾಗಿತ್ತು
##ಡೇ
##ದಳ
##ಧಕ
##ನಾಡು
##ನೆಗಳು
##ಫಾ
##ಬಂತು
##ಬೇಕಾ
##ಯುಳ್ಳ
##ರೇನು
##ಲವನ್ನು
##ಲವು
##ವಾಗಿರುತ್ತವೆ
##ಸದೇ
##ಾಕ್
##ಾನದ
##ಿಕೆಗೆ
##ಿಸಿವೆ
##ುತ್ತಿದ್ದ
##ುತ್ತಿವೆ
##ೕಸ್
180
350
ಅಂಕಿತ
ಅನುಷ್ಠಾನ
ಅಪಾಯದ
ಅಭಿಪ್ರಾಯಪಟ್ಟಿದ್ದಾರೆ
ಅವರೆಲ್ಲರೂ
ಆಗುತ್ತೆ
ಆರೋಪಿಯ
ಆಶ್ರಯ
ಇನ್ನಿತರರು
ಇಲ್ಲದೇ
ಇಲ್ಲೇ
ಇವನ
ಇವರಿಬ್ಬರ
ಉದ್ಘಾಟನಾ
ಕುಡಿಯಿರಿ
ಕೈಗೊಳ್ಳಲು
ಕೊಡಗು
ಕೊತ್ತಂಬರಿ
ಕೋಟ್ಯಂತರ
ಕ್ಲಾಸ್
ಗಳನ್ನೂ
ಗಳಷ್ಟು
ಗಾತ್ರದ
ಘೋಷಿಸಲಾಗಿದೆ
ಜರ್ಮನಿ
ತಪ್ಪಾಗಿ
ತಾವೇ
ತಿಳಿದುಕೊಳ್ಳಲು
ತೆಗೆದುಕೊಳ್ಳಲು
ದಾಂಪತ್ಯ
ದೊಡ್ಡದು
ದೊರೆಯುತ್ತದೆ
ನೋವಿನ
ಪತ್ರಿಕಾಗೋಷ್ಠಿಯಲ್ಲಿ
ಪುಸ್ತಕವನ್ನು
ಪೋಷಕರ
ಪ್ರಾಣಿಗಳ
ಫೋಟೋವನ್ನು
ಬಡ್ಡಿದರ
ಬರೋಬ್ಬರಿ
ಬಲವಾಗಿ
ಬುಧವಾರ
ಬ್ರಾಂಚ್
ಮಂಗಳವಾರ
ಮಂಗಳೂರಿನ
ಮಕ್ಕಳೂ
ಮಗನನ್ನು
ಮತ್ತೊಂದು
ಮನವಿಯನ್ನು
ಮನು
ಮಾಡಿದಾಗ
ಮಾನವನ
ಮಾರಕ
ಮಾರಾಟದ
ಮೌಲ್ಯವನ್ನು
ರಹಾನೆ
ರಾಯಭಾರಿ
ವೈದ್ಯ
ವೈವಿಧ್ಯಮಯ
ಶೀಘ್ರದಲ್ಲಿಯೇ
ಸದಸ್ಯರಿಗೆ
ಸರಕಾರದಿಂದ
ಸಿನಿಮಾಗೆ
ಸಿಪ್ಪೆ
ಸುರಕ್ಷಿತವಾಗಿ
ಸ್ಕೋಡಾ
ಸ್ಪರ್ಧೆಗಳಲ್ಲಿ
ಹಿಂದೆಯೇ
ಹೀಗಿರುವಾಗ
ಹೈಕಮಾಂಡ್
##20
##50
##F
##ಎಕ್ಸ್
##ಗಳಲ್ಲ
##ಗೊಳಿಸು
##ಗ್ಗೆ
##ಟದಲ್ಲಿ
##ಟಿಕ್ಸ್
##ಥಾ
##ಥ್ಯ
##ದಂದು
##ದ್ದೇಶಿಸಿ
##ನರು
##ನೆಟ್
##ಪುರಂ
##ಪೋರ್ಟ್
##ಫೋನ್
##ಬಹುದಿತ್ತು
##ಭಾರ
##ರಿಸಲಿದೆ
##ರುವುದರಿಂದ
##ಲರಿ
##ಲಿಯ
##ವಲ್ಲದ
##ವಾದಾಗ
##ಸಲಾಗುವುದಿಲ್ಲ
##ಸುತ್ತಿದ್ದು
##ಿಕವಾಗಿ
##ಿಕೆಯಿಂದ
##ೀಂ
##ೂೕ
##ೊಬ್ಬರ
ಅತಿಯಾಗಿ
ಅತ್ಯುನ್ನತ
ಅವಧಿಗೆ
ಆಮ್
ಇದ್ದರೂ
ಒಂದಷ್ಟು
ಒಳಗೊಂಡಿರುತ್ತದೆ
ಕಥೆಯನ್ನು
ಕಳುಹಿಸಿ
ಕಾರ್ಯಾಚರಣೆಯಲ್ಲಿ
ಕೆಜಿಎಫ್
ಕೈಗೊಂಡ
ಕೊಂದ
ಗಳಿವೆ
ಗೆಲುವಿಗೆ
ಚಂದ್ರನ
ಚೇತರಿಕೆ
ಜೀವನದ
ಜೆಡಿ
ಟಿಆರ್
ತೋರುತ್ತದೆ
ದೇವಸ್ಥಾನದ
ನವ
ನಾಯಕನಾಗಿ
ನಿಖರವಾದ
ನೀತಿಯ
ನೋಡಿದರೆ
ಪತ್ರಕರ್ತರ
ಪೊಲೀಸರನ್ನು
ಪ್ರಕಟಿಸಿದೆ
ಪ್ರಾಣಿಗಳು
ಬರ್ಗ್
ಮನಸ್ಸಿನ
ಮಾತನಾಡಿದ್ದಾರೆ
ಮುಂದುವರಿಸಿದ್ದಾರೆ
ಮೃತಪಟ್ಟವರ
ಮೇಲಿರುವ
ಮೈದಾನದಲ್ಲಿ
ಯೋಜನಾ
ವಿದ್ಯಾ
ವಿಧಗಳು
ವಿನಯ್
ವೆಲ್
ಸಂಘರ್ಷ
ಸಂಚು
ಸಂದರ್ಶನದ
ಸದಾನಂದ
ಸಬ್
ಸರ್ವೋಚ್ಚ
ಸವಾರರು
ಸಾಂತ್ವನ
ಸುವಾರ್ತೆಯನ್ನು
ಸೊಲೊಮೋನನು
ಸ್ಥಾಪನೆ
ಹಬ್ಬವನ್ನು
ಹೇಳುವುದಿಲ್ಲ
ಹೊಡೆದ
##k
##ಂತರ
##ಂಬೆ
##ಕೆಗೆ
##ಖಿ
##ಗಲಿದ್ದಾರೆ
##ಗಿದ್ದು
##ಗುರು
##ಚಾರ್ಜ್
##ಟ್ಟಿದೆ
##ಡದೇ
##ತಿಕ
##ದಕ್ಕಾಗಿ
##ದಿದ್ದರು
##ಧರ
##ಪಡಿಸುವುದು
##ಪವನ್ನು
##ಬೇಕೆ
##ಯುತ್ತಾರೆ
##ಯೋಗ
##ರಬೇಕೆಂದು
##ಲಿಯಾ
##ಲ್ಲವೇ
##ವಾಗಿದ್ದವು
##ವಾಯ್ತು
##ಶ್ವರ
##ಹೋದ
##ಾವ
##ಿಸಬೇಕು
##ಿಸ್
##್ತೇನೆ
##ೕನು
00
700
ಅತ್ತ
ಅದಾದ
ಅಭಿಪ್ರಾಯಪಟ್ಟರು
ಆಲೋಚನೆ
ಇದರರ್ಥ
ಇದೊಂದು
ಇಲ್ಲಿಂದ
ಉಂಟಾಗಿತ್ತು
ಉತ್ಸಾಹ
ಊಟದ
ಎಂಎಂ
ಎಸೆತಗಳಲ್ಲಿ
ಒಪ್ಪಲಿಲ್ಲ
ಕಾಡುತ್ತಿದೆ
ಕಿಶೋರ್
ಕೇಂದ್ರಕ್ಕೆ
ಕೊಂಡು
ಕೌರ್
ಘಟನೆಯಿಂದ
ಚಂದ್ರಬಾಬು
ಜಾರಕಿಹೊಳಿ
ತಂದ
ತರುತ್ತದೆ
ದೇಹದಲ್ಲಿ
ನಾಗರಿಕರ
ನಿವಾಸಿ
ನೀಡಬೇಕೆಂದು
ನೀಡುತ್ತೇನೆ
ನೆಹ್ವಾಲ್
ನೌಕರರು
ನ್ಯಾಯಪೀಠ
ಪರಿಸ್ಥಿತಿಗಳು
ಫೇಸ್ಲಿಫ್ಟ್
ಫ್ರಂಟ್
ಬಾಬಾ
ಬಿಡುಗಡೆಯ
ಬಿಹಾರದಲ್ಲಿ
ಬೈಕಿನ
ಭಾನುವಾರ
ಭಾರತಿ
ಮಕ್ಕಳಿಂದ
ಮಾನಸಿಕವಾಗಿ
ಮುಖ್ಯಸ್ಥರು
ಮೂಡಿಸುವ
ಮೃತಪಟ್ಟಿದ್ದರು
ಯುರೋಪ್
ವಿಚಾರಕ್ಕೆ
ವಿಧಿಸಲಾಗಿದೆ
ವಿವಿ
ವೇಳೆಯಲ್ಲಿ
ವ್ಯಾಪ್ತಿಯ
ಶ್ರೇಯಸ್
ಸಂಯೋಜನೆ
ಸಂಸದೆ
ಸಮಾಲೋಚನೆ
ಸಲ್ಲಿಸುತ್ತೇನೆ
ಸಹೋದರಿಯರು
ಸ್ನೇಹಿತರ
ಹಾಳು
ಹುದ್ದೆಗಳ
ಹೆಮ್ಮೆಯ
ಹೇಳಬೇಕು
##ಂಗಡಿ
##ಂತಿವೆ
##ಂತೆಯೂ
##ಕಾಂತ್
##ಗತ
##ಗಾಲ
##ಣು
##ತ್ತರ
##ಪಗಳು
##ಬೇಡಿ
##ಮಾಡಿತು
##ಮ್ಸ್
##ಯಾಗಲಿಲ್ಲ
##ರಿಕೆ
##ವಿಂಗ್
##ಸೆಲ್
##ಾಗಲೀ
##ಿಟ್
##ುದಾಗಿದೆ
##ೆಲ್ಲೆಡೆ
##ೊಟ್ಟಿಗೆ
##ೋದಿಲ್ಲ
2ನೇ
ಅದೆಲ್ಲ
ಅಧಿಕಾರವನ್ನು
ಅಲರ್ಟ್
ಆಲೂಗಡ್ಡೆ
ಇಲ್ಲಿಯ
ಉಳಿಸಲು
ಎಂಬಂತೆ
ಕಣ್ಣಿನ
ಕುಲದೀಪ್
ಖರೀದಿಸಲು
ಗಾಂಧೀಜಿ
ಗೇರ್ಬಾಕ್ಸ್
ಚಹಾ
ಚೀನಾದಲ್ಲಿ
ಜನತೆಯ
ಜ್ಞಾನೋ
ಠೇವಣಿ
ಡಿಆರ್
ಡೆಬಿಟ್
ತ್ಯಾಗ
ದಿಕ್ಕಿನಲ್ಲಿ
ನಡೆಸಲಿದ್ದಾರೆ
ನಡೆಸುವಂತೆ
ನಿಕಟ
ನಿರ್ಲಕ್ಷ್ಯ
ನೀಲ್
ಪಿಎಸ್
ಪ್ರದೇಶವನ್ನು
ಪ್ರೀತಿಸುತ್ತೇನೆ
ಫೈಬರ್
ಬಾಹ್ಯ
ಭರವಸೆಯನ್ನು
ಭಾಗವಹಿಸಿ
ಮಾಡದೆ
ಮಾಡಬೇಕಾಗಿದೆ
ಮಾಡುವುದಕ್ಕೆ
ಮೀರಿ
ರಕ್ತವನ್ನು
ರಾಷ್ಟ್ರಾಧ್ಯಕ್ಷ
ವಿಶ್ವವಿದ್ಯಾನಿಲಯದ
ಸಂಭವಿಸಿತು
ಸಲಹೆಗಳನ್ನು
ಸಿಂಗಲ್ಸ್
ಸೂರ್ಯ
ಸೇತುವೆ
ಸ್ಥಳದಲ್ಲಿಯೇ
ಸ್ಥಿತಿಗೆ
ಹರಸಾಹಸ
##K
##O
##ಂಚು
##ಂಟಲ್
##ಂದರು
##ಕಾನ್
##ಗಬಾರದು
##ಜಿಂಗ್
##ಜಿನ
##ಟಿಸಿ
##ಣಿಗೆ
##ದಾರ್
##ದ್ಯ
##ದ್ರಿ
##ಬೇಕೋ
##ಮಿಕ್
##ಲಿನಲ್ಲಿ
##ಲೀ
##ಳಬಹುದು
##ವಂತೂ
##ವಿಟಿ
##ಸುತ್ತಿದ್ದೇನೆ
##ೀಕರಿಸಲು
##ುಗಳನ್ನು
##ೆಲ್ಲರ
##್ಕಾಗಿ
##ೕಕ
160
95
ಅಯ್ಯೋ
ಅರ್ಥವನ್ನು
ಅಲೆ
ಅವ
ಆರಂಭವಾಗುತ್ತದೆ
ಇನ್ನಷ್ಟೇ
ಇರಾನಿ
ಇಲ್ಲವೋ
ಉತ್ಸವ
ಎಷ್ಟೊಂದು
ಏನೆಲ್ಲಾ
ಕಚೇರಿಗೆ
ಕಾರಣವನ್ನು
ಕಾರ್ಯಕ್ಕೆ
ಕ್ಯಾಲ್ಸಿಯಂ
ಕ್ರೈಸ್ತರಿಗೆ
ಖಂಡಿತವಾಗಿ
ಗರ್ಭಿಣಿ
ಚಂದ್ರಶೇಖರ
ಚಿತ್ರಕಥೆ
ಜರ್ಮನ್
ಟಿವಿಎಸ್
ದೆಹಲಿಗೆ
ನಡೆಯುತ್ತಿತ್ತು
ಪಕ್ಷವು
ಪರಿಗಣಿಸಲಾಗುತ್ತದೆ
ಪರೀಕ್ಷೆಗಾಗಿ
ಪಾಲ್ಗೊಳ್ಳಲಿದ್ದಾರೆ
ಪ್ರತಿಭಟನೆಗೆ
ಪ್ರತಿಭಾವಂತ
ಪ್ರಭು
ಪ್ರೇಮ
ಬಳ್ಳಾರಿ
ಬಾರಿಯೂ
ಬೆಳವಣಿಗೆಯನ್ನು
ಬೆಳೆಯಲು
ಮಾನವರು
ಮಾಸ್ಕ್
ರಾಜಕಾರಣಿ
ರಾಜೇಂದ್ರ
ರಾಜ್ಯವನ್ನು
ರಿಯರ್
ಲೀಲಾ
ವಿಚಾರಗಳನ್ನು
ವಿಮಾನಗಳ
ವೆಚ್ಚದ
ವೆಚ್ಚವನ್ನು
ವೇದಿಕೆಯಲ್ಲಿ
ಶಾರೀರಿಕ
ಶ್ರೀಮತಿ
ಸಂಸ್ಕೃತಿಯ
ಸಮರ್ಪಕವಾಗಿ
ಸಾಧನೆಗೆ
ಸಾಧ್ಯವಾಗುವುದಿಲ್ಲ
ಸಿಪಿಐ
ಸೀಮಿತ
ಸುತ್ತಿನ
ಸುವ್ಯವಸ್ಥೆ
ಸೇರಿದ್ದರು
ಸೇರುವ
ಸೈನಿಕರ
ಸ್ಥಳವಾಗಿದೆ
ಸ್ಪಾಟ್
ಸ್ವೀಕಾರ
ಹತ್ಯೆಗೆ
ಹೆಚ್ಚಿದ
ಹೆಸರುಗಳು
ಹೋರಾಟಕ್ಕೆ
##ಂಕ
##ಂದಕ್ಕೆ
##ಕನಾದ
##ಗುತ್ತಲೇ
##ಚಿಗೆ
##ಡಿಗೆ
##ತಾರ
##ದಿರಿ
##ದ್ಧ
##ನಾಗಿದ್ದೇನೆ
##ಬೇಕೇ
##ಯರನ್ನು
##ಯಲಾಗಿದೆ
##ಯಷ್ಟು
##ಯಿಂದಲೇ
##ರನ
##ರಿಗಳು
##ಲಕ್ಕೆ
##ಳಕ್ಕೆ
##ಳಿಸಲಾಗಿದೆ
##ಸದಂತೆ
##ಹಿಸುತ್ತಾರೆ
##ಿಗಿಂತಲೂ
##ೇಕ
##ೊಂಡ
##್ದೀರಿ
##್ಯವನ್ನು
##್ಯಾರು
53
62
73
IPL
in
ಅರವಿಂದ
ಅರ್ಜಿಗಳನ್ನು
ಅಸ್ತಿತ್ವಕ್ಕೆ
ಆಡಿದ
ಆದಕಾರಣ
ಆರನೇ
ಆರೋಗ್ಯದಲ್ಲಿ
ಇದ್ದೇವೆ
ಉಂಟಾಯಿತು
ಉದ್ದದ
ಐಸಿಐಸಿಐ
ಒಬ್ಬನೇ
ಕಲ್ಪನೆ
ಕವಿ
ಕಾಯ್ದೆಯ
ಕಾಲೇಜುಗಳು
ಗುಂಪಿನಲ್ಲಿ
ಗುರುತಿಸಿ
ಗ್ಯಾಲಕ್ಸಿ
ಜಿಲ್ಲೆಗಳ
ತರಾಟೆಗೆ
ತಿಂಡಿ
ತಿಮೊಥೆಯ
ದೈವಿಕ
ನಳಿನ್
ನಿಯೋಜಿಸಲಾಗಿದೆ
ನೇಣು
ನೋವನ್ನು
ಪೂರಕ
ಪ್ರಣಬ್
ಪ್ರತಿಪಕ್ಷ
ಪ್ರತಿಭಟನಾ
ಪ್ರದೇಶಕ್ಕೆ
ಪ್ರೀತಿ
ಬಹಳವಾಗಿ
ಬೇಕಾಗಿದೆ
ಬ್ರೆಜಿಲ್
ಮುಖಕ್ಕೆ
ಯಶಸ್ಸಿನ
ಯಾವುದಾದರೂ
ಯೇಸುವಿಗೆ
ರೋಚಕ
ವಯಸ್ಸಿನಲ್ಲಿ
ವಿಚಾರಣೆಯನ್ನು
ವಿತ್ತ
ವಿಮಾನಗಳು
ವೇಳೆ
ಶೀಟ್
ಶುರುವಾಗಿದೆ
ಸತ್ತ
ಸಮಸ್ಯೆಯಾಗಿದೆ
ಸುದ್ದಿಗಾರರೊಂದಿಗೆ
ಹತ್ತಿ
ಹರ್ಷ
ಹಿಂತಿರುಗಿ
ಹೊಂದಿತ್ತು
ಹೋಮ್
##ಂಗರ್
##ಂತಾ
##ಂಬಾ
##ಕರವಾದ
##ಗಬೇಕಿದೆ
##ಗೈದ
##ಗೊಳಿಸಿತು
##ಘ
##ಡಿಯ
##ಡೆಂಟ್
##ಡೆಗೆ
##ಡೋ
##ತ್ತಿರುತ್ತಾರೆ
##ದಿದ್ದ
##ದಿಯ
##ಧೀನ
##ನಾಗಿದ್ದಾನೆ
##ನೀಸ್
##ಪಟ್ಟಿದೆ
##ಪಡಿಸಿದರು
##ಪಿಕ್
##ಬರ
##ಬಿಟ್ಟು
##ಮೆಣಸು
##ಯುಕ್ತ
##ರೋದು
##ಲಾಲ್
##ಲಿನಿಂದ
##ಳೆಯುವ
##ವತ್ತು
##ವದು
##ವರೆಲ್ಲರೂ
##ಸಬಲ್ಲದು
##ಸರಿಗೆ
##ಸಲ್ಪಟ್ಟಿರುವ
##ಸಿಸಿ
##ಸುವಿಕೆ
##ಾಪಕ
##ುದ್ದೀನ್
2018ರ
50ರಷ್ಟು
ಅದರೆ
ಅನುವು
ಅಭಿಯಾನ
ಅವಘಡ
ಅಸಾಮಾನ್ಯ
ಆಕ್ಷನ್
ಆಯ್ಕೆಯ
ಈಶ್ವರಪ್ಪ
ಎಲೆಕ್ಟ್ರಾನಿಕ್
ಕಂಡುಬಂದಿಲ್ಲ
ಕಟೀಲ್
ಕಲಿಕೆ
ಕಲ್ಯಾಣ್
ಕಾಡು
ಕೃತಿ
ಗುಣಲಕ್ಷಣಗಳನ್ನು
ಗೇಟ್
ಗೇಲ್
ಚರಂಡಿ
ಚಾನೆಲ್
ಚಿಲ್ಲರೆ
ಜಾತಿಯ
ತಜ್ಞರ
ತಳ್ಳಿ
ತೋರಿಸಲು
ದಟ್ಟಣೆ
ದಾಖಲಿಸಿದೆ
ದಾಳಿಯನ್ನು
ನಕಾರಾತ್ಮಕ
ನಗರಸಭೆ
ನಡೆಸಿರುವ
ನಿಸ್ಸಾನ್
ನೋಡಿರಿ
ಪಕ್ಕಾ
ಪಯನೀಯರ್
ಪರಿಶಿಷ್ಟ
ಪರಿಹರಿಸಲು
ಪೆಕ್ಟರ್
ಪ್ರಕ್ರಿಯೆಯಲ್ಲಿ
ಪ್ರತ್ಯುತ್ತರ
ಪ್ರದೇಶಗಳಿಗೆ
ಪ್ರಭಾಸ್
ಪ್ರಾಜೆಕ್ಟ್
ಫಲಿತಾಂಶಗಳನ್ನು
ಫಸ್ಟ್
ಬಹುಪಾಲು
ಬಿಎಸ್ಪಿ
ಬುದ್ಧಿ
ಬೆಟ್ಟದ
ಭಾವ
ಮಲಿಕ್
ಮಾಡಲಾಗಿದ್ದು
ಮಾಡಿಕೊಳ್ಳುವ
ಮಾತನಾಡುತ್ತಾರೆ
ಮಾಸಿಕ
ಮುನ್ನವೇ
ಮ್ಯಾನೇಜರ್
ಯೋಜನೆಯಲ್ಲಿ
ರಕ್ಷಣೆಗೆ
ರಾಜ್ಯಾದ್ಯಂತ
ವಾಟರ್
ವಿವೇಕ್
ಸಂತೋಷದಿಂದ
ಸಂಬಂಧದಲ್ಲಿ
ಸಂಸತ್ತಿನಲ್ಲಿ
ಸಂಹಿತೆ
ಸನ್ನಿವೇಶ
ಸರಳವಾಗಿ
ಸಾನಿಯಾ
ಸಿಬ್ಬಂದಿಯನ್ನು
ಸುಸ್ಥಿರ
ಸೌಕರ್ಯ
ಸ್ವಚ್ಛತೆ
ಹಾಗೆಯೂ
ಹಿಡಿದ
ಹೀನಾಯ
ಹೊಣೆಯನ್ನು
##ia
##ಂಕು
##ಂಬಿ
##ಕೊಳ್ಳುತ್ತಾ
##ಚ್ಚಿನ
##ಜಿಸಲು
##ಡಬೇಕಾದ
##ಡಬೇಕಿದೆ
##ಣಿಯ
##ತಿದ್ದಾರೆ
##ಪಟ್ಟರು
##ಬಂದಿದೆ
##ಬೇಕಾಗುತ್ತದೆ
##ಯಿಂಗ್
##ಯೆಂದರೆ
##ರಂ
##ರವರು
##ರ್ಕ್
##ಲಯ
##ಲ್ಲಿವೆ
##ಳಿದು
##ವನನ್ನು
##ವಾಗುತ್ತಿತ್ತು
##ವಿದ್ದ
##ಸಿಕೊಂಡ
##ಹೋಗಿ
##ಾಮ
##ಿಯರು
##ೀಪ್
##ೊಳಗಿನ
##ೋಟ
##ೌಂಟ್
104
56
59
ಅಗತ್ಯವಿರುತ್ತದೆ
ಅಗ್ಗದ
ಅರ್ಥಮಾಡಿಕೊಳ್ಳಲು
ಅವಿಭಾಜ್ಯ
ಆಸ್ಪತ್ರೆಗಳಲ್ಲಿ
ಇರ್ಫಾನ್
ಇಷ್ಟವಿಲ್ಲ
ಉದ್ಘಾಟನೆ
ಎಬಿಎಸ್
ಏಕ
ಒಬ್ಬರನ್ನೊಬ್ಬರು
ಕಿಯಾ
ಕಿಲೋಮೀಟರ್
ಕೆಲಸವು
ಕೈಗೊಳ್ಳುವ
ಖರೀದಿಗೆ
ಖಾತ್ರಿ
ಗಾಯಗೊಂಡಿರುವ
ಗೀತೆಗಳು
ಗೌರವಾನ್ವಿತ
ಚಿರಂಜೀವಿ
ಛಾಯಾಗ್ರಹಣ
ಜಿಲ್ಲಾಧ್ಯಕ್ಷ
ಟೆಕ್
ತಂಡಗಳನ್ನು
ತರೂರ್
ದೇವರಲ್ಲಿ
ನಂತೆ
ನಡೆಯಲು
ನಮ್ಮೆಲ್ಲರ
ನಾಯಕರನ್ನು
ನೀಡಿದ್ದೇನೆ
ನೆರೆ
ಪಡೆದಿದ್ದರು
ಪತ್ತೆಯಾಗಿದೆ
ಪುತ್ತೂರು
ಪೋಲೀಸರು
ಪ್ರಯುಕ್ತ
ಪ್ರಾಧಿಕಾರದ
ಬಂಟ್ವಾಳ
ಬಂದವು
ಬಂಧಿಸಿದ್ದರು
ಬರಬಹುದು
ಬೆಳವಣಿಗೆಯ
ಮಹಾತ್ಮಾ
ಮುಂಗಾರು
ಮುಖ್ಯಾಂಶಗಳು
ಮುಚ್ಚಿ
ಮೊದಲನೆಯ
ಯಾರೇ
ಯೂನಿಯನ್
ರತ್ನ
ರಶೀದ್
ರಾಜ್ಯಸಭೆಯಲ್ಲಿ
ರಿಯಾಲಿಟಿ
ರೇಸ್
ರೈಲುಗಳ
ಲಕ್ಷ್ಮಿ
ಲಾ
ವರ್ತನೆ
ವಿಕ್ರಮ್
ವಿಧದ
ವೀರೇಂದ್ರ
ಶುಕ್ರವಾರ
ಶ್ರಮ
ಶ್ರೀಕಾಂತ್
ಸಂಸ್ಥಾಪಕ
ಸದುಪಯೋಗ
ಸನ್ನಿ
ಸಮರ್ಪಕ
ಸರಳವಾದ
ಸಾಂಸ್ಥಿಕ
ಸಾರ್ವತ್ರಿಕ
ಸುವಾರ್ತೆ
ಸೋಲಿನ
ಹಾಕಬೇಕು
ಹಾರಾಟ
ಹೆನ್ರಿ
ಹೋಗಿವೆ
##g
##ಕಪ್
##ಕಾಲೀನ
##ಕೆರೆ
##ಕೊಟ್ಟನು
##ಕೊಡುವ
##ಗರಿಗೆ
##ಗಳನ್ನೇ
##ಗಳಿಂದಾಗಿ
##ಗೊಂಡಿದ್ದ
##ಝಾ
##ಡಿದ್ದಾರೆ
##ಡಿನಲ್ಲಿ
##ದಿರು
##ದ್ದಾಳೆ
##ಮವನ್ನು
##ರಾಯ
##ಲಾಗದ
##ಲ್ಲದ
##ಳೆದಿದ್ದಾರೆ
##ವೇ
##ವೊಂದಕ್ಕೆ
##ಸಲ್ಪಡುವ
##ಾಜ
##ಿಸಬೇಡಿ
##ಿಸಲಾಗಿದ್ದು
##ೋ
##್ತಾರೆ
##ೕಟ್
##ೕನ್
##೦
01
650
ಅಗತ್ಯವಾಗಿದೆ
ಅನುಕೂಲಗಳು
ಅಲಹಾಬಾದ್
ಅವರಿಬ್ಬರೂ
ಆಗಿನ
ಆದಾಯವನ್ನು
ಇದೇನು
ಇಳಿದು
ಇಸ್ಲಾಂ
ಐಎಸ್
ಕಂಪೆನಿಯ
ಕಾರಣಗಳನ್ನು
ಕೋಟ್
ಕೌಶಲ್ಯ
ಖಚಿತವಾಗಿ
ಜೀವನವು
ಜೂ
ಟೂರ್ನಿ
ಟೆಂಡರ್
ಟ್ರೇಲರ್
ತಂದೆಯು
ತನ್ನದೇ
ತೆಗೆದುಕೊಂಡ
ದಾರಿಯಲ್ಲಿ
ದುಬೈ
ಧಾರಾಕಾರ
ನವಾಜ್
ಪಕ್ಷೇತರ
ಪಡೆದಿದ್ದು
ಪರಿಕ್ಕರ್
ಪರೀಕ್ಷೆಗಳು
ಪಾತ್ರರಾಗಿದ್ದಾರೆ
ಪಾಲ್ಗೊಂಡು
ಪೋಲಿಸರು
ಪ್ರಮೋದ್
ಪ್ರಸಂಗಿ
ಪ್ರೊಸೆಸರ್
ಫಾಸ್ಟ್
ಫೀಲ್ಡಿಂಗ್
ಬಗೆಗೆ
ಬಣ್ಣಗಳ
ಬಹುನಿರೀಕ್ಷಿತ
ಬಿಎಚ್ಪಿ
ಬೇಕಿಲ್ಲ
ಬೌಂಡರಿ
ಭಾಗಗಳು
ಮನುಷ್ಯರ
ಮಳೆಯಾಗುವ
ಮಸೂದೆಯನ್ನು
ಮಾಡಬೇಕಿದೆ
ಮಾಹಿತಿಯ
ಮುಖ್ಯವಾದ
ಮೋಶೆಯ
ಯಾತ್ರೆ
ವರದಿಯ
ವಿಚಾರಗಳು
ವಿಧಾನವು
ವಿಮರ್ಶೆಗಳು
ವಿಲಿಯಮ್ಸನ್
ವೆಂಕಟೇಶ್
ಶಸ್ತ್ರಚಿಕಿತ್ಸೆ
ಶಾಸ್ತ್ರಿ
ಶಿಷ್ಯರು
ಶ್ರುತಿ
ಸಂಸ್ಥೆಗಳಿಗೆ
ಸಚಿವಾಲಯವು
ಸಲ್ಲಿಸಲಾಗಿದೆ
ಸವಾರ
ಸಾಗರ
ಸಾಗಿದೆ
ಸಾರ್ವಜನಿಕವಾಗಿ
ಸುಲಭದ
ಸ್ಫೂರ್ತಿ
ಹಗರಣ
ಹಸನ್
ಹೆಲಿಕಾಪ್ಟರ್
ಹೇಳುವಂತೆ
ಹೋಗುವುದು
##ಂಚಿ
##ಕರಿಸಲು
##ಕುಲ್
##ಕ್ಕಿನ
##ಗ್ರಾಂ
##ಚರಿಸುವ
##ಚಿಸುವ
##ಡಬೇಕೆಂದು
##ಣೆಯಲ್ಲಿ
##ತೆಗಳ
##ತ್ತಿರುತ್ತದೆ
##ತ್ತಿರುವುದು
##ನೆಗಳನ್ನು
##ಬಲ್ಲವು
##ಬಹುದೆಂದು
##ಮತ
##ಯಸ್
##ಯಿಸುವ
##ಲಿಯಲ್ಲಿ
##ಳಿಸಿದೆ
##ಳೇ
##ವರಿಂದ
##ವರೆಗಿನ
##ಷಿತ
##ಸುವಾಗ
##ಹಾನಿ
##ಹಿತ
##ಾಗಿರುತ್ತದೆ
##ಾಯಿ
##ಾವಧಿಯಲ್ಲಿ
##ಿಸುವಲ್ಲಿ
##ುಡಿ
##್ತೀನಿ
##್ವಿ
105
130
144
63
85
ಅಡ್ಡಿ
ಅನಾಹುತ
ಅನ್ಯಾಯ
ಅರೆಸ್ಟ್
ಆದರು
ಆದ್ಮಿ
ಇದ್ದಾನೆ
ಉಂಟುಮಾಡುತ್ತದೆ
ಉತ್ತರಗಳನ್ನು
ಐಪಿಎಸ್
ಒಳಗೊಂಡಂತೆ
ಕಂಟ್ರೋಲ್
ಕರ್ತನಾದ
ಕೈಗೊಳ್ಳುವಂತೆ
ಖಾದರ್
ಗಂಭೀರವಾಗಿದೆ
ಗಲ್ಲು
ಗಾಯಗೊಂಡಿದ್ದ
ಗೆಹ್ಲೋಟ್
ಜನಪ್ರಿಯತೆ
ಜೆಡಿಯು
ಟೈಗರ್
ಟೊಯೊಟಾ
ತಿಂಗಳಿನಲ್ಲಿ
ತೂಕವನ್ನು
ದಾಖಲೆಯ
ನಟಿಸಿದ್ದರು
ನೀಡಿರಲಿಲ್ಲ
ನೀಡುತ್ತೇವೆ
ಪರವಾನಗಿ
ಪರಿಗಣಿಸಲಾಗಿದೆ
ಪ್ರತಿಕ್ರಿಯಿಸಿದರು
ಪ್ರತಿನಿತ್ಯ
ಪ್ರತಿಭಟನಾಕಾರರನ್ನು
ಪ್ರಸ್ತಾವನೆ
ಬಣ್ಣವನ್ನು
ಬಲವನ್ನು
ಬಾಲಕಿಯನ್ನು
ಬಾಹುಬಲಿ
ಬೇಸಿಗೆ
ಭ್ರಷ್ಟಾಚಾರದ
ಮಟ್ಟಕ್ಕೆ
ಮಣ್ಣಿನ
ಮತದಾನದ
ಮರಣದಂಡನೆ
ಮಾದರಿಗಳು
ಮೇರಿ
ಮೋದಿಯನ್ನು
ಮ್ಯೂಸಿಕ್
ರಸ್ತೆಗೆ
ರಾಮನಗರ
ರಾಮನಾಥ್
ಲಭ್ಯವಾಗಿಲ್ಲ
ವಶಪಡಿಸಿಕೊಂಡಿದ್ದಾರೆ
ವಿಮಾನದಲ್ಲಿ
ಶಬ್ದ
ಶಾಶ್ವತವಾಗಿ
ಶಿಬಿರ
ಶಿವಸೇನಾ
ಶೈಲಿಯ
ಸಂಭಾವನೆ
ಸಸ್ಯ
ಸಾಧ್ಯವಿದೆ
ಸ್ಫೋಟಕ
ಹನ್ನೆರಡು
ಹಾಲಿನ
ಹುಲಿ
ಹೇಳಲಾಗುತ್ತಿದೆ
ಹೋಗಿತ್ತು
ಹೋಗಿದ್ದರು
##ಕೆಟ್
##ಕೊಡಲು
##ಕೊಳ್ಳುತ್ತವೆ
##ಕೋಶದ
##ಗಲೇ
##ಗೊಳ್ಳಬೇಕು
##ಚ್ಚುವ
##ಟನು
##ಟ್ಟಾಗಿ
##ದಿಂದಲೂ
##ನಹಳ್ಳಿ
##ನಿಯ
##ಪಕ್ಷ
##ಪಟ್ಟಿ
##ಪಾಲ
##ಬನ್
##ಭೂಮಿ
##ಮರ
##ಯನ್ನೇ
##ಯಲ್ಲಿದ್ದಾರೆ
##ಯಾದರೆ
##ರಕ್ಕೆ
##ರತ್
##ರ್ಶನ
##ಳಿಯುವ
##ವಿನಲ್ಲಿ
##ವೀರ್
##ಸಲಾಗುವ
##ಹೋ
##ಾಂತ
##ಾವಕಾಶ
##ೀಕರಣ
##ುದ್ದಕ್ಕೂ
##್ದಕ್ಕೆ
69
72
ಅನುಷ್ಠಾನಕ್ಕೆ
ಅಭಿಷಿಕ್ತ
ಅಯೋಧ್ಯೆ
ಅವಕಾಶವಿಲ್ಲ
ಅವನೇ
ಅವರದ್ದು
ಆತ್ಮವಿಶ್ವಾಸ
ಆದೇಶದ
ಇತಿಹಾಸದಲ್ಲೇ
ಇತಿಹಾಸವನ್ನು
ಇವರಿಬ್ಬರು
ಈಗಾಗಲೆ
ಈತನನ್ನು
ಉಳಿಯಲು
ಎಂದೆ
ಒದಗಿಸಲಾಗಿದೆ
ಕರೆಯಲ್ಪಡುವ
ಕರ್ತನನ್ನು
ಕಾರುಗಳಿಗೆ
ಕಾಲ್
ಕೆಟಿಎಂ
ಗುರಿಗಳನ್ನು
ಚರ್ಚೆಗಳು
ಜನರೊಂದಿಗೆ
ಜಾಹೀರಾತು
ತಮಿಳುನಾಡಿನಲ್ಲಿ
ತಯಾರು
ತ್ಯಾಜ್ಯ
ನನ್ನದು
ನಷ್ಟಕ್ಕೆ
ನಾಗೇಂದ್ರ
ನಾಳೆ
ನೆರವಿಗೆ
ನೊಬೆಲ್
ನೋಡಿದಾಗ
ನೋಡಿಲ್ಲ
ನ್ಯಾಯಾಧೀಶ
ಪಾರಾಗಿದ್ದಾರೆ
ಪೂರ್ಣವಾಗಿ
ಪೆಟ್ರೋಲಿಯಂ
ಫಿಟ್
ಬದಿಯಲ್ಲಿ
ಬದುಕಿನಲ್ಲಿ
ಬಳಸುವುದು
ಭಾಗಶಃ
ಭಾರತದಿಂದ
ಮಂಜು
ಮಹತ್ವವನ್ನು
ಮಹಿಳೆಗೆ
ಮಾಡಬಹುದಾಗಿದೆ
ಮೊಟ್ಟೆ
ರಚನೆಗೆ
ರಾಬರ್ಟ್
ರೈನಾ
ರೋಮನ್
ವಜಾ
ವರಿಷ್ಠ
ವರುಷ
ವಾಹನದ
ವಿಚಾರಗಳ
ವಿಧ
ವೈಶಿಷ್ಟ್ಯಗಳು
ವ್ಯಕ್ತ
ವ್ಯಕ್ತಿತ್ವ
ಸಮಾಜಕ್ಕೆ
ಸಾಗುತ್ತಿದೆ
ಸಾಧ್ಯವಾಯಿತು
ಸೌತ್
ಸ್ಕೋರ್
ಸ್ಟೆಪ್
ಹಂತದಲ್ಲಿದೆ
ಹಾಡನ್ನು
ಹಿಂದೂಗಳು
ಹುಸೇನ್
ಹೆಚ್ಚಳವಾಗಿದೆ
ಹೆಚ್ಚುತ್ತದೆ
ಹೊಂದಲು
ಹೋದೆ
##ಕೃತ
##ಗಾಗಿರುವ
##ಗಾರಿಕಾ
##ಗೊಳಿಸಲು
##ಗೊಳಿಸುವಂತೆ
##ಗೊಳ್ಳುತ್ತಿದೆ
##ಜ್ಞರು
##ಟನ್ನು
##ಣಿಸಿ
##ತೀನಿ
##ದಿಸುವ
##ದೇವ್
##ನಿಸಿದೆ
##ಬಾರದೆಂದು
##ಬಿಐ
##ಮಿತ
##ಯದಿಂದ
##ಯಲಿ
##ಯಾಗುವುದಿಲ್ಲ
##ರರ್
##ರಿಯಂಟ್
##ರೇಶನ್
##ಲಿಂಗ
##ಲಿಟಿ
##ಶಾಲಿ
##ಹರಿಸಿ
##ಾಡು
##ಾಮನು
##ಿಬ್ಬರ
##ುತ್ತೀರಿ
##ೇರು
##ೇಶ್ವರಿ
##ೊಳಗೊಂಡ
##್ಯಾಪ್
##ೕತ
57
71
ಅಂದಾಜಿಸಲಾಗಿದೆ
ಅಧಿಸೂಚನೆ
ಅಧ್ಯಕ್ಷರ
ಅರ್ಜಿಯ
ಆಗುವುದು
ಆಡಳಿತಾತ್ಮಕ
ಆಯೋಗಕ್ಕೆ
ಇಲ್ಲದಂತಾಗಿದೆ
ಉಂಟಾದ
ಕುಟುಂಬವು
ಕೆಲಕಾಲ
ಕೇಳಿದಾಗ
ಕೊಟ್ಟಿದೆ
ಕ್ಯಾಮೆರಾದಲ್ಲಿ
ಗಣೇಶ
ಗುಣಲಕ್ಷಣಗಳು
ಗೊತ್ತಿಲ್ಲ
ಚಿಕ್ಕಮಗಳೂರು
ಚೌಕ
ಜೀ
ಟಿಸಿ
ಡಿಎಂಕೆ
ಡ್ಯೂಕ್
ತಲೆಯ
ತೆರವು
ತೊಡಗಿದ್ದಾರೆ
ದಾಖಲಾಗಿಲ್ಲ
ದಾಖಲಿಸಲಾಗಿದ್ದು
ದ್ವೇಷದ
ನಡ್ಡಾ
ನಮ್ಮೊಂದಿಗೆ
ನಾಯಿ
ನಿಲ್ದಾಣದ
ನೀಡುತ್ತಿಲ್ಲ
ಪಠಾಣ್
ಪಡೆಯಬೇಕು
ಪವಿತ್ರಾತ್ಮದ
ಪ್ರಹಾರ
ಬರುತ್ತಿರುವ
ಬೇರೆಯವರ
ಬ್ಯಾಂಡ್
ಭಿನ್ನವಾಗಿದೆ
ಮಂತ್ರಿಗಳು
ಮಯಾಂಕ್
ಮುಂಜಾಗ್ರತಾ
ಮುಂದುವರಿಯುತ್ತದೆ
ಮೂವರನ್ನು
ಮೇಲ್
ಯೋಜನೆಯು
ರಚಿಸಿ
ರಾಜಕೀಯದ
ರೀತಿಯಾಗಿ
ರೂಪ
ರೈಸರ್ಸ್
ಲಡಾಖ್
ವಹಿಸುತ್ತದೆ
ವಿಕಾಸ್
ವಿಧಗಳಲ್ಲಿ
ವಿನೋದ್
ವಿಶ್ವದಲ್ಲಿ
ವ್ಯಕ್ತಪಡಿಸಿದೆ
ಸಂಬಂಧಪಟ್ಟಂತೆ
ಸಮರ
ಸಮೂಹ
ಸಲ್ಲಿಸಬಹುದು
ಸಲ್ಲಿಸಿದೆ
ಸಶಸ್ತ್ರ
ಸುಖ
ಸೈನ್ಸ್
ಸ್ಥಳಗಳು
ಸ್ಥಾಪಿಸಲು
ಹಾಕಲಾಗಿದೆ
ಹಿಂದಿಯಲ್ಲಿ
ಹಿನ್ನಡೆ
ಹೆದ್ದಾರಿಯಲ್ಲಿ
ಹೇಳಿಕೆಗಳನ್ನು
ಹೇಳಿವೆ
ಹೊಂದಿದ್ದೇವೆ
ಹೊಂದಿರುತ್ತವೆ
##ಂನಲ್ಲಿ
##ಂಬುಲೆನ್ಸ್
##ಕೊಳ್ಳಬೇಕಾದ
##ಕೊಳ್ಳಬೇಕಿದೆ
##ಗಿದ್ದಾನೆ
##ಚಾ
##ಚಿಸಬಹುದು
##ಜನರ
##ಟಿಕೆ
##ಡಗಿದೆ
##ತವಾಗಿದೆ
##ತಾದ
##ತ್ತನ್ನು
##ತ್ತಿದ್ದವು
##ದ್ದಿ
##ಬಂಧ
##ಬನು
##ಬರುತ್ತಿದೆ
##ಬಿದ್ದ
##ರಳ
##ರಿದೆ
##ರುತ್ತಿದೆ
##ಲೆಗೆ
##ಳಿಸಿದ್ದಾರೆ
##ವನಾಗಿ
##ವಾಸಿ
##ವಿಕೆ
##ವಿರಲಿ
##ವುದೂ
##ಷ್ಟನ್ನು
##ಹಾಲ್
##ಹೋಯಿತು
##ಾನಾ
##ಾಸ
##ಿಟ್ಟು
##ಿದ್ದಳು
##ಿಯಿಂದ
##ಿಸಬೇಕೆಂದು
##ಿಸಲ್ಪಟ್ಟ
##ುದೇನು
##ೊಂಡರು
##್ಯೂ
##್ಳಿ
ಅಲೋಕ್
ಅವಮಾನ
ಅವರನ್ನೂ
ಆತ್ಮೀಯ
ಆಯ್ಕೆಯಾದ
ಉದ್ದೇಶವನ್ನು
ಎಂಜಾಯ್
ಒಂದೂ
ಒಲೆಯಲ್ಲಿ
ಕಷ್ಟಕರ
ಕೇಂದ್ರಗಳಲ್ಲಿ
ಕೊಂದು
ಕೊಡುವುದು
ಕೋಲ್ಕತಾ
ಗಳಿಸಲು
ಗಾಯಗೊಂಡವರನ್ನು
ಗೀತಾ
ಗೊತ್ತಿತ್ತು
ಜಾಗತಿಕವಾಗಿ
ಜೀವಾವಧಿ
ಟ್ರಯಂಫ್
ತಂದೆಗೆ
ತಜ್ಞ
ತಾಯಿಗೆ
ತಿಳಿದಿರಲಿಲ್ಲ
ತುಪ್ಪ
ತೂಕದ
ದೇಹಕ್ಕೆ
ಧನ
ನಟನೆ
ನಿರೀಕ್ಷಿಸಲಾಗಿದೆ
ನಿರ್ಣಯವನ್ನು
ನಿರ್ದೇಶನದಲ್ಲಿ
ನೀಡಿದ್ದೇವೆ
ನೋವು
ನ್ಯಾಯಾಧೀಶರು
ಪಡೆಗಳ
ಪತ್ರಗಳನ್ನು
ಪಾತ್ರಗಳು
ಪ್ರಭಾವವನ್ನು
ಪ್ರಮಾಣವಚನ
ಪ್ರಮುಖವಾಗಿ
ಬೂದು
ಬೆಳೆದು
ಬೇಕಾಗಿಲ್ಲ
ಭಯಾನಕ
ಭೇಟಿ
ಮರ್ಸಿಡಿಸ್
ಮಹಿಳೆಯರನ್ನು
ಮುನ್ಸೂಚನೆ
ರುಚಿಗೆ
ವಹಿಸಲಿದ್ದಾರೆ
ವಾಹನವನ್ನು
ವಿಶ್ವದಲ್ಲೇ
ವಿಶ್ವನಾಥ್
ವೈದ್ಯಕೀಯ
ವೈದ್ಯರನ್ನು
ಶಶಿ
ಶುಶ್ರೂಷೆಯಲ್ಲಿ
ಸಚಿವರಾಗಿ
ಸಾಗಣೆ
ಸಾಧಿಸುವ
ಸಾಹಸ
ಸಿಪಿಎಂ
ಸುಗಮ
ಸ್ಥಳವು
ಸ್ಪೋರ್ಟ್ಸ್
ಹಂತಗಳನ್ನು
##ಕರನ್ನು
##ಕಾದ
##ಕೊಂಡ
##ಕೊಟ್ಟು
##ಕೊಳ್ಳಬಹುದಾಗಿದೆ
##ಗಡ
##ಜನರು
##ಟಿನ್
##ಟ್ಟರು
##ಡುವುದಿಲ್ಲ
##ತಿತ್ತು
##ದಕ್ಕಿಂತ
##ದಿಗೆ
##ದೆಂದು
##ನಾಯಕ
##ಪತ್ತಿ
##ಪ್ಪಿ
##ಬೋ
##ಯಗಳು
##ರಡಿ
##ರಬೇಕು
##ರ್ಣ
##ಲ್ಯಾಂಡ್
##ವಾಗಿರಬಹುದು
##ವಾಡಿ
##ವಿರುವುದಿಲ್ಲ
##ಶ್ಯ
##ಸಲಿದ್ದೇವೆ
##ಸಲಿರುವ
##ಸಲ್ಪಡುತ್ತದೆ
##ಸುವುದನ್ನು
##ಸ್ತ
##ಹಿಸಿ
##ಾಕಿ
##ಾಚಾರ್ಯ
##ಾಯ್ತು
##ಿರು
##ಿಸಿದಾಗ
##ೀಫ್
##ುತ್ತಿಗೆ
##ೂತ್ರ
##ೆಂದೂ
##ೋಳ
##ೋಹ
##್ಯಾಂಪ್
68
ಅಂಬರೀಶ್
ಅಗತ್ಯವಾದ
ಆಯ್ಕೆಗಳಲ್ಲಿ
ಆರೋಪಿಗಳಿಗೆ
ಇದ್ದೆ
ಇಲ್ಲಿಯೇ
ಉತ್ತಮವಾಗಿದೆ
ಉತ್ತರಪ್ರದೇಶದ
ಉಪಚುನಾವಣೆಯಲ್ಲಿ
ಊರಿಗೆ
ಒಪ್ಪುವುದಿಲ್ಲ
ಕಟ್ಟುನಿಟ್ಟಿನ
ಕರ್ನಾಟಕಕ್ಕೆ
ಕಲಾವಿದ
ಕಳವು
ಕಳೆದು
ಕಾ
ಕಾಲೇಜುಗಳಿಗೆ
ಕಿಟ್
ಕೀರ್ತಿ
ಕೂಡಿದೆ
ಕೋರಿದ
ಕ್ರಿ
ಕ್ರಿಕೆಟರ್
ಕ್ರಿಯೆ
ಕ್ವಾರಂಟೈನ್
ಗಲಾಟೆ
ಗೋಲ್ಡ್
ಚರ್ಚಿಸಿ
ಜನ್ಯ
ಜಯಭೇರಿ
ಜೋ
ಟಾಮ್
ತಪ್ಪಿ
ತೆಂಡುಲ್ಕರ್
ದತ್ತಾಂಶ
ದಿಗ್ಗಜ
ನಡೆಸಿಲ್ಲ
ನಮ್ಮಿಂದ
ನಲ್ಲಿದ್ದ
ನಲ್ಲೇ
ನಿಲುವನ್ನು
ನೀಡಬಹುದು
ನೀರಿಲ್ಲ
ಪಡೆಯ
ಪಡೆಯುತ್ತಾರೆ
ಪತ್ನಿಯ
ಪಯಣ
ಪಾಟ್ನಾ
ಪಾನ್
ಪ್ರತಿಕೂಲ
ಪ್ರಾರಂಭವಾಯಿತು
ಪ್ರಾರಂಭಿಸಲು
ಫೇಸ್ಬುಕ್
ಬುಕ್ಕಿಂಗ್
ಭದ್ರತೆಯ
ಭಾಗವು
ಭೂಕಂಪ
ಮಗಳನ್ನು
ಮಣಿಪುರ
ಮನರಂಜನೆ
ಮಾಡಿದರೂ
ಮಾಡುತ್ತೀರಿ
ಮಾರಾಟದಲ್ಲಿ
ಮುಂಭಾಗದ
ಮುಹಮ್ಮದ್
ಮೂಗು
ಮೇಲ್ವಿಚಾರಣೆ
ಮೋಡ್
ಮೌಲ್ಯಮಾಪನ
ರಿಗೆ
ಲಂಚ
ಲಭಿಸಿದೆ
ವಾರಗಳ
ವಿವರವಾಗಿ
ವ್ಯರ್ಥ
ಶಾರ್ಟ್
ಶೀರ್ಷಿಕೆ
ಶೋಭಾ
ಷಿಪ್
ಸಂಸ್ಥೆಯಾಗಿರುವ
ಸತತವಾಗಿ
ಸಮ
ಸಮಾವೇಶ
ಸಮ್ಮೇಳನ
ಸರಕಾರವನ್ನು
ಸಹಾಯಮಾಡುತ್ತದೆ
ಸಾಸಿವೆ
ಸಿಂಹ
ಸುದ್ದಿಯನ್ನು
ಸುಧಾರಿಸಲು
ಸೌಲಭ್ಯಗಳು
ಸ್ತ್ರೀ
ಸ್ಥಾನಗಳ
ಸ್ಥಿತಿಯ
ಹೊಂದಿರಬೇಕು
##7ರಲ್ಲಿ
##c
##ce
##ಂದಿದೆ
##ಂಧ
##ಕೊಂಡಿದ್ದೇವೆ
##ಕೊಳ್ಳುತ್ತಿಲ್ಲ
##ಗಣನೆ
##ಗಳಾಗಿದೆ
##ಗುತ್ತಿದ್ದು
##ಟಿಗಳು
##ಟ್ಟುಕೊಂಡು
##ಡಬೇಕಾಗುತ್ತದೆ
##ಡಿರಿ
##ಡಿಸಿದರು
##ತ್ಯೆ
##ದಿತ್ತು
##ದೆವು
##ದ್ದಳು
##ಧರ್
##ನಾಲ್
##ಪಡಿಸಿಕೊಳ್ಳಲು
##ಬಳಕೆ
##ಮಿಂಗ್
##ಮ್ಯ
##ಯವರನ್ನು
##ಯಾಮ್
##ರಾಂ
##ರುತ್ತಾನೆ
##ರುತ್ತೆ
##ರುವುದನ್ನು
##ಲೈಟ್
##ವೆಂದೂ
##ಶಂಕರ್
##ಶಕ
##ಸಕ್ಕೆ
##ಸಿಕೊಂಡಿದೆ
##ಸೊ
##ಹನು
##ಾಜಿ
##ಾಜು
##ಾರ್ಹ
##ುದ್ಧ
##ೇಕರ್
##ೋಜಿತ
##್ಟ್
RAM
com
ಅಂತರ್ಜಾಲ
ಅಕ್ಕ
ಅದೇನು
ಆಪರೇಷನ್
ಆರೋಪಿಸಿ
ಆಲಿವ್
ಉಳಿಯುತ್ತದೆ
ಏನಾಗಿದೆ
ಒಬ್ಬರಿಗೊಬ್ಬರು
ಕಡೇ
ಕನಸಿನ
ಕನಿಷ್ಟ
ಕನ್ನಡಿಗ
ಕಾಣಿಸಿಕೊಳ್ಳುತ್ತಿದ್ದಾರೆ
ಕೊಡು
ಕೊರಿಯಾ
ಕೋಲ್ಕತ್ತಾ
ಕೌಶಲ
ಕ್ಷಣದಲ್ಲಿ
ಖಂಡನೆ
ಗಂಭೀರ್
ಗಢ
ಗಲಭೆ
ಗುಣಗಳು
ಘೋಷಣೆಗಳನ್ನು
ಜಮೀನು
ಜಾನ್ಸನ್
ಟಿಪ್ಸ್
ಟ್ಯಾಗ್
ಡ್ರೈವ್
ತಂದೆಯಾದ
ತಂಬಾಕು
ತನಿಖೆಯ
ತಿಂಗಳುಗಳ
ತೀರ್ಮಾನಕ್ಕೆ
ದೀಪ
ದೀಪ್
ದೇಣಿಗೆ
ದ್ವೇಷ
ಧಾವಿಸಿ
ನಗು
ನೀಡಲಾಗಿದ್ದು
ಪತ್ರಿಕೆಯ
ಪದವನ್ನು
ಪಲ್ಸರ್
ಪಾತ್ರವಾಗಿದೆ
ಪುರಿ
ಪ್ರಚಾರದ
ಪ್ರಯಾಣದ
ಪ್ರಸ್ತಾಪ
ಪ್ರಾಮಾಣಿಕ
ಫಲಕಾರಿಯಾಗದೆ
ಬಿಡಲಿಲ್ಲ
ಬೀದಿ
ಬೀರಿದೆ
ಬೇರೆ
ಭೂಮಿಗೆ
ಮನೆಯಲ್ಲೇ
ಯೂಟ್ಯೂಬ್
ಯೋಜನೆಗಳಿಗೆ
ರಾಷ್ಟ್ರಗಳಲ್ಲಿ
ರೂಬಲ್ಸ್ಗಳನ್ನು
ವಿಂಡೋಸ್
ವಿದ್ಯಾರ್ಥಿನಿಯರು
ವಿಷಯವಲ್ಲ
ವೈವಾಹಿಕ
ವ್ಯಕ್ತಪಡಿಸಿದ್ದರು
ವ್ಯಾಪ್ತಿಗೆ
ಶಾಲೆಗಳ
ಸಾಧನಗಳು
ಸಾಧಾರಣ
ಸಾಧಿಸಿತು
ಸುತ್ತಲಿನ
ಸುಮಲತಾ
ಸ್ಪೇನ್
ಸ್ವಾಮ್ಯದ
ಹಣ್ಣಿನ
ಹಾಕಿದ್ದರು
ಹಾಸ್ಯ
ಹೆಚ್ಚಿಸಲಾಗಿದೆ
ಹೇಳುತ್ತಿದ್ದಾರೆ
ಹೊರೆ
##x
##ಂಜರ್
##ಕೊಂಡಿರಲಿಲ್ಲ
##ಕೊಳ್ಳದೆ
##ಗಳಲ್ಲಿರುವ
##ಗಾಯಿತು
##ಗಿದು
##ಗಿರುವುದು
##ಗೊಳಿಸಲಾಗಿತ್ತು
##ಗ್ಗಿ
##ಟಗಳು
##ಟೋ
##ತ್ಸವ
##ದ್ದೊಂದು
##ನಗಳನ್ನು
##ನನು
##ನವು
##ನೊಂದು
##ಬರಿ
##ಬಲ್ಲಿರಿ
##ಮಾಡುತ್ತದೆ
##ಯಗಳನ್ನು
##ಯಿತ
##ಯೊಂದನ್ನು
##ರಮ್
##ರವಾದ
##ರಾಜ್ಯ
##ರಿಯಲ್ಲಿ
##ಲಯದ
##ಲೆನ್ಸ್
##ಳಗೆ
##ವಲ್ಲಿ
##ವುದೇ
##ವೊಂದರ
##ಸಿರಿ
##ಸ್ತಾನ
##ಸ್ಪೂನ್
##ಾಂಗ
##ಾವಧಿಯ
##ಿಗಿರುವ
##ಿದರು
##ಿಯೋ
##ೀಳಲಿದೆ
##ೆಂಟ್
##್ಣ
##್ದನು
##್ಮ
10ನೇ
67
83
ಅನಂತ
ಅನುರಾಗ್
ಅನ್ನ
ಅವರನ್ನ
ಆದಾಯದ
ಆದ್ದರಿಂದಲೇ
ಆಸಕ್ತಿದಾಯಕ
ಇದ್ದಕ್ಕಿದ್ದಂತೆ
ಇರುವಂತೆ
ಉತ್ತರಗಳು
ಉರ್ದು
ಎತ್ತರ
ಒಣಗಿದ
ಕಂಡಿತು
ಕಥೆಗಳು
ಕಮಾಂಡರ್
ಕಲ್ಪಿಸಲಾಗಿದೆ
ಕಲ್ಲಿದ್ದಲು
ಕಳೆದುಕೊಂಡು
ಕಳ್ಳತನ
ಕಾಯಿದೆ
ಕುಟುಂಬಸ್ಥರು
ಕುತೂಹಲಕಾರಿ
ಕೆರೆ
ಕೊಲೆಗೆ
ಕ್ರಮಗಳ
ಖುದ್ದು
ಗಣಿತ
ಗುರುವಾರ
ಘರ್ಷಣೆ
ಚಿಕನ್
ಜಾನಪದ
ಜೈಲಿನಲ್ಲಿ
ಡಿಎಫ್
ತಂದೆಯನ್ನು
ತಲೆಮಾರಿನ
ತಿನ್ನುವ
ತಿರುವು
ದೀಕ್ಷಾಸ್ನಾನ
ದೇಶಕ್ಕಾಗಿ
ಧರಿಸಿ
ನಂಬಲು
ನಡೆದಿರುವುದು
ನರಸಿಂಹ
ನಾಯಕನ
ನಿಗಮ
ನಿಗೆ
ನಿಯಮಿತ
ನಿರಾಸೆ
ನೀಡಿವೆ
ನೋಡಿದೆ
ನ್ಯೂಜಿಲ್ಯಾಂಡ್
ಪಕ್ಷಿಗಳು
ಪಡೆದುಕೊಳ್ಳಬೇಕು
ಪಾತ್ರದ
ಪ್ರತಿಕ್ರಿಯಿಸಿದ್ದಾರೆ
ಪ್ರವಾದಿ
ಪ್ರವಾಸಕ್ಕೆ
ಪ್ರಿಯ
ಪ್ರೀತಿಯು
ಪ್ರೊಡಕ್ಷನ್
ಬಡತನ
ಬದಲಾವಣೆಯ
ಬನ್ನಿರಿ
ಬಾಯ್
ಬಿಜೆಪಿಯು
ಬೇಯಿಸಿದ
ಬ್ಯಾಗ್
ಮಧ್ಯಂತರ
ಮೃತ್ಯು
ಮೇಲೆಯೇ
ಮೊನ್ನೆ
ವರದಿಯಾಗಿವೆ
ವಾಚ್
ವಾರದಲ್ಲಿ
ವಾಸಿಸುವ
ವಿಚಾರದ
ವಿಶೇಷತೆ
ಸಂಘಟನೆಗಳ
ಸಂಬಂಧದ
ಸರಕಾರಗಳು
ಸಹಾಯಕ್ಕಾಗಿ
ಸಿನಿಮಾಗಳು
ಸೋಲಿಗೆ
ಸ್ಪಷ್ಟವಾಗಿಲ್ಲ
ಹಚ್ಚಿಕೊಳ್ಳಿ
ಹನಿ
ಹರಿವು
ಹಾಗಿಲ್ಲ
ಹಾರ್ಡ್
ಹೀಗಿದ್ದರೂ
ಹುಟ್ಟುಹಬ್ಬದ
ಹುಡುಕಿ
ಹೇಳಿಕೆಯಲ್ಲಿ
ಹೊಟ್ಟೆ
##ಂಪ್
##ಕರಿಸಿದ
##ಕೊಟ್ಟಿದೆ
##ಕೊಡಬೇಕು
##ಗಟ್ಟಲೆ
##ಗಳಿದ್ದು
##ಗಾದ
##ಗಾಮಿ
##ಗುತ್ತಿದ್ದ
##ಗೊಳಿಸಬಹುದು
##ಚಿಸಲು
##ಟಾರ್
##ಡಲಾದ
##ತವನ್ನು
##ತಾರ್
##ದಲ್ಲಿದ್ದ
##ದ್ದಕ್ಕೆ
##ನಗಳು
##ನಾಗಿದ್ದನು
##ಪ್ತ
##ಪ್ರಕಾಶ್
##ಬೀರ್
##ಮಗೋಸ್ಕರ
##ಮಿರ್
##ಯಂತಹ
##ಯಾಗಲಿ
##ಯುವಂತೆ
##ರಸ
##ರಾಗಬೇಕು
##ರಿಸಿದರು
##ಲಗಳು
##ಲಿದ್ದು
##ಲಿಸುವ
##ಲೆಂದು
##ಳೆದು
##ವಶ್ಯಕ
##ವೆಲ್ಲಾ
##ವೇಕೆ
##ಸಕ
##ಸಲಾಗದ
##ಸಿರು
##ಸುತ್ತಲೇ
##ಹಾನ್
##ಹೋದರು
##ಾಗಲೂ
##ಾಲ
##ಾಲಿ
##ಿಸಿರಿ
##ೀಕ್ಷಕ
##ೀಡ್
##ೀಪ
##ುತ
##ುವು
##್ದರೆ
##್ಧಾರೆ
900
ಅಖ್ತರ್
ಅಜರ್
ಅರೋರಾ
ಅರ್ಥವೇನು
ಅವಶ್ಯ
ಆಕಾಶ್
ಆಳವಾಗಿ
ಇದಲ್ಲದೇ
ಇಲಾಖೆಗಳ
ಇಸ್ಲಾಮಾಬಾದ್
ಇಸ್ಲಾಮಿಕ್
ಎಂದಿದೆ
ಒಟ್ಟಾರೆಯಾಗಿ
ಒಲವು
ಕಂಡುಬರುವ
ಕರೆದು
ಕಲ್ಪಿಸುವ
ಕಾಣುವ
ಕಾರ್ಯಕರ್ತ
ಕೆನಡಾ
ಕೆಲವೆಡೆ
ಗಟ್ಟಿ
ಗೋಧಿ
ಗ್ರೇಟ್
ಚಟುವಟಿಕೆಗಳಲ್ಲಿ
ಚಿತ್ರಗಳ
ಜಸ್
ಜಿಲ್ಲೆಗಳು
ಟ್ಯಾಂಕರ್
ತಂದರು
ತಾರಾ
ದಾಖಲಾಗಿವೆ
ದೇವರಿಂದ
ದೊರೆತಿದೆ
ನಗರಕ್ಕೆ
ನಡೆಯುತ್ತಲೇ
ನಡೆಸುವುದು
ನನ್ನೊಂದಿಗೆ
ನಾವೀಗ
ನಾವೆಲ್ಲಾ
ನಿರ್ಮಾಪಕರು
ನೀನೇ
ನೆಹರು
ನೋಡೋಣ
ಪದಾರ್ಥಗಳು
ಪ್ರವೀಣ್
ಪ್ರಾಮುಖ್ಯತೆ
ಬಡವರು
ಬರೆದನು
ಬಾಂಡ್
ಬಾಂಬೆ
ಬಿರುಕು
ಬೆಳೆಯುತ್ತಿರುವ
ಭಾಗವಹಿಸಲು
ಭಾಷಾ
ಭೇಟಿಯ
ಮತಗಳನ್ನು
ಮನೆಗಳನ್ನು
ಮಾಡೋದು
ಮೃತಪಟ್ಟಿದ್ದಾನೆ
ಯಮಹಾ
ಯುದ್ಧದಲ್ಲಿ
ಯುವತಿಯ
ರಂಗಭೂಮಿ
ರಾಣಾ
ರೋಗದ
ಲಾಭವನ್ನು
ಲಿಂಗ
ವಹಿಸುವರು
ವಾಂತಿ
ವಾಗ್ವಾದ
ವಿದ್ಯಾಭ್ಯಾಸ
ವಿನ್ಯಾಸವನ್ನು
ವಿಪಕ್ಷ
ವಿರಾಮ
ವೈದ್ಯರು
ಶರತ್
ಶಿಕ್ಷಣಕ್ಕೆ
ಸಮನ್ವಯ
ಸಮಾರಂಭಕ್ಕೆ
ಸಮಿತಿಗೆ
ಸಮ್ಮುಖದಲ್ಲಿ
ಸಾಧಿಸಿದ್ದಾರೆ
ಸಾಲು
ಸೆಡಾನ್
ಸೋಂಕಿನ
ಸೌಲಭ್ಯವನ್ನು
ಸ್ಟೋರೇಜ್
ಸ್ತನ
ಸ್ಪೋರ್ಟ್
ಹರ್ಯಾಣ
ಹೃದಯಾಘಾತದಿಂದ
ಹೊರಗಡೆ
##or
##ಎಂಪಿ
##ಕಕ್ಕೆ
##ಕಿಗೆ
##ಕೇ
##ಕೊಂಡರೆ
##ಕೊಳ್ಳಲಾಗುವುದು
##ಗತಿಯಲ್ಲಿ
##ಗದೇ
##ಗಷ್ಟೇ
##ಜಕ
##ಡೊ
##ಡ್ಡೆ
##ತೇ
##ತ್ಪತ್ತಿ
##ದ್ದಾಗಿತ್ತು
##ಪಚಾರಿಕ
##ಮತೆ
##ಮಿತಾ
##ಮಿಸುವ
##ಯದೆ
##ಯರಲ್ಲಿ
##ಯರಾದ
##ಯಿಸುವುದು
##ರಕೆ
##ರಗಳನ್ನು
##ರತ
##ರಿಸುತ್ತಾರೆ
##ರುಗಳು
##ಲಾಗಿರುತ್ತದೆ
##ಲ್ಲರಿಗೂ
##ವರ್ಡ್
##ವಾದದ
##ಷರು
##ಷ್ಟರ
##ಸಲ್ಪಟ್ಟಿತು
##ಸಿಕೊಂಡಿರುವ
##ಸಿದ್ದಾನೆ
##ಸಿದ್ದೇನೆ
##ಹಿಸುವಂತೆ
##ಾಗಬಹುದು
##ಾಚರಣೆ
##ಾಡಿದ್ದಾರೆ
##ಿಸಿದ್ದೇನೆ
##ೀರೋ
##ೇವು
##ೕರ
12ನೇ
50ಕ್ಕೂ
ಅಂಗ
ಅಧ್ಯಯನಗಳು
ಅನೇಕರಿಗೆ
ಅಭಿವ್ಯಕ್ತಿ
ಆಗಬೇಕಿದೆ
ಆಧ್ಯಾತ್ಮಿಕವಾಗಿ
ಆನ್ಲೈನ್
ಆಯೋಗವು
ಆರ್ಥಿಕತೆಯ
ಉತ್ತರಿಸಿದರು
ಉದಾಹರಣೆಗಳನ್ನು
ಋಣಾತ್ಮಕ
ಏಕಾಏಕಿ
ಒಳ್ಳೇದು
ಕಟ್ಟಡಗಳು
ಕಲಿಯುವ
ಕಳೆದುಕೊಂಡ
ಕಾಪಾಡಿಕೊಳ್ಳಲು
ಕೂಗಿ
ಕೈಗಾರಿಕೆ
ಕೊಡುತ್ತಾನೆ
ಕೊವಿಡ್
ಕೋಟೆ
ಗಾಂಧಿಗೆ
ಗೌರವವನ್ನು
ಘಟನೆಗಳನ್ನು
ಚಾಲೆಂಜ್
ಚೆಂಡು
ಜನರೂ
ಜಾಗದಲ್ಲಿ
ಡಾಕ್ಟರ್
ತಿಳಿಯದು
ತೆಗೆದುಕೊಳ್ಳಲಾಗಿದೆ
ತೆರೆಯಲು
ತೊಂದರೆ
ತೊಂದರೆಗಳು
ತೋರಿಸಿದ
ನಗರವು
ನದಿಯಲ್ಲಿ
ನಾಯಕರಿಗೆ
ನೋಡಿದ್ದೇನೆ
ಪಂಚಾಯ್ತಿ
ಪರಿಸ್ಥಿತಿಯ
ಪ್ರಗತಿಯನ್ನು
ಪ್ರೇರಣೆ
ಬಗೆಹರಿಸಲು
ಬೀಳುವ
ಬ್ರಿಕ್ಸ್
ಭವ್ಯ
ಭಾಗಗಳನ್ನು
ಭಾಗವಹಿಸುವ
ಭಾಷಣದಲ್ಲಿ
ಭೂಷಣ್
ಮಂದಣ್ಣ
ಮಂದಿಯ
ಮದ್ಯಪಾನ
ಮನುಷ್ಯನಿಗೆ
ಮನೆಗಳ
ಮನೆಯವರು
ಮಾಡಬೇಕಾಗುತ್ತದೆ
ಮಾಡಿಕೊಂಡಿದ್ದರು
ಮಾತನಾಡಿರುವ
ಮಾರ್ಗಗಳಿವೆ
ಮಿರ್ಜಾ
ಮುಂದುವರೆಸಿದ್ದಾರೆ
ಮುಫ್ತಿ
ಮುಷ್ಕರ
ಮೂಲಗಳ
ಮೃತದೇಹ
ಮೃದು
ಮೇಜರ್
ಮ್ಯಾಚ್
ಯುವಕರಿಗೆ
ರಣ್
ರಾಜಾ
ರೋಷನ್
ಲಕ್ಷ್ಮಣ್
ಲೋಕೇಶ್
ವಿಜ್ಞಾನಿ
ವಿವರಿಸಿದ್ದಾರೆ
ವಿಶೇಷವಾದ
ವಿಶ್ವಸಂಸ್ಥೆ
ಶಂಕಿತ
ಶಿಷ್ಯರಿಗೆ
ಸಂಕೇತ
ಸಂಗತಿಯಾಗಿದೆ
ಸಂಪತ್ತು
ಸಂಸ್ಥೆಗಳನ್ನು
ಸಂಸ್ಥೆಗೆ
ಸಖತ್
ಸನ್ಮಾನ
ಸಮಸ್ಯೆಯ
ಸಮಿತಿಯಲ್ಲಿ
ಸರಣಿಗೆ
ಸಹಾ
ಸುಧಾರಿಸುತ್ತದೆ
ಸೆಕ್ಸ್
ಸೇರಿವೆ
ಸೌರ
ಸ್ಥಳದ
ಸ್ನೇಹಿ
ಸ್ವಿಫ್ಟ್
ಹಳೇ
ಹಾಡುಗಳನ್ನು
ಹೆಚ್ಚಿಸಿದೆ
ಹೆಚ್ಚುತ್ತಿರುವ
ಹೆಸರುಗಳನ್ನು
ಹೇಗಿತ್ತು
ಹೈದ್ರಾಬಾದ್
ಹೊಂದಿರಲಿದೆ
##ed
##nd
##ಕಾಗಿ
##ಕೇಶನ್
##ಕೊಳ್ಳಲಾಗುತ್ತದೆ
##ಕ್ಕೇರಿದೆ
##ಕ್ಯ
##ಕ್ಸಿಸ್
##ಗಳಾಗಿದ್ದವು
##ಗುತ್ತಿರಲಿಲ್ಲ
##ಗೊಂಡರು
##ಜಾತ
##ಡಿತ
##ಡುವಾಗ
##ಣಗಳ
##ಣಗಳನ್ನು
##ಣೆಯನ್ನು
##ತಲ್ಲ
##ತವಾಗಿ
##ನೆಂಬುದು
##ಪೂರ್ವ
##ಬೊ
##ಮದಲ್ಲಿ
##ಯಾಗಿರಲಿಲ್ಲ
##ಯಿನ್
##ರಕ್ಷಣಾ
##ರದಿಂದ
##ರೆಸ್
##ರ್ಗ
##ಲಾರದ
##ಲಿಸಲು
##ವರನ್ನೂ
##ವಾಗುತ್ತಿಲ್ಲ
##ವಿಯ
##ವೇನೆಂದರೆ
##ಶೇಖರ್
##ಷನ್ಸ್
##ಸಬೇಕೆಂಬ
##ಸಿಕೊಳ್ಳಬೇಕು
##ಿದ್ದಾಗ
##ಿಸಿಕೊಳ್ಳಲು
##ೀತೆ
##ುತ್ತಿದ್ದಂತೆ
##ೇಡು
##ೇಳೆ
##್ಯರು
##ೕಟರ್
78
ಅಂಗಡಿಗಳು
ಅಜಿಂಕ್ಯ
ಅತೀವ
ಅದಕ್ಕಿಂತಲೂ
ಅನಾರೋಗ್ಯ
ಅನಾವರಣ
ಅನುಕೂಲವಾಗಲಿದೆ
ಅಭಿನಯ
ಅಭಿಪ್ರಾಯವನ್ನು
ಅಭಿಮಾನಿ
ಅಸಂಖ್ಯಾತ
ಆಗಲೂ
ಆವೃತ್ತಿಯಲ್ಲಿ
ಆಸ್ಟ್ರೇಲಿಯ
ಇಂತಿವೆ
ಇನ್ನುಳಿದ
ಇವನ್ನು
ಇಶಾಂತ್
ಎಫ್ಐಆರ್
ಎಲ್ಲೆಲ್ಲಿ
ಒಟ್ಟಿನಲ್ಲಿ
ಕಂಪ್ಲೀಟ್
ಕಮಿಷನರ್
ಕಾನೂನನ್ನು
ಕಾಮಿಡಿ
ಕಾರ್ಯಾಚರಣೆಯನ್ನು
ಕಿರಿಕಿರಿ
ಕೈಯಿಂದ
ಕ್ರಿಸ್ತ
ಗಾಯದ
ಗೆದ್ದಿದೆ
ಚಟುವಟಿಕೆಗಳ
ಚಾಂಪಿಯನ್ಸ್
ಚುನಾವಣೆಯನ್ನು
ಚೌಹಾಣ್
ಜನಪ್ರಿಯವಾಗಿದೆ
ಜೀರಿಗೆ
ಜೀವವನ್ನು
ಜೂನಿಯರ್
ಟೂರ್ನಿಯ
ಟೆಕ್ನಾಲಜಿ
ತಂತ್ರ
ತರಬೇತಿ
ತಲುಪುವ
ತುಂಡುಗಳಾಗಿ
ತೃಣಮೂಲ
ತೆಗೆದುಕೊಂಡಿಲ್ಲ
ತೆಗೆದುಕೊಳ್ಳುತ್ತದೆ
ದಾಖಲೆಯನ್ನು
ದೇವಾಲಯಕ್ಕೆ
ದ್ದಾರೆ
ನಡೆಯಲಿಲ್ಲ
ನಡೆಯುತ್ತವೆ
ನಾಯರ್
ನಿರಾಕರಿಸಿದೆ
ನಿರ್ಣಯಗಳನ್ನು
ನೀ
ನೀರಿಗಾಗಿ
ನೆಲೆ
ನೈಸರ್ಗಿಕ
ನೌಕರರಿಗೆ
ಪರಾರಿಯಾಗಿದ್ದಾರೆ
ಪರಿಶ್ರಮ
ಪರಿಸರದ
ಪಾಲನೆ
ಪೀಟರ್
ಪ್ಯಾರಿಸ್
ಪ್ರಕಟಣೆಯಲ್ಲಿ
ಪ್ರಗತಿಯಲ್ಲಿದೆ
ಪ್ರತಿಕ್ರಿಯಿಸಿರುವ
ಪ್ರವಾಸಿಗರನ್ನು
ಪ್ರವಾಹದಿಂದ
ಪ್ರಾಮಾಣಿಕವಾಗಿ
ಪ್ರಾರ್ಥಿಸುತ್ತೇನೆ
ಪ್ರೇಕ್ಷಕರು
ಫೀಚರ್ಸ್
ಬಂಧಿಸಲಾಗಿತ್ತು
ಬದಲಾಯಿತು
ಬದಲಾವಣೆಯನ್ನು
ಬಲಪಡಿಸಲು
ಬಲಿಯಾಗಿದ್ದಾರೆ
ಬಿಟ್ಟ
ಬೆಂಕಿಯ
ಬೆಲೆಗೆ
ಬೇಯಿಸಿದ
ಮನ
ಮಹಮ್ಮದ್
ಮಿಚೆಲ್
ಮುಂಬೈಗೆ
ಮುಖ್ಯಮಂತ್ರಿಗಳ
ಯಶಸ್ವಿಯಾಗಿದೆ
ಯಾವುದನ್ನೂ
ಯೆಹೋವನಲ್ಲಿ
ಯೆಹೋವನೇ
ರಾಜಸ್ತಾನ
ರೆಹಮಾನ್
ಲಕ್ಷಕ್ಕೆ
ಲಕ್ಷಣ
ಲಗ್ಗೆ
ಲೈವ್
ವಿಭಾಗಗಳಲ್ಲಿ
ವಿಲೇಜ್
ವ್ಯವಸ್ಥೆಯು
ಶಕ್ತಿಶಾಲಿ
ಶಾಮಕ
ಶಿಯೋಮಿ
ಶೀಘ್ರವಾಗಿ
ಸಂಪ್ರದಾಯ
ಸಜ್ಜಾಗಿದೆ
ಸಮೀಪ
ಸಲ್ಲಿಸಿ
ಸಹಕಾರವನ್ನು
ಸಾಧನೆಯನ್ನು
ಸಿದ್ಧತೆಗಳನ್ನು
ಸಿನಿಮಾಗಳನ್ನು
ಸಿಲುಕಿ
ಸುತ್ತಮುತ್ತ
ಸುತ್ತಮುತ್ತಲಿನ
ಸುಭಾಷ್
ಸುರಿದ
ಸೋತು
ಸ್ಟಾಕ್
ಸ್ಟಾರ್ಟ್
ಸ್ಥಳೀಯರ
ಸ್ಥಾನಗಳು
ಸ್ಥಿರತೆ
ಸ್ವಾತಂತ್ರ್ಯದ
ಸ್ವೀಕರಿಸಿದ
ಹರಿಸಬೇಕು
ಹೋಗಿ
ಹೊರತಾಗಿಯೂ
ಹೋರಾಡಲು
##N
##ಂಥದ್ದು
##ಎಮ್
##ಓ
##ಕೊಳ್ಳೋಣ
##ಕ್ಷಿಸಿ
##ಗಳಿರುವ
##ಜಿಸುತ್ತದೆ
##ಡಿಯುವ
##ಡಿಸಲಾಗಿದ್ದು
##ತ್ತಿಗೆ
##ತ್ತಿದ್ದನು
##ತ್ರಾ
##ದಾಟ
##ದೇವ
##ದ್ರಲ್ಲಿ
##ಪಟ್ಟಣ
##ಪಡುತ್ತದೆ
##ಬಿಟ್ಟರು
##ಬಿಟ್ಟೆ
##ಬೇಕೆಂದರೆ
##ಬ್ಬರೂ
##ಭಾವದಿಂದ
##ಮಕ್ಕಳು
##ಮಾಡಿದರು
##ಮಿನ್
##ಮೀರ್
##ಯಾರು
##ರಿನಲ್ಲಿ
##ಲಿಸ್
##ಲ್ಟ್
##ಲ್ಪ
##ವಂತ್
##ವಾದರು
##ವೈಸಿ
##ಸಿಕೊಂಡರು
##ಸ್ಥೆ
##ಹಿಸುವುದು
##ಹೋಗಿದೆ
##ಾಗಿದ್ದೇನೆ
##ಾಗುತ್ತವೆ
##ಾದಿ
##ಿಸುತ್ತಿವೆ
##ೂಂಡ
##ೂಸ್
##ೆಡೆಗೆ
##ೈದು
##ೊಂಡಿದೆ
##್ದಾಗಿದೆ
77
ಅಗತ್ಯಗಳನ್ನು
ಅನರ್ಹ
ಅಪಘಾತಗಳು
ಅಯೋಧ್ಯೆಯಲ್ಲಿ
ಆಚಾರ್ಯ
ಆಡಿಯೋ
ಆತಂಕಕ್ಕೆ
ಆದೇಶಿಸಿದೆ
ಆರೋಪದಲ್ಲಿ
ಇಳಿಕೆಯಾಗಿದೆ
ಇಸ್ರಾಯೇಲ್ಯರ
ಈಕೆ
ಉತ್ತರಿಸಲು
ಉದ್ದೇಶಕ್ಕಾಗಿ
ಎಂದರೇನು
ಎಚ್ಚರಿಕೆಯ
ಐಎಎಸ್
ಕದನ
ಕಾಪಾಡಲು
ಕೃತಕ
ಕೊಲೆಸ್ಟ್ರಾಲ್
ಕೋರ್
ಗಂಟೆಗಳಲ್ಲಿ
ಗೋಲ್ಡನ್
ಗ್ಲಾಸ್
ಘಟಕಗಳು
ಚಂದ್
ಜಾಗ್ರತೆ
ಜಿಪಂ
ಟ್ಯಾಂಕ್
ತಂತ್ರಜ್ಞಾನವನ್ನು
ತಪ್ಪನ್ನು
ತಪ್ಪುಗಳನ್ನು
ತರಬೇಕು
ತಾರತಮ್ಯ
ತಿಳಿಸಿದ
ತೆಗೆದುಕೊಂಡಿದ್ದಾರೆ
ತೆರೆದ
ತೊಳೆದುಕೊಳ್ಳಿ
ದರಗಳು
ದೇವ
ದೇಸಾಯಿ
ನಂಗೆ
ನದಿಗಳು
ನದಿಗೆ
ನಾಡು
ನಿಧಿಗೆ
ನಿಮ್ಮೊಂದಿಗೆ
ನಿಯಮಗಳ
ನಿರ್ದೇಶಕರ
ನಿವಾರಣೆ
ನಿಶ್ಚಿತಾರ್ಥ
ನೆರೆಯ
ಪತ್ರಕರ್ತೆ
ಪಿಯೂಷ್
ಪೂರ್ಣಗೊಂಡಿದೆ
ಪ್ರಕಟಿಸಿದ್ದಾರೆ
ಪ್ರಕ್ರಿಯೆಯ
ಪ್ರತಿಫಲ
ಪ್ರತಿಭೆ
ಪ್ರವಾಸಿಗರಿಗೆ
ಫ್ರೆಂಡ್
ಬಯಸುತ್ತೇವೆ
ಬರೆದರು
ಬಲು
ಬಳಕೆದಾರರ
ಬೀಜ
ಬೇಡಿಕೆಯನ್ನು
ಭದ್ರತೆಯನ್ನು
ಭರದಿಂದ
ಮದುವೆಯಾದ
ಮಾಡ್ತಾರೆ
ಮಾತೇ
ಮುಂದುವರಿಸಲು
ಯಾಕೋಬ
ರೇಪ್
ರೈಡರ್ಸ್
ರೋವರ್
ವಾಟ್ಸಪ್
ವಿಮರ್ಶೆ
ಶಿಕ್ಷೆಗೆ
ಶಿಬಿರದಲ್ಲಿ
ಶೆಟ್ಟರ್
ಸಂಖ್ಯೆಯು
ಸಂಗೀತದ
ಸಂಬಂಧಿಕರು
ಸಂಭವಿಸಬಹುದು
ಸಂಸ್ಥೆಯಲ್ಲಿ
ಸತ್ಯಕ್ಕೆ
ಸಮಯವು
ಸರ್ಕಾರಗಳ
ಸಲಹಾ
ಸಿಬಿಎಸ್
ಸುಧಾರಿತ
ಸುವರ್ಣ
ಸೂರ್ಯನ
ಸೈಡ್
ಸೌಲನು
ಸ್ಥಾನದಲ್ಲಿದ್ದಾರೆ
ಸ್ಥಾನದಿಂದ
ಸ್ನೇಹಿತ
ಸ್ಪೂನ್
ಹರಿಯುವ
ಹಸಿವು
ಹುಬ್ಬಳ್ಳಿ
ಹೇಳುತ್ತಿಲ್ಲ
ಹೋಗುತ್ತೇನೆ
##3ರಲ್ಲಿ
##ಂಡದ
##ಂಡೋ
##ಕಾರಕ
##ಕೊಂಡರು
##ಗನ್ನು
##ಗಲ್ಲು
##ಗ್ರಾಮ್
##ಚಿಸಲಾಯಿತು
##ಚ್ಛ
##ಜಿಬಿ
##ಟಕ
##ಟೆಕ್
##ಡಬೇಡ
##ಡಿಗಳು
##ಣ್ಣೆ
##ತನಕ್ಕೆ
##ತೊಡಗಿತು
##ತ್ತೀರೋ
##ಧಿಕಾರಿಗಳು
##ನ್ಸಿ
##ಪಿಂಗ್
##ಫಲ
##ಬರುತ್ತದೆ
##ಮದ್
##ಮನೆ
##ಮಾಡುವುದು
##ಮೋ
##ಯದೇ
##ಯಾಗಿರುತ್ತದೆ
##ಯಿರುವ
##ರಂಗ
##ರವಾಗಿದೆ
##ರಿಕ
##ಲರ
##ಲಿಸಿ
##ಲುಗಳನ್ನು
##ಲೇಟ್
##ಳದಲ್ಲಿ
##ಳೆದರು
##ವರೊಂದಿಗೆ
##ವೆಂಬುದು
##ಷ್ಣ
##ಸಿಕೊಳ್ಳುವ
##ಸಿಯಲ್ಲಿ
##ಹಾಕಿ
##ಾತ್
##ಾತ್ಮ
##ಿಗಿದ್ದ
##ಿನಿ
##ೀಕರಿಸಿದ
##ುನ್
##ೆಯು
##ೈ
##್ಕ
##್ಕೂ
ಅಂಗನವಾಡಿ
ಅಪರೂಪ
ಅಮೇರಿಕಾ
ಅರುಣಾಚಲ
ಅರ್ಥದಲ್ಲಿ
ಅಶ್ವಶಕ್ತಿ
ಅಸಲಿ
ಆಘಾತಕಾರಿ
ಆರ್ಟಿಕಲ್
ಆಶಯ
ಆಸಕ್ತಿಯನ್ನು
ಇಟ್ಟು
ಇದುವೇ
ಈಸ್ಟ್
ಉತ್ಪಾದಿಸಲಿದೆ
ಉದ್ವಿಗ್ನ
ಉಪಾಧ್ಯಕ್ಷೆ
ಎಂದೆಂದಿಗೂ
ಎದುರಿಸುತ್ತಿದೆ
ಎದುರಿಸುತ್ತಿದ್ದಾರೆ
ಎಲೆಕ್ಟ್ರಾನಿಕ್ಸ್
ಎಸ್ಟೇಟ್
ಏಷ್ಯಾದ
ಕಂಡುಹಿಡಿಯಲು
ಕಟ್ಟಲು
ಕಳವಳ
ಕಸ
ಕಾಣಬಹುದಾಗಿದೆ
ಕಾಣಲಿಲ್ಲ
ಕಾರ್ಯಾಧ್ಯಕ್ಷ
ಕಾಲಕ್ಕೆ
ಕೇಳಿದ್ದಾರೆ
ಕ್ಷಿಪಣಿ
ಗಳಿಸುವ
ಗಿರೀಶ್
ಗುಂಪನ್ನು
ಗುಲಾಬಿ
ಗೋ
ಜಪ್ತಿ
ಜು
ತಡವಾಗಿ
ತಯಾರಿಸಲಾಗುತ್ತದೆ
ತರಕಾರಿಗಳನ್ನು
ತಾ
ತಿಂದು
ತುಳಸಿ
ತೇಜಸ್ವಿ
ತೋರಿಸಿ
ದಿನವು
ದಿವಂಗತ
ದೀಕ್ಷಿತ್
ದೃಢ
ನಡುವೆಯೂ
ನಡೆಸಲಿದೆ
ನಾರಾಯಣ್
ನಿಮ್ಮಿಂದ
ನೀಡಬಾರದು
ಪಡೆದಿಲ್ಲ
ಪ್ರಖ್ಯಾತ
ಪ್ರತಿಕ್ರಿಯಿಸಿದ
ಪ್ರತಿಭಟನೆಗಳು
ಪ್ರಮುಖರು
ಬದಲಾಗುತ್ತದೆ
ಬರೆಯುವ
ಬಳಲುತ್ತಿದ್ದಾರೆ
ಬಳಸುತ್ತಾರೆ
ಬಹಿರಂಗವಾಗಿ
ಬಾಕ್ಸಿಂಗ್
ಬೆಳೆದ
ಬೇರೊಂದು
ಭರತ್
ಭಾಗವಹಿಸಿದರು
ಭೂತಾನ್
ಮತ್ತಾ
ಮಲೆಯಾಳಂ
ಮಾಂಸವನ್ನು
ಮಾಡುವೆನು
ಮಾಡ್ತಿದ್ದಾರೆ
ಮಾಲ್
ಮುಖಂಡರ
ಮೇಲಕ್ಕೆ
ರಕ್ಷಣೆಯ
ಲಿ
ವರದಿಗಳ
ವಾಯುಪಡೆ
ವಿಂಡೀಸ್
ವಿಜಯನ್
ವು
ವೇಗದಲ್ಲಿ
ವ್ಯಾಪ್ತಿ
ಶಾಂತಿಯನ್ನು
ಶಾಂತಿಯುತ
ಶಿಲ್ಪಾ
ಸಂತೋಷವಾಗಿದೆ
ಸದಸ್ಯೆ
ಸಮಸ್ಯೆಯಿಂದ
ಸಾಮಾನ್ಯವಾಗಿದೆ
ಸಾವನ್ನಪ್ಪಿದ್ದರು
ಸಾಸ್
ಸಿಎಸ್
ಸಿಡಿಸಿ
ಸಿಮ್
ಸೀಟ್
ಸೇಂಟ್
ಸೋಂಕಿನಿಂದ
ಹಗಲು
ಹೇಳಿದ್ದಾನೆ
ಹೇಳಿದ್ದೇನಂದರೆ
ಹೊಂದಿರುತ್ತಾರೆ
##f
##ಂದಿಗೂ
##ಂಸ
##ಗಲೀ
##ಗಾಂವ್
##ಗಾಗಿದ್ದಾರೆ
##ಗಿಸುವ
##ಚಿಸುತ್ತವೆ
##ಜನೆಯ
##ಟೆಲ್
##ಟೈಲ್
##ಡದಲ್ಲಿ
##ಡ್ಜ್
##ತಕ್ಕದ್ದು
##ನಾಗಿರುವ
##ನಾದನು
##ನಾರಾಯಣ
##ಬಾಯಿ
##ಭಾಗ
##ಮಣ
##ಮತಿ
##ಮನು
##ಮಾಡಬಹುದು
##ಮಾರಿಗೆ
##ಮಾರ್
##ಮಿತಿ
##ಮಿಸಲಾಯಿತು
##ಯಿಂದಲೂ
##ರಾಗಿರಬೇಕು
##ರ್ನ್
##ಲಕ
##ವಳಿ
##ವಾಲಾ
##ವಿರಬೇಕು
##ವೈ
##ಸಲೇ
##ಸಿಯ
##ಸುಗಳ
##ಸ್ಯ
##ಹಾಸ
##ಿದ್ದರಿಂದ
##ೀಕರಣದ
##ೀಕ್
##ುರಿ
##ೇರಿದೆ
##ೋತ್ಸವದ
##ೕಶ
07
140
89
ಅಂತರದ
ಅಗತ್ಯವನ್ನು
ಅಗತ್ಯವಿದ್ದರೆ
ಅತಿಥಿ
ಅದರೊಂದಿಗೆ
ಅನಗತ್ಯ
ಅಭೂತಪೂರ್ವ
ಆತಿಥೇಯ
ಆಯಿಲ್
ಆಸ್ಪತ್ರೆಗಳು
ಈಗಿರುವ
ಉಪಯೋಗ
ಎಂಜಿ
ಎಂಪಿ
ಎಬಿ
ಎಷ್ಟರ
ಏಳನೇ
ಐಎ
ಐಐಟಿ
ಓದಿರಿ
ಕಣ್ಣೀರು
ಕಾಮತ್
ಕಾಮನ್
ಕಾರಿಡಾರ್
ಕಾರ್ತಿ
ಕಾರ್ಮಿಕರಿಗೆ
ಕೈಯನ್ನು
ಕ್ಯಾಪಿಟಲ್ಸ್
ಕ್ರಿಸ್ಮಸ್
ಖ್ಯಾತಿಯ
ಗಣನೀಯವಾಗಿ
ಗಾಯಗಳಾಗಿದ್ದು
ಗಿಲ್
ಗುಪ್ತ
ಗೊತ್ತಾಗಿಲ್ಲ
ಗ್ಯಾಸ್
ಗ್ರಾಮೀಣಾಭಿವೃದ್ಧಿ
ಚಿತ್ರಕ್ಕಾಗಿ
ಚಿತ್ರರಂಗಕ್ಕೆ
ಜಿಎಸ್ಟಿ
ಟಿಮ್
ಡಿಸೇಲ್
ತೆಗೆದುಕೊಂಡರು
ತೆಗೆದುಹಾಕಿ
ದಸರಾ
ದಾಖಲಾದ
ದಾಖಲಿಸಿಕೊಳ್ಳಲಾಗಿದೆ
ದುರ್ಮರಣ
ದೂರಿದ್ದಾರೆ
ದೊರೆತಿಲ್ಲ
ನಂತರವೂ
ನಡೆಯಲಿವೆ
ನಿಶ್ಚಯ
ನಿಶ್ಚಯವಾಗಿ
ನೀಡುತ್ತಿರುವ
ನುಣ್ಣಗೆ
ನೋಕಿಯಾ
ಪಡೆದುಕೊಳ್ಳಲು
ಪರಿಗಣಿಸಿರಿ
ಪಾಕಿಸ್ತಾನವು
ಪಾಕಿಸ್ತಾನಿ
ಪಾಲ್ಗೊಂಡರು
ಪೋಷಕ
ಪ್ರತಿರೋಧ
ಪ್ರಸಾದ
ಪ್ರಾರಂಭ
ಪ್ರೀತಿಗೆ
ಪ್ರೇಕ್ಷಕರ
ಫಾಲೋ
ಫಿಂಚ್
ಬದುಕನ್ನು
ಬಳಕೆಯನ್ನು
ಬಾಂಗ್ಲಾದೇಶದ
ಬೇಕು
ಬೈ
ಬ್ಯಾಂಕಿನ
ಬ್ಲೂಟೂತ್
ಮಂಡನೆ
ಮತ್ತೊಂದೆಡೆ
ಮಹಿಳೆಯರಲ್ಲಿ
ಮಾಡ
ಮಾಡಬೇಕಾದ
ಮಾಡಿಕೊಂಡರು
ಮಾಡುತ್ತಿವೆ
ಮಾಧ್ಯಮದಲ್ಲಿ
ಮಾರ್ಗಗಳನ್ನು
ಮಿನಿ
ಮುಂದುವರಿದ
ಮ್ಯಾಕ್ಸ್
ಮ್ಯೂಸಿಯಂ
ರಾಜಸ್ಥಾನದಲ್ಲಿ
ರಾಜಸ್ಥಾನ್
ರಿಮೇಕ್
ರೂಪಾಯಿಗಳ
ಲಾಭಗಳು
ವಕೀಲರ
ವಿಷಯವು
ವಿಷ್ಣು
ವೆಚ್ಚಗಳು
ಸಂದರ್ಶನದಲ್ಲಿ
ಸಂಬಂಧಗಳ
ಸಂಬಂಧಗಳು
ಸಂಭ್ರಮದ
ಸಬ್ಸಿಡಿ
ಸಭೆಯು
ಸಲಾಡ್
ಸಹಜವಾಗಿಯೇ
ಸಿಕ್ಕಿದ
ಸಿಟ್ಟು
ಸಿದ್ಧಾಂತ
ಸೆಲ್
ಸೇರಲು
ಸೋಂಕಿಗೆ
ಸ್ತ್ರೀಯರು
ಸ್ಪೆಷಲ್
ಸ್ವೀಕರಿಸಿದರು
ಹಾದು
ಹಾರಿ
ಹಿಡಿಯಲು
ಹಿತಾಸಕ್ತಿ
ಹೃತಿಕ್
ಹೋಲಿಕೆ
##ಂಟ
##ಕಸ್
##ಕುವ
##ಕೊಳ್ಳುತ್ತಿದ್ದರು
##ಕ್ಸಿ
##ಗೊಂಡಿದೆ
##ಚಲ
##ಡಿದೆ
##ಡಿಸಿದ
##ಡುತ್ತಿಲ್ಲ
##ದಷ್ಟು
##ನನ್ನೂ
##ನವರು
##ನ್ವಯ
##ಬಿಟ್ಟ
##ಬ್ಬಿ
##ಮನಿ
##ಮರಿ
##ಯಿಸಿದ
##ರಾಗಲು
##ರಾಗುವ
##ಳಿದರು
##ಳೆಯಿರಿ
##ವಹಿಸಬೇಕು
##ವಾನಿ
##ವೇನು
##ಷಕರು
##ಷನಲ್
##ಷಿಸುತ್ತದೆ
##ಸಂ
##ಸದಿದ್ದರೆ
##ಸಭಾ
##ಸಲಾಗಿದ್ದ
##ಸಾಗಿ
##ಹಾಕಿದ್ದಾರೆ
##ಹಿಕ
##ಾಕ
##ಾಗಿರಲಿಲ್ಲ
##ಾರೂ
##ಿಕಾ
##ಿಕೆಗಳು
##ುತ್ತ
##ುತ್ತಿದ್ದರು
##ೂಂಡಿಲ್ಲ
##ೇಬಲ್
##ೌ
##ೌಸ್
##್ಯಾರಿ
##ೕಮ್
##ೕಲ
to
ಅತಿಥಿಯಾಗಿ
ಅದಕ್ಕಾಗಿಯೇ
ಅಪ್ರಾಪ್ತ
ಅರಮನೆ
ಆಂಧ್ರಪ್ರದೇಶದ
ಆಕ್ಟ್
ಆಗಬಾರದು
ಆತ್ಮಕ್ಕೆ
ಆಯುಷ್
ಆಹಾರಗಳು
ಇಂತಿದೆ
ಇತರರೊಂದಿಗೆ
ಉಪಕರಣಗಳು
ಊರು
ಎಚ್ಚರಿಸಿದರು
ಎದುರಾಳಿ
ಎದೆ
ಏಮ್ಸ್
ಐರ್ಲೆಂಡ್
ಒಪ್ಪಂದವು
ಓದುವುದು
ಕಂಡಿತ್ತು
ಕಚೇರಿಗಳು
ಕಚೇರಿಯ
ಕಡತ
ಕಳುಹಿಸಲು
ಕಾಣಿಸುತ್ತದೆ
ಕಾರಿಗೆ
ಕೂಟಗಳಿಗೆ
ಕೇಳಿದನು
ಕೇಸರಿ
ಕ್ರಿಶ್ಚಿಯನ್
ಕ್ಲಿಕ್ಕಿಸಿ
ಗಂಡನ
ಗಮನಿಸಬೇಕು
ಗಳಿಸಿತು
ಗುತ್ತಿಗೆ
ಚಕ್ರವರ್ತಿ
ಚದರ
ಚಾಲಕನನ್ನು
ಜವಾಹರಲಾಲ್
ಜೀವನ
ಜೈನ
ಟೀಕಿಸಿದರು
ಟ್ಯಾಕ್ಸಿ
ಟ್ಯಾಬ್
ತರಹದ
ತಿಳಿದಿತ್ತು
ತಿಳಿಯುತ್ತಿಲ್ಲ
ದರ್ಶನ್
ದುರಂತದಲ್ಲಿ
ದೂರದಲ್ಲಿ
ದೇವಾಲಯವನ್ನು
ದೇಶಗಳಿಗೆ
ನಾಗರಿಕರಿಗೆ
ನಾಡಿನ
ನಾವೇಕೆ
ನಿಂದನೆ
ನಿರ್ದೇಶಕಿ
ನೇಮಿಸಲಾಗಿದೆ
ಪಕ್ಷವಾಗಿ
ಪಡಿಸಿದ್ದಾರೆ
ಪಡೆಯಲಿದೆ
ಪಬ್ಲಿಕ್
ಪಾತ್ರಕ್ಕೆ
ಪಿಜಿ
ಪೋಲೀಸ್
ಪ್ರಯೋಜನಗಳನ್ನು
ಪ್ರವಾಸದ
ಪ್ರಾಣಾಪಾಯದಿಂದ
ಪ್ರಾರಂಭಿಸಿದರು
ಬಂಧಿಸಿದ್ದು
ಬಂಧು
ಬಟ್ಟೆಗಳನ್ನು
ಬಣ್ಣಗಳನ್ನು
ಬಿನ್
ಬೌದ್ಧ
ಬ್ರಾಡ್
ಬ್ರೆಡ್
ಮನೆಗಳಲ್ಲಿ
ಮನೆಯೊಳಗೆ
ಮಾಡಿದ್ರು
ಮಾತನಾಡುವುದಿಲ್ಲ
ಮುಂಚಿತವಾಗಿ
ಮುಂಚೆಯೇ
ಮ್ಯಾನ್ಮಾರ್
ರೋಗಗಳು
ರೋಮಾಪುರ
ಲಭ್ಯವಿಲ್ಲ
ಲಾಲೂ
ವಶ
ವಾಕ್ಯದ
ವಿಂಗಡಿಸಲಾಗಿದೆ
ವಿಶ್ವವಿದ್ಯಾಲಯದಲ್ಲಿ
ಶೈಲಿ
ಸಂಚಾರವನ್ನು
ಸಾಧಿಸಿತ್ತು
ಸಾಬೀತು
ಸಾಹಿತಿ
ಸುಂದರ್
ಸೂಚ್ಯಂಕ
ಸೋನಂ
ಸ್ಟಿಟ್ಯೂಟ್
ಸ್ಟೋಕ್ಸ್
ಸ್ಥಳಗಳಿಗೆ
ಸ್ಪಷ್ಟವಾಗಿದೆ
ಸ್ವಿಚ್
ಹಗರಣದ
ಹಸಿ
ಹಾಡಿನ
ಹಿಟ್ಟನ್ನು
ಹುಳಿ
ಹೃದಯವು
ಹೆತ್ತವರ
ಹೊಂದಿರುತ್ತದೆ
ಹೇಳಿದರೆ
ಹೇಳಿದ್ದೆ
ಹೇಳಿದ್ದೇನೆ
ಹೊಂದಿದ್ದರೆ
##ಃ
##ಕಬೇಕು
##ಕೊಂಡಿದ್ದಾನೆ
##ಕ್ರಿಯೆ
##ಗತಿ
##ಗೊಳಿಸಲಾಯಿತು
##ಚು
##ಟಿದ್ದಾರೆ
##ಟ್ಟಲು
##ಟ್ಟಾದ
##ಟ್ಟಿಲ್ಲ
##ಡಕ್ಕೆ
##ಡಲಾಗುವುದು
##ಡೆಯಲು
##ತ್ತಲು
##ತ್ತೋ
##ದಲ್ಲಿಯೂ
##ಪಡಿಸಿದನು
##ಪಿಸಲಾಗಿದೆ
##ಫೆ
##ಫೆಲ್
##ಬರಲಿದೆ
##ಬ್ರಿ
##ಭಾಗದ
##ಮೆಯ
##ಯನ್ಸ್
##ಯೊಳಗೆ
##ರದು
##ರವ
##ರಾಗುವಂತೆ
##ರಿಗಾಗಿ
##ರೂರು
##ರೇನ್
##ಲಿಕ್ಕಾಗಿ
##ಲೀಟ್
##ಳಿಸು
##ವುಗಳ
##ಷ್ಕಾರ
##ಷ್ಯ
##ಸನು
##ಸಿಪಲ್
##ಸೈಟ್
##ಾಗಿದ್ದನು
##ಾಚಾರ
##ಾನು
##ೀತ್
##ೀಮಾ
##ೆಗೂ
##ೊ
##ೈಸಿದರು
##ೊಂದಿ
##ೋಡಾ
##ೋಹದ
##ೌರಿ
##್ತೇ
100ಕ್ಕೂ
2017ರ
450
84
ಅಂಗೀಕಾರ
ಅನಿರೀಕ್ಷಿತ
ಅಲ್ವಾ
ಅಸೋಸಿಯೇಷನ್
ಆಕಸ್ಮಿಕ
ಆರೋಪಗಳು
ಆವೃತ್ತಿಯನ್ನು
ಆಶಾ
ಇಂಡಸ್ಟ್ರೀಸ್
ಉಡುಪು
ಉತ್ಪಾದನೆಯನ್ನು
ಉಪವಾಸ
ಉರಿಯೂತ
ಉಳಿದಿರುವ
ಎಣ್ಣೆಯನ್ನು
ಎಲ್ಲರನ್ನು
ಒತ್ತಡದ
ಓದುವ
ಕಣಕ್ಕೆ
ಕಾರ್ಪೊರೇಷನ್
ಕಾರ್ಯರೂಪಕ್ಕೆ
ಕಾಲದಿಂದ
ಕಿತ್ತು
ಕುಂದಾಪುರ
ಕುಡಿದು
ಕುದಿಸಿ
ಕುಲಕರ್ಣಿ
ಕುಲಪತಿ
ಕೂದಲನ್ನು
ಕೂಲ್ಡ್
ಕೆಲಸದಿಂದ
ಕೊರತೆ
ಕೊಡಲಿಲ್ಲ
ಕೋಳಿ
ಕ್ರಾಸ್
ಕ್ರೀಡಾಂಗಣದಲ್ಲಿ
ಕ್ಲಾಸಿಕ್
ಕ್ಷೇತ್ರಗಳನ್ನು
ಗಂಭೀರವಾದ
ಗುರು
ಗೊತ್ತಾಗುತ್ತದೆ
ಘೋಷಿಸಿದ
ಘೋಷಿಸಿದರು
ಚಾಟ್
ಚೆನ್ನಾಗಿಯೇ
ಚೇತನ್
ಟಾಲಿವುಡ್
ಟೀಕಿಸಿದ್ದಾರೆ
ಟೆಲಿಕಾಂ
ತಡೆಗಟ್ಟುವಿಕೆ
ತಾತ್ಕಾಲಿಕವಾಗಿ
ತಿರಸ್ಕರಿಸಿದೆ
ತಿರುಗುಬಲದಲ್ಲಿ
ತೆಗೆದುಕೊಂಡಿದೆ
ದಾನ
ದಿವಸಗಳಲ್ಲಿ
ದುರ್ಬಲ
ದೃಶ್ಯಗಳು
ದೇವಾಲಯದಲ್ಲಿ
ಧೈರ್ಯದಿಂದ
ನಟನೆಯ
ನಾವಿಬ್ಬರೂ
ನಿಯಮವನ್ನು
ನಿರ್ಮಿಸಿದ್ದಾರೆ
ನಿರ್ವಹಿಸಿದ್ದಾರೆ
ನಿಲ್ಲಿಸಲು
ನೀಡಲಿ
ನೆನಪಿಡಿ
ನೆರವಿನಿಂದ
ಪತಿಯ
ಪದ್ಮಾವತಿ
ಪರಿಸ್ಥಿತಿಯು
ಪಾಲನ್ನು
ಪಿಕ್ಸೆಲ್
ಪುಟ್
ಪ್ರದರ್ಶನವನ್ನು
ಪ್ರಯಾಣಿಕ
ಪ್ರವಾಸಿಗರ
ಪ್ರಾಯಶಃ
ಪ್ರೊಫೆಸರ್
ಫಡ್ನವೀಸ್
ಫಲಿತಾಂಶದ
ಫೋಟೊ
ಬದಲಾವಣೆಗೆ
ಬದ್ಧವಾಗಿದೆ
ಬರೆದಿರುವ
ಬಲದ
ಬಳಕೆದಾರ
ಬಾದಾಮಿ
ಬೇಡಿಕೆಗಳನ್ನು
ಬೇರೆಯೇ
ಬ್ರಾಂಡ್
ಭಾಸ್ಕರ್
ಭಿನ್ನಾಭಿಪ್ರಾಯ
ಮಧ್ಯಾಹ್ನದ
ಮನೋಹರ
ಮುಖೇಶ್
ಮೂರೂ
ಮೈಕ್ರೋ
ಮೋಶೆ
ಯುದ್ಧಕ್ಕೆ
ರಾಕ್
ರಾಜ್ಯಪಾಲರ
ರಾಮಚಂದ್ರ
ಲಾಲು
ಲೇಖಕ
ಲ್ಯಾಪ್
ವರು
ವಾದ್ರಾ
ವಿಜಯಪುರ
ವಿಶೇಷವಾಗಿ
ವೇ
ಶಿವನ
ಸಬಲೀಕರಣ
ಸಮಾಧಿ
ಸಮುವೇಲ
ಸಲ್ಲಿಸಿರುವ
ಸಹಕಾರಕ್ಕಾಗಿ
ಸಹೋದರರ
ಸಾಂವಿಧಾನಿಕ
ಸಿಗುವುದು
ಸಿದ್ಧಾರ್ಥ್
ಸಿಸ್ಟಂ
ಸೋಂಕಿತ
ಸೋನಾಕ್ಷಿ
ಸ್ಥಗಿತಗೊಳಿಸಲಾಗಿದೆ
ಸ್ಫೋಟದ
ಹಣ್ಣುಗಳನ್ನು
ಹರಾಜು
ಹೀಗೇ
ಹೋಗುತ್ತಾರೆ
ಹೋರಾಟದ
##u
##ಂಗದಲ್ಲಿ
##ಂಡನ್
##ಎಂದು
##ಕುಗಳು
##ಕೊಂಡೇ
##ಕೊಳ್ಳುತ್ತಿರುವ
##ಕೊಳ್ಳುವಿರಿ
##ಕೋಶ
##ಕ್ಷಕ
##ಗಳೆಂದು
##ಗಾದರೂ
##ಗಿಂದ
##ಗಿವೆ
##ಜಗಳು
##ಜಲ್
##ಟೀನ್
##ಡಾನ್
##ಡೀ
##ತಕ್ಕೆ
##ದಂತಹ
##ನಿಧಿ
##ನ್ನಾದರೂ
##ಪನ
##ಪ್ಪಣಿ
##ಬಲ್ಯ
##ಬಲ್ಲೆ
##ಬ್ಬರ
##ಬ್ಬರ್
##ಮಂತ
##ಮಲ
##ಮಾನ್ಯ
##ಯತ್ತ
##ಯುವುದಿಲ್ಲ
##ರದಲ್ಲಿ
##ರರ
##ಲಾರರು
##ಲುವ
##ವನೇ
##ವಲ್ಲವೇ
##ಸಬೇಕೆ
##ಸಭೆ
##ಸಾನ್
##ಸಿದಾಗ
##ಹಿಸುತ್ತವೆ
##ಾಂಕ
##ಾಗುತ್ತಿಲ್ಲ
##ಾಣಿ
##ಾಪ
##ಿದ್ದನು
##ಿಸಬೇಕಾಗಿದೆ
##ುಷ್
##ೂಳ್ಳುತ್ತದೆ
##ೆಕ್
##ೇಂದರ್
##ೊಂದರ
##ೋತ್ತರ
##್ಯಂತ
##್ಯದ
##್ಯಾಡ್
110
ಅಕ್ಷರಶಃ
ಅಭಿನಯಿಸುತ್ತಿದ್ದಾರೆ
ಅವಧಿಯನ್ನು
ಅಷ್ಟೇನೂ
ಆರೋಗ್ಯಕರ
ಆವೃತ್ತಿಯು
ಇಂದೋರ್
ಇಲಾಖೆಯು
ಇವತ್ತು
ಉತ್ತೇಜಿಸಲು
ಊಟಕ್ಕೆ
ಎಲೆಗಳು
ಐಒಎಸ್
ಒಳಗೊಂಡಿರುವ
ಕಬ್ಬಿಣ
ಕಷ್ಟಪಟ್ಟು
ಕಾಣಿಸಿಕೊಂಡ
ಕಾಮೆಂಟ್
ಕಾಯಿ
ಕಾರಿನಲ್ಲಿದ್ದ
ಕಾರ್ಯಕರ್ತರನ್ನು
ಕಿಸಾನ್
ಕುದುರೆ
ಕುಲಭೂಷಣ್
ಕೆಲವನ್ನು
ಕೆಲಸವೂ
ಖ್ಯಾತಿ
ಗದಗ
ಗಳಿಸಿತ್ತು
ಚರ್ಚೆಯ
ಚಿಂತಾಜನಕವಾಗಿದೆ
ಚೀಟಿ
ಜಗತ್ತಿಗೆ
ಜಾಹ್ನವಿ
ಡಿವೈಸ್
ಡಿಸೈನ್
ತಪ್ಪದೇ
ತಯಾರಿಕಾ
ತಾಣವಾಗಿದೆ
ತಾಳ್ಮೆಯಿಂದ
ತೀರ್ಥ
ತೀರ್ಮಾನವನ್ನು
ತೆಂಗಿನ
ತೋರುತ್ತದೆ
ದಯೆ
ದಿಗ್ವಿಜಯ್
ದುರ್ಬಳಕೆ
ದೂರುಗಳು
ನಡೆಸಿತು
ನಡೆಸಿದ್ದ
ನನಗಿದೆ
ನವದೆಹಲಿಯಲ್ಲಿ
ನಾಗಾಲ್ಯಾಂಡ್
ನಿರಾಕರಿಸಿದರು
ನಿರ್ಧಾರಗಳನ್ನು
ನಿಲ್ದಾಣಕ್ಕೆ
ನೀವೇನು
ನೆರವನ್ನು
ನೋಡಲು
ನೋಡುತ್ತಾ
ಪಡೆದಿತ್ತು
ಪತ್ನಿಯನ್ನು
ಪದವು
ಪರಿ
ಪರಿಷ್ಕೃತ
ಪರ್ವತ
ಪೋಷಕರಿಗೆ
ಪ್ರ
ಬದಲಿ
ಬದ್ಧತೆ
ಬರೆದಿದ್ದರು
ಬರೆದುದು
ಬಿಡಲು
ಬೆಳೆಯುವ
ಬೇಕೇ
ಭದ್ರತೆಗೆ
ಭಾಗಗಳಿಂದ
ಭಾಷೆಗಳ
ಮಸೂದ್
ಮಾಡಿಕೊಳ್ಳಬಹುದು
ಮಾಡುತ್ತಿದ್ದು
ಮಾಡೆಲ್
ಮಾರಣಾಂತಿಕ
ಮುಂದಾದ
ಮುಖ್ಯವಲ್ಲ
ಮುಗಿಸಿ
ಮೋದಿಯ
ಮೋದಿಯವರಿಗೆ
ಮ್ಯಾಜಿಸ್ಟ್ರೇಟ್
ಯುರೋಪಿಯನ್
ಯೂ
ಯೂನಿವರ್ಸಿಟಿ
ಯೆಹೂದಿ
ಯೆಹೂದ್ಯರು
ರಕ್ತದಾನ
ರಾಜಕಾರಣದಲ್ಲಿ
ರಾಜಕಾರಣಿಗಳು
ರಿಷಭ್
ರೋಮ್
ಲಕ್ಷ್ಮೀ
ಲೇಖಕರು
ಲೋಕಕ್ಕೆ
ವಾಕರಿಕೆ
ವಿಮಾನದ
ವಿರುದ್ಧವಾಗಿದೆ
ವಿವಾದಿತ
ವಿಷ
ವಿಷಯಗಳಿಗೆ
ವೀಕ್ಷಿಸಲು
ವ್ಯಕ್ತಿಗಳಿಗೆ
ಶಂಕಿಸಿದ್ದಾರೆ
ಸಂಗತಿಗಳನ್ನು
ಸಮರ್ಥ
ಸಮುದಾಯಕ್ಕೆ
ಸಯೀದ್
ಸಾಕಾಗುವುದಿಲ್ಲ
ಸಾಕ್ಷ್ಯ
ಸಿಐಡಿ
ಸುತ್ತಿನಲ್ಲಿ
ಸುರಕ್ಷತೆಯ
ಸ್ಟ್ಯಾಂಡರ್ಡ್
ಸ್ಥಾಪನೆಗೆ
ಹಂಚಿಕೊಂಡರು
ಹಡಗು
ಹರ್ಭಜನ್
ಹಳೆ
ಹಾಸನ
ಹಿಂದಿರುಗಿ
ಹೀಬ್ರು
ಹುತಾತ್ಮರಾಗಿದ್ದಾರೆ
ಹೆಚ್ಚನ್ನು
ಹೊಂದುವ
ಹೊರತಲ್ಲ
##b
##ve
##ಂಜಲಿ
##ಂಜಿ
##ಂಡಿನ
##ಂಬರ್
##ಕಾರವನ್ನು
##ಕೊಳ್ಳಬೇಕೆಂದು
##ಕೊಳ್ಳುವಲ್ಲಿ
##ಕೋಟೆ
##ಖ್ಯಾ
##ಗಂತೂ
##ಗಢ
##ಗಷ್ಟೆ
##ಗೊಳಿಸಲಿದೆ
##ಗೊಳಿಸಿದ್ದು
##ಚಿಸುವುದಿಲ್ಲ
##ಚೂರು
##ಟಿದೆ
##ಡಂ
##ಡಲಿದ್ದಾರೆ
##ಡ್ಕ
##ತ್ತನೆ
##ತ್ತಿನಲ್ಲಿ
##ದಾಗಿದ್ದು
##ದಾರಿ
##ದೇನು
##ಧನೆಯ
##ಧಾರ
##ಧಿಸುವ
##ನನ್
##ನಮ್
##ನಾರ್
##ನಿಕಲ್
##ನೆಗಳ
##ಪಂ
##ಪಾಯ
##ಬಿದ್ದಿದೆ
##ಭಾ
##ಭೂಷಣ
##ಮಗೇ
##ಮಾರಿ
##ಯಗಳ
##ಯಾನ
##ಯೊಬ್ಬರು
##ರಾಟ
##ರಾಟೆ
##ರಿಸಲಾಯಿತು
##ರೆಯದ
##ಲಾಗಿಲ್ಲ
##ಲಿಸುತ್ತದೆ
##ಲ್ಲಿದ್ದು
##ವರಾದ
##ವಾಗದ
##ವಾಗುತ್ತಿರುವ
##ವಿಕ್
##ವಿಡಿ
##ವಿದ್ದರೂ
##ವಿರಬಹುದು
##ಶಾಸ್ತ್ರದಲ್ಲಿ
##ಸಲ್ಲ
##ಸುತ್ತೇನೆ
##ಸೂರು
##ಹೋಗುವ
##ಾಂಶಗಳು
##ಾಗದ
##ಾಧಿಕಾರಿಗಳು
##ಾರದಲ್ಲಿ
##ಾಹ
##ಿದ್ದೀರಿ
##ಿಸುವುದಾಗಿ
##ೀಯನ
##ೋರಿ
##ೋಲಿಸಿ
##್ದೀರಾ
##್ಷಿತ
##್ಷೆ
2013
61
ಅಂತೂ
ಅಡಿಗೆ
ಅತಿಹೆಚ್ಚು
ಅಧ್ಯಾಯ
ಅಭಿವೃದ್ಧಿಗಾಗಿ
ಆಗಮಿಸಿದ್ದರು
ಆಡಳಿತಾರೂಢ
ಆತಂಕದ
ಆರೋಪಿಸಿದೆ
ಆಳು
ಆಳ್ವಿಕೆಯ
ಆಹಾರದಲ್ಲಿ
ಇದ್ದಾಗ
ಇನ್ಸ್ಟಿಟ್ಯೂಟ್
ಇರುವದು
ಇಲ್ಲಿರುವ
ಉಂಟಾಗುತ್ತಿದೆ
ಉಡುಗೊರೆ
ಉಳಿದವರು
ಎರಡನೆ
ಏತನ್ಮಧ್ಯೆ
ಏರ್ಪಡಿಸಲಾಗಿತ್ತು
ಕಣ್ಣುಗಳನ್ನು
ಕಬೀರ್
ಕಳುಹಿಸಿದನು
ಕಾಮಗಾರಿಗಳು
ಕಾಮರ್ಸ್
ಕಾಯುತ್ತಿದ್ದಾರೆ
ಕಿಚ್ಚ
ಕಿಮ್
ಕಿವಿ
ಕೊಬ್ಬು
ಖಿನ್ನತೆ
ಗರಂ
ಗಳಿಗೂ
ಗಾಯವಾಗಿದೆ
ಗಾಳಿಯ
ಗುರುತಿಸಲು
ಘಟಕದಲ್ಲಿ
ಘನ
ಚಿಕಿತ್ಸಾ
ಚಿಕಿತ್ಸೆಯನ್ನು
ಚಿನ್ನಾಭರಣ
ಜಿಡಿಪಿ
ಜೊತೆಗೂಡಿ
ಜೋಡಣೆ
ಜ್ಞಾನದ
ಟೌನ್
ತಗ್ಗು
ತತ್ವ
ತವರು
ತಿಳುವಳಿಕೆ
ತುರ್ತಾಗಿ
ತೋರಿಸಿದನು
ದರ್ಜೆ
ದಿಲೀಪ್
ದೀರ್ಘಕಾಲದ
ದ್ರವ
ನಲ್ಲಿದೆ
ನಿಜವೇ
ನಿತ್ಯವೂ
ನೀರು
ನೆಲದಲ್ಲಿ
ಪಕ್ಕದ
ಪದವಿಯನ್ನು
ಪಿಣರಾಯಿ
ಪುಸ್ತಕವು
ಪೃಥ್ವಿ
ಪೊಲೀಸರಿಂದ
ಪೌಲ
ಪ್ರಮಾಣಪತ್ರ
ಪ್ರವೇಶಕ್ಕೆ
ಪ್ರವೇಶಿಸಿದ
ಪ್ರೇಮ್
ಪ್ಲಾಟ್
ಫೈಲ್
ಬಂಧಿಸಿಲ್ಲ
ಬಯಕೆ
ಬರೆದದ್ದು
ಬಸವರಾಜ
ಬುದ್ಧಿವಂತ
ಬೆಂಬಲಿಗರು
ಭಯದಿಂದ
ಭವನದಲ್ಲಿ
ಮರೆಯಬೇಡಿ
ಮಾಡಿದೆವು
ಮಾಧ್ಯಮಗಳಿಗೆ
ಮಾರುಕಟ್ಟೆಯ
ಮಾರ್ಗವಾಗಿದೆ
ಮಾಲೀಕ
ಮುರಳಿ
ಮುಸ್ಲಿಮ್
ಮೇವು
ಮೊಸರು
ಯಾಕಂದ್ರೆ
ಯಾವುದರ
ರಕ್ಷಿತ್
ರಸಗೊಬ್ಬರ
ರಾಜ್ಯಪಾಲರು
ರೂಂ
ರೇಟಿಂಗ್
ರೈತರನ್ನು
ಲೀ
ವಿವಾದದ
ವಿಶ್ಲೇಷಣೆ
ವೆಂಕಯ್ಯ
ವೈಯಕ್ತಿಕ
ವೇಗವನ್ನು
ಶರೀಫ್
ಶ್ರೀಧರ್
ಸಂತ್ರಸ್ತರಿಗೆ
ಸಂಬಂಧಗಳನ್ನು
ಸಂಸ್ಕೃತಿಯನ್ನು
ಸಂಸ್ಥೆಗಳಲ್ಲಿ
ಸದನದಲ್ಲಿ
ಸವಾಲನ್ನು
ಸಹಸ್ರಾರು
ಸಾವನ್ನಪ್ಪಿದ್ದು
ಸಾವುಗಳು
ಸಿಲ್ವರ್
ಸುಂದರವಾಗಿ
ಸೃಷ್ಟಿಸಲು
ಸೆರೆಯಾಗಿದೆ
ಸೇರಿದರು
ಸ್ಥಗಿತ
ಸ್ಪಷ್ಟತೆ
ಸ್ವಯಂಚಾಲಿತ
ಸ್ವರೂಪ
ಹೇಳಲಿಲ್ಲ
ಹೊಡೆತ
ಹೊರತಾಗಿಲ್ಲ
##4ರಲ್ಲಿ
##v
##ಂಗಣ
##ಂಡಲ್
##ಂಪು
##ಕಾಂಡ
##ಕಿಯ
##ಕೊಳ್ಳಲಾಗಿತ್ತು
##ಗಿರುತ್ತದೆ
##ಗೆಯ
##ಗೆರೆ
##ಗೊಂಡಿದ್ದರು
##ಗ್ಗ
##ಚಾರಿ
##ಜನಾ
##ಜನ್ನು
##ಜಿಪಿ
##ಜೀವ
##ಟ್ಟುಗಳು
##ಡಲೇ
##ಡಿಸಿದೆ
##ಡುತ್ತಿತ್ತು
##ತಿಯಲ್ಲಿ
##ದ್ದಕ್ಕೂ
##ನಾಥನ್
##ಪಡಿಸಿದ್ದರು
##ಪಡುತ್ತವೆ
##ಭಾಷಾ
##ಭಿಮಾನ
##ಯೇನು
##ರಳು
##ರಾಗಿರುತ್ತಾರೆ
##ರುವರು
##ರ್ತ
##ರ್ವ
##ಲಾರ್
##ವಾಗಿರಿ
##ವೇಂದ್ರ
##ಶನ
##ಸಿನ್
##ಸೇಜ್
##ಸೇನಾ
##ಸೋ
##ಸ್ತಿ
##ಹಣ್ಣು
##ಹಲ್
##ಹಾಕಿದೆ
##ಹಿಡಿದು
##ಾಂತರಿಸಲಾಗಿದೆ
##ಾಗಿದ್ದರೆ
##ಾಡಿದ
##ಾದ್
##ಾವ್
##ಿಗಿದೆ
##ಿವು
##ೀಡಾದ
##ೀಡು
##ುಳಿ
##ೂಲಿ
##ೆಗಳ
##ೆರಿ
##ೊಳ್ಳುವ
##ೋನ
##್ತ್
2016ರ
66
of
ಅಂಡರ್
ಅಂಶವಾಗಿದೆ
ಅನಿಸಿಕೆ
ಅನುಭವಿ
ಅನೈತಿಕ
ಅಪಹರಣ
ಅಬಕಾರಿ
ಅಭಿಯಾನದ
ಅಮೆರಿಕಕ್ಕೆ
ಅರ್ಥವಲ್ಲ
ಅವರದು
ಅವಳಿ
ಅಹಮದ್
ಅಹ್ಮದಾಬಾದ್
ಆಕ್ರಮಣ
ಆಯುಕ್ತರು
ಆಯೋಜಿಸಿದ್ದ
ಆಲಿ
ಆ್ಯಕ್ಷನ್
ಇದಕ್ಕೆಲ್ಲ
ಇದ್ದಂತೆ
ಇಯಾನ್
ಇರಾಕ್
ಇರುತ್ತೆ
ಉತ್ತರಾಖಂಡ್
ಉದ್ದೇಶದ
ಉಪಯೋಗಿಸಿ
ಎನ್ನಲಾಗುತ್ತಿದೆ
ಏನಾಯ್ತು
ಐಸ್
ಒತ್ತಾಯಿಸಿ
ಒಬಾಮಾ
ಒಳಿತು
ಕಂಪನಿಗಳ
ಕಾನ್
ಕಾರ್ಪೊರೇಟ್
ಕಾರ್ಯಾಚರಣೆಯ
ಕಾವಲಿನಬುರುಜು
ಕುಮಾರಿ
ಕುಸ್ತಿ
ಕೆಟ್ಟದ್ದನ್ನು
ಕೇಂದ್ರದಿಂದ
ಕ್ಕಿಂತ
ಕ್ಷೇತ್ರಗಳು
ಗರಿಷ್ಟ
ಗುಂಪುಗಳು
ಚಿತ್ತ
ಜನಸಂಖ್ಯೆಯ
ಜವಳಿ
ಟೆಲ್
ತಂಪಾದ
ತಡೆದು
ತಿಳಿಸಲು
ತೆಗೆದುಕೊಳ್ಳುತ್ತದೆ
ದಿಢೀರ್
ನಂದಿಸಲು
ನಂಬುತ್ತಾರೆ
ನಡೆದಿದ್ದ
ನಡೆಸಿತ್ತು
ನಮಗಿರುವ
ನರ್ಸ್
ನಿಧನದ
ನಿಷೇಧಿಸಲಾಗಿದೆ
ನುಗ್ಗಿ
ನೆಕ್ಸಾನ್
ನೆನಪು
ನೈರ್ಮಲ್ಯ
ನೌಕಾ
ಪರಂಪರೆ
ಪರಿಗಣಿಸಬೇಕು
ಪರೀಕ್ಷೆಗಳನ್ನು
ಪಿಆರ್
ಪೀಠದ
ಪೇಜ್
ಪೇಪರ್
ಪ್ರತಿಕ್ರಿಯೆಗಳು
ಪ್ರದೇಶವು
ಪ್ರಮಾಣವು
ಪ್ರಮುಖವಾದ
ಪ್ರಯೋಜನವನ್ನು
ಪ್ರವೃತ್ತಿ
ಪ್ರಾಂತ್ಯದ
ಪ್ರಿಯಾ
ಬದುಕುವ
ಬರುತ್ತಿವೆ
ಬಲವಂತವಾಗಿ
ಬಸ್ಸು
ಬಿತ್ತು
ಬೀಜಗಳು
ಬೀದರ್
ಬೆಂಝ್
ಬೆಳಗಿನ
ಬೇಡಿ
ಬೇಸ್
ಬೌಲ್
ಬ್ಯುಸಿಯಾಗಿದ್ದಾರೆ
ಭಾರತೀಯರಿಗೆ
ಭಾವನೆಗಳು
ಮರಗಳನ್ನು
ಮಸಾಲೆ
ಮಹತ್ವದ್ದಾಗಿದೆ
ಮಾಡಿಕೊಂಡಿರುವ
ಮಾತನಾಡುತ್ತಾ
ಮಾಧ್ಯಮದ
ಮಾಹಿತಿಗಳನ್ನು
ಮೀನುಗಾರಿಕೆ
ಮುಗಿಯಿತು
ಮೈತ್ರಿಕೂಟ
ಮೋಶೆಗೆ
ಯಾಕೋಬನು
ಯಾರೊಂದಿಗೂ
ಯುನಿಟ್
ರಚನೆಯ
ರವಾನಿಸಲಾಗಿದೆ
ರಸ್ತೆಗಳ
ರಾಜಕೀಯವಾಗಿ
ರಾಷ್ಟ್ರಗಳಿಗೆ
ರಿಸರ್ಚ್
ರೂಪಿಸಲು
ರೆಡ್ಮಿ
ವನ್ಯಜೀವಿ
ವಿಡಿಯೋದಲ್ಲಿ
ವಿದಾಯ
ವಿಶ್ವವಿದ್ಯಾನಿಲಯ
ವಿಶ್ವವಿದ್ಯಾಲಯದಿಂದ
ವ್ಯಾನ್
ಶಾಂತಿಯುತವಾಗಿ
ಶಾಪಿಂಗ್
ಶಿಕ್ಷಕರಿಗೆ
ಶಿಫಾರಸುಗಳನ್ನು
ಸಂಗತಿಯನ್ನು
ಸಂಚಲನ
ಸಂಪುಟದಲ್ಲಿ
ಸಹಾಯಧನ
ಸಾಧ್ಯವಾಗಿರಲಿಲ್ಲ
ಸಾರ್
ಸಿಗಬೇಕು
ಸೆನ್ಸೆಕ್ಸ್
ಸೋಂಕಿತರು
ಸ್ಪರ್ಧಿಸಲು
ಹರಡುವ
ಹಾಕಿಲ್ಲ
ಹಿರಿಯರ
ಹೇಳಿಕೆಗಳು
ಹೇಳಿತ್ತು
##an
##ಂಕಿ
##ಂಸೆ
##ಕನ್ನು
##ಕರಿಸಲಾಗಿತ್ತು
##ಕಿಕ
##ಕೀಯ
##ಕೊಳ್ಳಬೇಕು
##ಕೇಷನ್
##ಕೊಂಡಳು
##ಕೊಳ್ಳಲಿದ್ದಾರೆ
##ಖೆ
##ಗಣ
##ಗಿತು
##ಗೊಳಗಾದ
##ಚಿಸಿ
##ಜಿಸಿದ್ದಾರೆ
##ಡಬಹುದಾಗಿದೆ
##ಡೆನ್
##ತಹ
##ತಾರಾ
##ದಾದರೂ
##ದಿದ್ದು
##ಧೆ
##ನಿನಲ್ಲಿ
##ನ್ನೆಲ್ಲ
##ಪಾರು
##ಪಿಸಿದನು
##ಬನ
##ಭಾಯಿ
##ಮೆನ್
##ಮ್ಮಿ
##ಯಿಲ್ಲದ
##ರಕ
##ರಗಳ
##ರಬಹುದೆಂದು
##ರಮ
##ರಹ
##ರಾಗುತ್ತಾರೆ
##ರುತ್ತಿತ್ತು
##ರೆಗೆ
##ಲರು
##ಲಾಗ್ತಿದೆ
##ಲಾಮ್
##ಲಿಗಳು
##ಲಿಸಬೇಕು
##ಲುಗಳು
##ಲೆಂಡರ್
##ಲೆಯನ್ನು
##ಲ್ಲೆಲ್ಲಾ
##ಳಲಿಲ್ಲ
##ಳಿತ
##ಳುಗಳು
##ವತ್
##ವಾಗಿದ್ದರೆ
##ವಾದಿಗಳು
##ವೇರ್
##ಷಣಾ
##ಷಿಸಬಹುದು
##ಷಿಸುವುದು
##ಷ್ಠಿ
##ಸೈಡ್
##ಸ್ಥರಿಗೆ
##ಸ್ಥಿತಿಯಲ್ಲಿ
##ಾಕು
##ಾಕೆ
##ಾತಿ
##ಾಹಕ
##ುಶಲ
##ೊಟ್ಟಿ
##್ಧ
98
Oneindia
ಅಕಾಲಿಕ
ಅಗತ್ಯವೂ
ಅದನ್ನೂ
ಅದ್ಭುತವಾದ
ಅನುಭವಿಸುತ್ತಿದ್ದಾರೆ
ಅಪರಿಚಿತ
ಅಳಲು
ಅವರೆಲ್ಲ
ಆಕಾಶ
ಆಕಾಶದ
ಆಗಿದ್ದಾನೆ
ಆಯುಷ್ಮಾನ್
ಆರೋಪಿಗಳಿಗಾಗಿ
ಇರೋದು
ಇಷ್ಟಕ್ಕೂ
ಈಗಲೇ
ಉತ್ತರವು
ಉಮರ್
ಋತುವಿನಲ್ಲಿ
ಎದುರಿಸುವ
ಎನ್ನಬಹುದು
ಎನ್ನುತ್ತದೆ
ಎಲ್ಲೆಲ್ಲೂ
ಒಂದೇ
ಒಡೆದು
ಔಷಧೀಯ
ಕಟ್ಟುವ
ಕಬಡ್ಡಿ
ಕಬ್ಬಿಣದ
ಕರುಣೆ
ಕಲ್ಲಿನ
ಕವಾಸಕಿ
ಕಾರಣಗಳಿಂದ
ಕಿಡಿಕಾರಿದ್ದಾರೆ
ಕೊನೆಯಲ್ಲಿ
ಕೊಹ್ಲಿ
ಕೇಂದ್ರಗಳು
ಖಾತೆಯ
ಗೋವಾದಲ್ಲಿ
ಘಾಟ್
ಚರ್ಚಿಸಲು
ಚಿತ್ರಣ
ಜರ್ಮನಿಯ
ಜಿಲ್ಲಾಸ್ಪತ್ರೆಗೆ
ಜೀವಕ್ಕೆ
ಜೇನು
ಜೋಡಿಸಲಾಗಿದೆ
ಟಿಡಿಪಿ
ಟ್ವೀಟರ್
ಡಬಲ್
ತಡೆಯುತ್ತದೆ
ತರಗತಿಯ
ತೀವ್ರ
ತೊಳೆದು
ದಾಖಲೆಗಳ
ದಾಟಿ
ದಾಟಿದೆ
ದಿವಸದಲ್ಲಿ
ದುರುಪಯೋಗ
ದೇಹದ
ದೇಶವೇ
ದೊರೆತ
ನಂಬಿ
ನಡೆದುಕೊಂಡು
ನಡೆಸುತ್ತಿದ್ದ
ನಡೆಸುತ್ತಿದ್ದರು
ನನಗಿಲ್ಲ
ನಾನಂತೂ
ನಾಯ್ಕ
ನಿಗದಿಪಡಿಸಲಾಗಿದೆ
ನಿರ್ಮಿಸಿದ
ನೀಡಿದರೆ
ನೆರವಾಗಲಿದೆ
ನೆಲೆಸಿದ್ದಾರೆ
ನೋಡಿದ್ದೇವೆ
ಪಟಾಕಿ
ಪಾತ್ರೆಯಲ್ಲಿ
ಪ್ರಕರಣಗಳಿವೆ
ಪ್ರಕ್ರಿಯೆಗೆ
ಪ್ರಜೆಗಳು
ಪ್ರತ್ಯುತ್ತರವಾಗಿ
ಪ್ರದೇಶಗಳನ್ನು
ಪ್ರಧಾನಿಯಾಗಿ
ಪ್ರಸ್ತಾವನೆಯನ್ನು
ಫುಡ್
ಬಂಧಿಸಿದ
ಬನ್ಸಾಲಿ
ಬರುತ್ತಿತ್ತು
ಬಲಪಡಿಸುವ
ಬಹುಮಾನಗಳನ್ನು
ಬಾಗ್
ಬಾಲಕನ
ಬಾಹಿರ
ಬೀರುವ
ಬುಲೆಟ್
ಬೆಡಗಿ
ಬೆಳೆಯುತ್ತದೆ
ಬೈಕನ್ನು
ಮಾತ್ರವಲ್ಲದೇ
ಮುದ್ರಣ
ಮುಳುಗಿ
ಮೇಕ್
ಮೈಸೂರಿನ
ಮೊದಲಲ್ಲ
ಮೋದಿಯವರನ್ನು
ಯಜುವೇಂದ್ರ
ರಾಜಿ
ರಿಪಬ್ಲಿಕ್
ರಿಷಬ್
ರೂಪಾಯಿಗೆ
ರೂಮ್
ರೇಡಿಯೋ
ವಹಿಸಲಾಗಿದೆ
ವಹಿಸಿದ್ದಾರೆ
ವಿಧಾನಸಭೆಯ
ವಿಭಿನ್ನವಾಗಿದೆ
ವಿಲೇವಾರಿ
ವಿಶ್ವವೇ
ವೀಕ್ಷಣೆ
ವೀರ್
ವ್ಯವಸ್ಥೆಗಳು
ವ್ಯವಸ್ಥೆಗೆ
ವ್ಯವಹಾರದಲ್ಲಿ
ಶಬರಿಮಲೆ
ಶಾಸಕರಿಗೆ
ಸಂಕೀರ್ಣ
ಸಂತಸದ
ಸಂತೋಷ
ಸಂಬಂಧಿಸಿದೆ
ಸಂಭವಿಸುವ
ಸತ್ತು
ಸರ್ವಿಸ್
ಸಲ್ಲಿಸಿತ್ತು
ಸಾಹೇಬ್
ಸೀಟುಗಳನ್ನು
ಸುಂಕ
ಸೈನ್
ಸೈನ್ಯಗಳ
ಸೈಯದ್
ಸ್ಟಾಗ್ರಾಮ್
ಸ್ವಭಾವ
ಹಮೀದ್
ಹರಿಹರನ್
ಹಳ್ಳಿ
ಹಾಸ್ಟೆಲ್
ಹೆಂಡತಿಯ
ಹೆಚ್ಚಿಸಿ
ಹೇಳಿದ್ರು
##8ರಲ್ಲಿ
##H
##ar
##mAh
##on
##ps
##tion
##ಂಜಯ
##ಂಟಾ
##ಂದ್ರಾ
##ಕಟ್ಟು
##ಕನಿಗೆ
##ಕರಿಸಿತ್ತು
##ಕೃತಿ
##ಕೊಳ್ಳಬೇಕಾಗಿದೆ
##ಕೊಳ್ಳಲಾಯಿತು
##ಕೊಳ್ಳುವರು
##ಕ್ಕಿದೆ
##ಕ್ಕೋಸ್ಕರ
##ಗವನ್ನು
##ಜದ
##ಜ್ಞಾ
##ಟ್ಟನು
##ತಕ
##ತಾನ
##ತ್ತನೇ
##ತ್ತಿದ್ದಳು
##ತ್ತಿದ್ದಾಗ
##ಥದ
##ದಂಥ
##ಧದ
##ಧರಿತ
##ನಂ
##ನೀ
##ನೆಯು
##ಪೆಕ್ಟರ್
##ಪ್ಪತ್ತು
##ಪ್ರಿಯಾ
##ಪ್ಸ್
##ಮಿಯಾ
##ಮ್ಮತ
##ಯಬೇಕಾಗಿದೆ
##ಯಾಂಕಿಂಗ್
##ಯಾಗಬಹುದು
##ರದೇ
##ರುವಾಗ
##ರೆನ್
##ರೆಯನ್ನು
##ರೇಷನ್
##ರ್ವಹಿಸಿದ್ದರು
##ಲಕ್
##ಲನು
##ಲೀಸ್
##ಳವನ್ನು
##ಳಿದಿದ್ದಾರೆ
##ವನದ
##ವಾಗುತ್ತಿರಲಿಲ್ಲ
##ವಾಗುತ್ತಿವೆ
##ವಿರುವುದು
##ವೀಯ
##ವೆಯ
##ವೇನಲ್ಲ
##ಶೀಲತೆ
##ಶ್ರೇಷ್ಠ
##ಸಿಟಿ
##ಸುತ್ತೆ
##ಹೆ
##ಾಂಶವನ್ನು
##ಾಗುತ್ತಾರೆ
##ಾತ್ಮವು
##ಿಗಾದರೂ
##ಿಫಾ
##ಿಯರ
##ಿಯಾಗಿರುವ
##ಿಸಬೇಕಿದೆ
##ೀವ್
##ುಂಡಿ
##ುಕ್
##ುದನ್ನೂ
##ುರಿಯಲು
##ುವಂತೆ
##ೂತ್
##ೇಜಸ್
##ೇಟೆ
##ೊಟ್ಟು
##ೊಬ್ಬನು
##ೋನನ
##್ತಿದ್ದ
##್ದೂ
##್ರದಲ್ಲಿ
##ೕರ್
103
500ಕ್ಕೂ
GB
MP
ಅಂತರ್
ಅಗತ್ಯವಿರುವುದಿಲ್ಲ
ಅಡಚಣೆ
ಅಣ್ಣ
ಅತಿಥಿಗಳು
ಅದೆಷ್ಟು
ಅನಿಯಮಿತ
ಅಬ್ಬಾಸ್
ಅಷ್ಟುಮಾತ್ರವಲ್ಲ
ಅಸಾಧಾರಣ
ಆಕರ್ಷಣೆ
ಆಯಾಸ
ಆರಂಭಿಸಿ
ಆರೋಪಕ್ಕೆ
ಆಲೌಟ್
ಆಳ್ವಿಕೆ
ಆ್ಯಂಡ್
ಇಂಡಿಯಾಗೆ
ಇಟ್ಟುಕೊಂಡು
ಇತರರನ್ನು
ಇದ್ದನು
ಇದ್ರಿಂದ
ಇರು
ಈದ್
ಉಚ್ಚ
ಉತ್ತರಾಖಂಡ
ಉತ್ತರಿಸಿದ
ಉಲ್
ಉಳಿಯಲಿಲ್ಲ
ಉಷ್ಣಾಂಶ
ಎಂಡ್
ಎಂದಾದರೂ
ಎಡಿಷನ್
ಎಫೆಸ
ಎಸಗಿದ
ಏನದು
ಒಲಿಂಪಿಕ್
ಒಳಗೊಂಡಿವೆ
ಕನಸನ್ನು
ಕಳುಹಿಸಿದ
ಕಾಗದದ
ಕಾಲುಗಳನ್ನು
ಕಾಲೇಜಿಗೆ
ಕೆಟ್ಟದಾಗಿ
ಕ್ಲೀನ್
ಖನ್ನಾ
ಗಟ್ಟಿಯಾಗಿ
ಗಿಫ್ಟ್
ಗುಜರಾತಿ
ಗೋಡೆ
ಗೋಲ್
ಚೆಂಡನ್ನು
ಚೆನ್ನಾಗಿತ್ತು
ಜನಾಂಗಗಳ
ಜಾಮ್
ಜೋಷಿ
ಟಾಕ್
ಟಿಕ್
ಟ್ರೋಲ್
ಡ್ಯಾನ್ಸ್
ತನಿಖೆಯಿಂದ
ತೀವ್ರವಾದ
ತುಮಕೂರು
ತುಳು
ದಿಟ್ಟ
ದಿನವೇ
ದಿವಸ
ದ್ರೋಹ
ಧರ್ಮೋಪದೇಶಕಾಂಡ
ಧ್ವಜ
ನನಗೇನು
ನಾಗರಾಜ್
ನಾದ
ನಿರ್ದೇಶಕರಾದ
ನಿರ್ಮಾಣದಲ್ಲಿ
ನಿರ್ವಹಣೆಗೆ
ನೀಡುತ್ತದೆ
ನೆನಪಿಗೆ
ಪಂಜಾಬಿ
ಪಟ್ಟಿಗೆ
ಪಡೆಯುತ್ತದೆ
ಪತ್ತೆಗಾಗಿ
ಪದಗಳನ್ನು
ಪಾತ್ರಗಳನ್ನು
ಪಿಡಿಪಿ
ಪಿಸಿ
ಪೂರಕವಾಗಿ
ಪ್ರಗತಿಯ
ಪ್ರಜ್ಞೆ
ಪ್ರತಿಪಕ್ಷಗಳು
ಪ್ರಧಾನಿಯವರು
ಪ್ರೊಫೈಲ್
ಫೀಲ್ಡ್
ಬಂಗಾಳಿ
ಬದುಕಲು
ಬಳಸಿದ
ಬಿಡುಗಡೆಗೊಳಿಸಲು
ಬೇಕಿದೆ
ಭಾಗಕ್ಕೆ
ಮಾಡಿಕೊಡುತ್ತದೆ
ಮಾಡಿದ್ದೀರಿ
ಮಾತಾಡಲು
ಮಾರಾಟಕ್ಕೆ
ಮಿಜೋರಾಂ
ಮುಂದೇನು
ಮುಖ್ಯಸ್ಥೆ
ಮುಸ್ಲಿಮರ
ಮೆಹ್ತಾ
ಮೈಕಲ್
ಮೋರ್ಚಾ
ಯೋಹಾ
ರಕ್ತದಲ್ಲಿ
ಲಾಭದಾಯಕ
ವರ್ಷಗಳು
ವಾತಾವರಣವನ್ನು
ವಿಚ್ಛೇದನ
ವಿಜ್ಞಾನದ
ವಿಭಾಗೀಯ
ವಿವೇಕ
ವ್ಯತ್ಯಾಸಗಳು
ವ್ಯತ್ಯಾಸವಿದೆ
ಶಶಿಕಲಾ
ಶಿಕ್ಷಕಿ
ಶೇನ್
ಸಂಘಟಿತ
ಸವಾರಿ
ಸಸ್ಯಗಳು
ಸಹೋದರರಿಗೆ
ಸಾಧಿಸಿ
ಸಾಧಿಸಿದ
ಸಿಕ್ಕಿರಲಿಲ್ಲ
ಸಿದ್ಧತೆಗಳು
ಸುದ್ದಿಗಾರರಿಗೆ
ಸುರಕ್ಷಾ
ಸೆಲ್ಸಿಯಸ್
ಸೆಹ್ವಾಗ್
ಸೊಸೈಟಿ
ಸೌಮ್ಯ
ಸ್ಮಾರ್ಟ್ಫೋನ್
ಹಾದಿಯಲ್ಲಿ
ಹುಡುಕಲು
ಹುಡುಗಿಯ
ಹುರಿದ
ಹೆಚ್ಚಾಗುವ
ಹೇಮಂತ್
ಹೋಗಿದ್ದೆ
ಹೋಗುತ್ತಿದೆ
##es
##us
##ಂಕಾ
##ಂಗದ
##ಂಟನ್
##ಕಗಳನ್ನು
##ಕವಾಗಿದೆ
##ಕಾರ್
##ಕೊಳ್ಳಲಾಗುತ್ತಿದೆ
##ಕೊಳ್ಳಲಿಕ್ಕಾಗಿ
##ಕ್ಕರ್
##ಗಿರಲಿಲ್ಲ
##ಗಿಲು
##ಗುವಂತೆ
##ಗೇನು
##ಗ್ರಿ
##ಚಿಸುವಂತೆ
##ಜೆಪಿ
##ಟಗಳನ್ನು
##ಟರ್ನ್
##ಟಾಗಿ
##ಡಬೇಕಾಗಿಲ್ಲ
##ಡ್ಡ
##ಣಿಸುವ
##ತರಾಗಿದ್ದಾರೆ
##ತಿಗಳು
##ತೃ
##ತ್ತಿದ್ದಾನೆ
##ಥದಲ್ಲಿ
##ನವರ
##ನಿಸಬಹುದು
##ನ್ನುವುದು
##ನ್ಸರ್
##ಪರ್ಧಿ
##ಪಾಡು
##ಪೀಠದ
##ಪ್ಪನ
##ಬಂದು
##ಬ್ಯಾಕ್
##ಮಟ್ಟದಲ್ಲಿ
##ಮೆಯನ್ನು
##ಯಲ್ಲಿದ್ದ
##ಯಾಕೆ
##ಯುತ್ತಿರುವ
##ರಡರ
##ರಲೇ
##ರಿದ್ದೇವೆ
##ರೀಸ್
##ರೆನ್ಸ್
##ರೋನ್
##ಲಸ್
##ಲಾಯಿತಾದರೂ
##ಷರ
##ಷಿಯಲ್
##ಸಚಿವ
##ಸಬೇಕಾಯಿತು
##ಸಿಪಿ
##ಹರಿಸುವ
##ಹಿಸಬಹುದು
##ಾಗಿಯೇ
##ಾಧಾರಿತ
##ಾನೋ
##ೂಡ್
##ೂಳ್ಳಲಾಗಿದೆ
##ೆರಡು
##ೇಟರ್
##ೊಂದಿಗೂ
##ೌತ್
##್ಜುನ
##್ತಿದ್ದಾರೆ
##್ದರೂ
##ೕರಾ
81
93
ಅಕ್ರಮವಾಗಿ
ಅತ್ಯಾಧುನಿಕ
ಅದೆ
ಅಧ್ಯಯನವನ್ನು
ಅಭಿಪ್ರಾಯಗಳನ್ನು
ಅರೆ
ಅಲಿಯಾ
ಅವನೊಂದಿಗೆ
ಅವರವರ
ಅಶ್ವಶಕ್ತಿಯನ್ನು
ಆಕೆಯು
ಆಟವನ್ನು
ಆರಂಭಿಸಿದ್ದರು
ಆಸ್ಕರ್
ಆಸ್ಪತ್ರೆಯಿಂದ
ಇಚ್ಛೆ
ಇಟಲಿ
ಇನ್ನೊಂದೆಡೆ
ಇಬ್ರಾಹಿಂ
ಇವರೇ
ಉತ್ಪಾದನೆಯ
ಉಳಿಸಿ
ಊಹೆ
ಒಂದಾಗಿ
ಒಬ್ಬರ
ಒಳ್ಳೇದನ್ನು
ಕಟ್ಟುನಿಟ್ಟಾಗಿ
ಕರಕೊಂಡು
ಕುಟುಂಬವನ್ನು
ಕೂಟ
ಕೂದಲಿನ
ಕೆಮ್ಮು
ಕೇಂದ್ರಗಳನ್ನು
ಕೇರ್
ಕೈಗೊಂಡಿರುವ
ಕೊಡುವುದಿಲ್ಲ
ಖೇರ್
ಗಣಪತಿ
ಗಣಿಗಾರಿಕೆ
ಗವಾಸ್ಕರ್
ಗೊತ್ತೆ
ಗೋವಿಂದ
ಗ್ರಾಹಕರನ್ನು
ಘಟಕಗಳ
ಚಂದನ್
ಚಳಿಗಾಲದ
ಜಗತ್ತಿನಾದ್ಯಂತ
ಜರುಗಿದವು
ಟ್ವಿನ್
ಡೌನ್ಲೋಡ್
ತನಿಖೆಯಲ್ಲಿ
ತಮಿಳಿನಲ್ಲಿ
ತಲುಪಿದ
ತಿಳಿಯುತ್ತಿದ್ದಂತೆ
ತೂರಾಟ
ತೇಜ್
ದೇಗುಲ
ನಂಟು
ನಗರಗಳು
ನಾಯಕತ್ವದ
ನಿಗ್ರಹ
ನಿರ್ವಹಿಸುತ್ತದೆ
ನಿರ್ವಹಿಸುತ್ತಿದ್ದಾರೆ
ನಿರ್ವಹಿಸುವ
ನಿವಾರಣೆಗೆ
ನೆಲಕ್ಕೆ
ಪರಿವರ್ತನೆ
ಪಾವತಿಸಲು
ಪಾಸ್ವಾನ್
ಪುರಾವೆ
ಪೂರ್ತಿಯಾಗಿ
ಪೆÇಲೀಸ್
ಪೋಷಕರು
ಪ್ರತಿಪಾದಿಸಿದರು
ಪ್ರವೇಶಿಸಿ
ಪ್ರಾಣವನ್ನು
ಫೋರ್ಸ್
ಬಂಗಾರದ
ಬಣ್ಣದಲ್ಲಿ
ಬದ್ಧ
ಬರಾಕ್
ಬಾರದು
ಬಿಡುಗಡೆಗೊಳಿಸಿದೆ
ಭಗವಾನ್
ಭೇಟಿಯಾದ
ಮಡಿಕೇರಿ
ಮದುವೆಯಾಗಿ
ಮಲಗುವ
ಮಹಲ್
ಮಾರ್ಗವಾಗಿ
ಮೆಗಾ
ಮೆಣಸಿನ
ಮೇಲಿದೆ
ಮೈಕ್
ಮೌಲ್ಯಗಳನ್ನು
ಮ್ಯಾಜಿಕ್
ಯುಕೆ
ಯುವಕನ
ಯುವಕರನ್ನು
ರಕ್ಷಣೆಯನ್ನು
ರಾಜತಾಂತ್ರಿಕ
ರಾಜನ್
ರಿವರ್ಸ್
ರುವ
ವಾಕ್ಯ
ವಿದೇಶಕ್ಕೆ
ವಿಧಿಯನ್ನು
ವಿಧಿಸಿದೆ
ವ್ಯಕ್ತಪಡಿಸಿ
ವ್ಯಕ್ತಪಡಿಸಿದ
ವ್ಯಾಗನ್
ಶ್ರೀನಾಥ್
ಶ್ರೀಲಂಕಾದ
ಸಂತ್ರಸ್ತ
ಸಹಾಯಕ್ಕೆ
ಸಿಕ್ಕಿ
ಸುಧಾರಣೆಗೆ
ಸುಶೀಲ್
ಸೌತೆಕಾಯಿ
ಹಾನಿಕಾರಕ
ಹೇಳುತ್ತಾರೆ
ಹೊರಗಿನ
##ಂಟಾಗಿ
##ಂಡುಗಳನ್ನು
##ಂದಿತ್ತು
##ಂದಿರ
##ಂದ್ರೆ
##ಂುು
##ಕರಾಗಿ
##ಕರಿಸುತ್ತದೆ
##ಖನ
##ಗಬೇಡಿ
##ಗುತ್ತಾನೆ
##ಗುತ್ತಿಲ್ಲ
##ಗೊಳ್ಳುತ್ತಾರೆ
##ಗ್ರಿಗಳನ್ನು
##ಚಿಸುತ್ತಾರೆ
##ಜಾನ್
##ಜ್ಜು
##ಟೇಷನ್
##ಟ್ಟುಕೊಳ್ಳಿ
##ಡಲಿಕ್ಕಾಗಿ
##ಡಿಸಲಾಗಿತ್ತು
##ತ್ತೇ
##ದಾರಿಕೆ
##ದಿತ
##ದುರಿಸಿ
##ನಿರ್ದೇಶಕ
##ಪಟ
##ಪಟ್ಟಿತು
##ಪಡಿಸಿತು
##ಪೋ
##ಬೈಲ್
##ಮಾಡುತ್ತವೆ
##ಮಿನ
##ಯವಾಗಿದೆ
##ಯಾಸ
##ಯಿಲ್ಲದೆ
##ಯಿಸು
##ಯೊಂದು
##ಯ್ದು
##ರಾಗಿರಿ
##ರಿನ್
##ರಿಸಿಲ್ಲ
##ರಿಸುತ್ತವೆ
##ರೆದ
##ರ್ಗಿ
##ರ್ವಹಿಸುತ್ತಿದೆ
##ಲಿಕೆ
##ಲ್ಪಡುವ
##ವಂತಿಲ್ಲ
##ವಲು
##ವಿಡ್
##ಶವನ್ನು
##ಶಾಂತಿ
##ಸಬೇಕಿತ್ತು
##ಸಿರಲಿಲ್ಲ
##ಸೇ
##ಸ್ಥಾನದ
##ಹಾಕಿದ
##ಹಿಸುತ್ತಿದ್ದಾರೆ
##ಾಗಲಿದ್ದಾರೆ
##ಾಧ್ಯಕ್ಷ
##ಿಂಟ್
##ಿಯರ್
##ಿಸುತ್ತಿದ್ದೇನೆ
##ುಕ್ತ
##ುಗಳ
##ುಟ್ಟಿ
##ುತ್ತಿದ್ದೇನೆ
##ೆಯಾಗಿ
##ೇರ
##ೈವ
##ೊಳ್ಳೆ
##ೋಧಕ
##ೋಪಾದಿ
##ೋಮ
##ೋಹಿತ್
##್ಯಗಳು
##್ಯೂಟಿ
##್ರದ
##ೕದಿ
08
108
200ಕ್ಕೂ
2021
ಅಂದಳು
ಅತಿಥಿಗಳಾಗಿ
ಅನಿತಾ
ಅಫ್ಘಾನಿಸ್ತಾನ
ಅಭ್ಯರ್ಥಿಯನ್ನು
ಅರ್ಧದಷ್ಟು
ಅರ್ಧಶತಕ
ಅಲ್ಪಸಂಖ್ಯಾತ
ಆಜ್ಞೆ
ಆಟಗಾರರಾದ
ಆತನಲ್ಲಿ
ಆರಂಭಿಸಲಾಗಿದೆ
ಆರಾಮದಾಯಕ
ಆರೆಸ್ಸೆಸ್
ಆರೋಪಿಸಿದ್ದರು
ಇನ್ಮುಂದೆ
ಇರುತ್ತೇನೆ
ಇಲಾಖೆಯಿಂದ
ಇವುಗಳಿಗೆ
ಇವೆರಡೂ
ಇಷ್ಟಪಡುತ್ತಾರೆ
ಊರಿನ
ಎಡಗೈ
ಎದುರಾಗುವ
ಏನೆಂದರೆ
ಏರಿ
ಒಪ್ಪಿಕೊಂಡಿದ್ದಾರೆ
ಒಬ್ಬನ
ಔಷಧಗಳು
ಕಂಡುಬರುತ್ತವೆ
ಕಂಬನಿ
ಕಬ್ಬು
ಕಾಜಲ್
ಕಾಣಿಕೆ
ಕಾಣಿಸಿಕೊಂಡಿದ್ದರು
ಕಾರ್ಯಕ್ರಮವು
ಕಾಸರಗೋಡು
ಕುಟುಂಬಗಳ
ಕುಟುಂಬದಿಂದ
ಕುರಿ
ಕುಲ್ದೀಪ್
ಕೃತ್ಯಕ್ಕೆ
ಕೆಕೆಆರ್
ಕೋಟಿಗೆ
ಕ್ಷೇತ್ರವನ್ನು
ಗನ್
ಗಳೂ
ಗಿಡ
ಗುಣಮುಖರಾಗಿದ್ದಾರೆ
ಚಲನಚಿತ್ರಗಳು
ಚಿತ್ರಕಲೆ
ಜಸ್ಪ್ರೀತ್
ಜಾತ್ಯತೀತ
ಡಾರ್ಕ್
ಡೀಲ್
ಡ್ರಾಗನ್
ತಡೆಯುವ
ತುಂತುರು
ತೊಡೆದುಹಾಕಲು
ತೈಲ
ದಾಖಲಾಗಿದ್ದಾರೆ
ದುರ್ಗಾ
ದೂರನ್ನು
ನಡೆಯಲಿದ್ದು
ನಡೆಯುತ್ತಿದ್ದು
ನಿಧನರಾದರು
ನಿರೀಕ್ಷೆಯನ್ನು
ನಿರ್ಧರಿಸಲು
ನಿಲ್ಲಲಿಲ್ಲ
ನೀಡಿದ್ದಾಳೆ
ನೆರವೇರಿಸಿದರು
ನೇತೃತ್ವ
ಪಟ್ಟಿಯಿಂದ
ಪಟ್ನಾಯಕ್
ಪತನ
ಪಾಪದ
ಪುತ್ರಿಯರು
ಪುಷ್ಕರ್
ಪೋದಲ್ಲಿ
ಪ್ರಕೃತಿಯ
ಪ್ರಣಾಳಿಕೆ
ಪ್ರತಿಪಕ್ಷದ
ಪ್ರದರ್ಶನದ
ಪ್ರಾಯದ
ಬಂದರೂ
ಬಂಧಿಸಲು
ಬಟ್ಟಲಿನಲ್ಲಿ
ಬಟ್ಲರ್
ಬದಲಾಯಿಸಿ
ಬದ್ಧತೆಯನ್ನು
ಬಯಲು
ಬಳಸಬೇಕು
ಬಹುಮಾನವನ್ನು
ಬಾಲ
ಬೀಜಗಳು
ಬೆಳೆಗಳು
ಬೇಕಾದಷ್ಟು
ಭಾಗವಹಿಸಿದ
ಭಾಗಿಯಾಗಿದ್ದಾರೆ
ಭಾರ
ಭೋಪಾಲ್
ಮಂಜುನಾಥ
ಮಂಡಿಸಿದ
ಮಳೆಗಾಲದಲ್ಲಿ
ಮಳೆಯಾಗಿದೆ
ಮಾಡದೇ
ಮಾಡುವನು
ಮುಂಭಾಗ
ಮೊಟ್ಟ
ಮೊದಲನೆಯದು
ಯಶಸ್ಸಿಗೆ
ಯಾರೆಂದು
ಯುವಕರ
ರಚಿಸಿದ
ರಚಿಸಿದ್ದಾರೆ
ರಮಾನಾಥ
ರವಿಕುಮಾರ್
ರಾತ್ರಿಯಲ್ಲಿ
ರೈಲುಗಳು
ಲಕ್ನೋ
ವನು
ವಹಿಸಿದೆ
ವಾದವನ್ನು
ವಿದೇಶದಲ್ಲಿ
ವಿದೇಶೀ
ವಿಧಗಳಿವೆ
ವಿಮೋಚನಕಾಂಡ
ಶತಕೋಟಿ
ಶಸ್ತ್ರಾಸ್ತ್ರ
ಶಾರ್ದೂಲ್
ಶಾಲೆಗಳಿಗೆ
ಶುರುವಾಯಿತು
ಸಂಗೀತವನ್ನು
ಸಂಜು
ಸಂಶಯ
ಸದಸ್ಯತ್ವ
ಸಮಾಜವನ್ನು
ಸಮು
ಸರ್ಕಾರವೂ
ಸರ್ಕ್ಯೂಟ್
ಸವಾಲಿನ
ಸಹೋದರನ
ಸೂಚಿಸಿ
ಸೇನ್
ಸ್ಪಷ್ಟವಾದ
ಸ್ಮಾರಕ
ಸ್ವ
ಸ್ವಲ್ಪವೂ
ಹಕ್ಕುಗಳು
ಹಣಕ್ಕೆ
ಹಲವರಿಗೆ
ಹಾಸಿಗೆ
ಹಿಂದೆಂದೂ
ಹುಟ್ಟಿ
ಹೆಚ್ಚೆಚ್ಚು
##ID
##ಂಡಿಸ್
##ಂದಿರು
##ಂಧೆ
##ಇಡಿ
##ಕರಿಸಿದ್ದಾರೆ
##ಕಾಲಕ್ಕೆ
##ಖಂಡ
##ಗುತ್ತೇನೆ
##ಗೊಳಿಸಲಾಗುವುದು
##ಗೊಳ್ಳುತ್ತೇವೆ
##ಗ್ಧ
##ಗ್ರಹಣ
##ಘಿಸಿದ್ದಾರೆ
##ಚಿನ
##ಟಗಿ
##ಡ್ಡು
##ಣೆಗೆ
##ತಮ
##ದವರಿಗೆ
##ದೆಯ
##ದೇನಂದರೆ
##ದ್ದಕ್ಕಾಗಿ
##ದ್ದೀರಾ
##ನಾಗಿತ್ತು
##ನಾಡಿಗೆ
##ಪಡಿಸಲಾಯಿತು
##ಪಡೆಯ
##ಪಿನಲ್ಲಿ
##ಬಿಟ್ಟಿದೆ
##ಭಾರತ
##ಮಾಂಡ್
##ಯಾಟ
##ಯೋಣ
##ರಾಷ್ಟ್ರೀಯ
##ರಿಯಲ್
##ರುವುದಕ್ಕೆ
##ಲಲ್ಲಿ
##ಲಿಯನ್
##ಲೆಯಲ್ಲಿ
##ಲ್ಯೂ
##ಲ್ಲದೇ
##ಳ್ಳಬೇಕಿದೆ
##ವಂತರ
##ವಂತರು
##ವರ್ಟ್
##ವಳಿಕೆ
##ವಶ
##ವಾಗಲಿದ್ದು
##ವಿತ
##ವಿದೆಯೇ
##ವ್ಯಾಪಿ
##ಷಿಗಳು
##ಷ್ಟರಲ್ಲಿ
##ಸಹಜ
##ಸಿದ್ದೇವೆ
##ಸೂಚಿ
##ಸ್ಥಾಪನೆ
##ಹಿಸಲಿದೆ
##ಾಗಿರಬೇಕು
##ಾನಗಳ
##ಿಯಾಗಿದೆ
##ಿಲ್
##ಿಸದಂತೆ
##ಿಸಿಕೊಂಡ
##ೀತಿ
##ೀಡಾಗಿದ್ದಾರೆ
##ೀಯನು
##ೀಶ
##ುದೋ
##ೃಷ್ಟಿ
##ೇಶ
##ೈಸಿದ್ದಾರೆ
##ೊಂಡಿದ್ದಾರೆ
##ೋಲಿ
##ೌಲ್
##್ಪಿಸಿದರು
##್ರೀಮ್
##್ಲು
##್ಷಿಸಿ
128
86
96
ಅಂದ್ರು
ಅಗಾಧ
ಅಚ್ಚರಿಯ
ಅಜ್ಜಿ
ಅಧಿವೇಶನದ
ಅನಿಸುತ್ತದೆ
ಅನ್ಸಾರಿ
ಅಭಿವೃದ್ಧಿಯಲ್ಲಿ
ಅಮ್ಮನ
ಅವನಲ್ಲಿ
ಅವನೂ
ಅವರಿಬ್ಬರ
ಆಕ್ರೋಶಕ್ಕೆ
ಆಗಿದ್ದರೆ
ಆಗಿರಬೇಕು
ಇಂಡಿಯಾದಲ್ಲಿ
ಇನ್ಫೋಸಿಸ್
ಇನ್ಸ್ಟಾಗ್ರಾಮ್
ಇರುವಂತಿಲ್ಲ
ಇಲ್ಲವಾದಲ್ಲಿ
ಇಷ್ಟಾದರೂ
ಉಕ್ಕು
ಉಡಾವಣೆ
ಉತ್ತರದ
ಉತ್ಸಾಹದಿಂದ
ಉದಾಹರಣೆಯಾಗಿದೆ
ಉದ್ಘಾಟಿಸಲಿದ್ದಾರೆ
ಉದ್ದೇಶಪೂರ್ವಕವಾಗಿ
ಉಳಿದಿವೆ
ಎಂದಳು
ಎಟಿಎಂ
ಎರಡನ್ನೂ
ಏಕಕಾಲಕ್ಕೆ
ಏನಿತ್ತು
ಐ20
ಒಂದಕ್ಕಿಂತ
ಕಂಡಿಲ್ಲ
ಕಡತಗಳನ್ನು
ಕಡಿದು
ಕಲಾವಿದರ
ಕಷ್ಟಗಳು
ಕಹಿ
ಕಾರ
ಕಾರಣವಾದ
ಕಾರ್ಯಾಚರಣೆಗೆ
ಕಿಲೋ
ಕೃತಿಗಳು
ಕೊನೆಯ
ಕೇಳಿದಳು
ಕೇಳು
ಕೈಗೊಳ್ಳಬೇಕೆಂದು
ಕೋಲಾರ
ಕ್ಯಾಚ್
ಗಣನೆಗೆ
ಗೆದ್ದರೆ
ಚುನಾವಣೆಗಳಲ್ಲಿ
ಜರುಗಿಸಲಾಗುವುದು
ಜಿಟಿ
ಜೀವದ
ಜೈಪುರ
ಟವರ್
ಡೇಟಾವನ್ನು
ತರಲಾಗಿದೆ
ತರುವುದು
ತಿಂಗಳುಗಳಲ್ಲಿ
ತಿಳಿದುಕೊಳ್ಳಬೇಕು
ತಿಳಿಯುವ
ತೆರಳಿದ್ದ
ತೆರೆದು
ದಾಖಲಿಸಿದ
ದಿಶಾ
ದುರ್ಘಟನೆ
ದೂರಿನಲ್ಲಿ
ದೇವರೊಂದಿಗೆ
ದೊರೆ
ಧರ್ಮೇಂದ್ರ
ಧೋರಣೆ
ನಂತರವೇ
ನಟರು
ನಟಿಸಿರುವ
ನಡೆಯುತ್ತಿದ್ದ
ನಡೆಸುತ್ತಿದ್ದೇವೆ
ನವದೆಹಲಿಯ
ನಷ್ಟವನ್ನು
ನಾಲ್ವರ
ನಿಯಂತ್ರಿಸುವ
ನೀಡಲು
ನ್
ಪಂದ್ಯಗಳಿಂದ
ಪಟ್ಟಣಕ್ಕೆ
ಪದದ
ಪಾರದರ್ಶಕ
ಪೌಷ್ಟಿಕ
ಪ್ರಕಾರವೇ
ಪ್ರತಿಕ್ರಿಯೆಯನ್ನು
ಪ್ರತಿದಿನವೂ
ಪ್ರತಿಭಾ
ಪ್ರವೇಶಿಸಲು
ಪ್ರಾಂಶುಪಾಲ
ಪ್ರೀತಿಯಲ್ಲಿ
ಫಲವನ್ನು
ಬಂದವರು
ಬಂದಿದ್ದೇವೆ
ಬಂಧಿಸಿರುವ
ಬಳಲುತ್ತಿದ್ದರು
ಬಾಲ್ಯದ
ಬೆಚ್ಚಿ
ಬೆನ್ನು
ಬೆಳಕನ್ನು
ಬೆಳವಣಿಗೆಗಳು
ಬ್ಯಾನರ್
ಭಂಡಾರಿ
ಭಾಗವತ್
ಭಾಷೆಗಳು
ಮಕ್ಕಳಿಗಾಗಿ
ಮರಗಳ
ಮಾಡಿರುವುದು
ಮಾನವರ
ಮಾಹಿತಿಗಳು
ಮುಖಾಮುಖಿ
ಮೂಡಿಸಲು
ಮೆನನ್
ಮೆಹಬೂಬಾ
ಯತ್ನಿಸಿದ
ಯಾಜಕನು
ರಕ್ಷಿಸುವ
ರಾಜಿನಾಮೆ
ರೇವಣ್ಣ
ಲಿಯೋನ್
ವಾರ್ತಾ
ವಿಶಾಲ
ವೃದ್ಧ
ವೇತನವನ್ನು
ಶಾಂತ
ಶಾಖ
ಶುಕ್ಲಾ
ಸಂಪನ್ಮೂಲಗಳನ್ನು
ಸಂಭವನೀಯ
ಸಕ್ಕರೆಯ
ಸಚಿವರಿಗೆ
ಸಮಾನವಾಗಿ
ಸಮಾರೋಪ
ಸಹಕಾರದ
ಸಾಧನಗಳನ್ನು
ಸಾಧನವನ್ನು
ಸಾಧನೆಯ
ಸಾಬೀತಾಗಿದೆ
ಸಾಮ್ರಾಜ್ಯದ
ಸಿಬ್ಬಂದಿಯ
ಸುಲ್ತಾನ್
ಸೇಲ್
ಸೈನಿ
ಸೋನಾಲಿ
ಸ್ಟೀವನ್
ಸ್ಥಳಿಕ
ಸ್ಪರ್ಧಾತ್ಮಕ
ಹಗರಣದಲ್ಲಿ
ಹಣಾಹಣಿ
ಹರಿಕೃಷ್ಣ
ಹಸ್ತಕ್ಷೇಪ
ಹೀಗೆಂದು
ಹೂವಿನ
ಹೇಗೋ
ಹೇಳಿಕೆಯ
ಹೇಳಿದಳು
ಹೈಬ್ರಿಡ್
ಹ್ಯಾಂಡ್
##60
##W
##ge
##ment
##omment
##ss
##ಂಚಿನ
##ಂತಿತ್ತು
##ಂದಿಲ್ಲ
##ಎಂಎಸ್
##ಎಐ
##ಕಗಳು
##ಕಾಲಿಕ
##ಕೃಷ್ಟ
##ಕೊಳ್ಳ
##ಕ್ಕಿರುವ
##ಗರನ್ನು
##ಗಳಿದ್ದಾರೆ
##ಗಳೆಲ್ಲಾ
##ಗಾರರನ್ನು
##ಗೇರಿ
##ಗೊಂಡಾಗ
##ಗ್ರಹ
##ಚದ
##ಚ್ಚಲಾಗಿದೆ
##ಜನಕ
##ಜನರಿಗೆ
##ಜಿಗೆ
##ಟ್ಟಿದ್ದ
##ಟ್ಟಿರುವ
##ಡಲಾಗುತ್ತಿತ್ತು
##ಡಿಕೆಯ
##ಡಿದನು
##ಡಿಮೆ
##ಡಿಸಬಹುದು
##ಡಿಸಿದ್ದಾರೆ
##ಡುತ್ತಿವೆ
##ಡುತ್ತೀರಿ
##ಡೆಯುವ
##ಡ್ತಾರೆ
##ಣಿಸಿದ
##ತೊಡಗಿದೆ
##ತ್ತಿದ್ದರೆ
##ತ್ತೂ
##ತ್ಯಾಗ
##ದಿಕ
##ದೇಶ
##ಧನೆಯನ್ನು
##ಧರಿಸಿ
##ನಗಾಗಿ
##ನಾಳದ
##ಪೂರ್ತಿ
##ಪ್ಯ
##ಫೀಲ್ಡ್
##ಬರು
##ಬರುವ
##ಬಿದ್ದು
##ಬಿನ
##ಮರಣೀಯ
##ಮಾಡುತ್ತಾನೆ
##ಮ್ರ
##ಯಾಗದಂತೆ
##ಯಾಗಿದ್ದವು
##ಯ್ದರು
##ರಾಣಿ
##ರಿಗಳನ್ನು
##ರಿನಿಂದ
##ರಿಯನ್
##ರುಗಳ
##ರೆಲ್
##ರ್ಚಿನ
##ಲಿಯನ್ನು
##ಲಿಯರ್ಸ್
##ಲಿಯು
##ಲೋಕ
##ಲ್ಕತ್ತಾ
##ಲ್ಟಿ
##ಳೆಯರು
##ಳ್ಯ
##ಳ್ಳು
##ವಳ
##ವಾಗಿರುವುದರಿಂದ
##ವೇಳೆ
##ವ್ವ
##ಶನಲ್
##ಷ್ಟೋ
##ಸಿಗರು
##ಹಕ
##ಹಗಳು
##ಹನ್
##ಹಾದ್
##ಹೀರ್
##ಾಂಶದ
##ಾಡುತ್ತಿದೆ
##ಾತನ
##ಾಯಕ
##ಾರರು
##ಾರ್ಧದಲ್ಲಿ
##ೀರಿಯಲ್
##ುಂದು
##ುತ್ತಿರಲಿಲ್ಲ
##ೃತ್ತಾಂತ
##ೋಲ್ಲ
##ೋಳಿ
##್ಯಗಳನ್ನು
##್ಲೆ
06
2008
2011
750
76
91
92
ಅಂದರೇನು
ಅಕೌಂಟ್
ಅಕ್ಬರ್
ಅದ್ಭುತವಾಗಿ
ಅನಾರೋಗ್ಯದಿಂದ
ಅನುಭವದ
ಅನ್ನುವ
ಅರ್ಥಮಾಡಿಕೊಳ್ಳಲು
ಆಕಸ್ಮಿಕವಾಗಿ
ಆಕ್ರಮಿತ
ಆಗಿದ್ದೇನೆ
ಆದೇಶಿಸಿದ್ದಾರೆ
ಆಭರಣ
ಆಯೋಜಿಸಲಾಗಿದೆ
ಆಯ್ಕೆಮಾಡಿ
ಆಯ್ಕೆಯಾಗಿದೆ
ಆರ್ಟ್
ಆಸ್ಪತ್ರೆಗಳಿಗೆ
ಆಹ್ಲಾದಕರ
ಇಡಲಾಗಿದೆ
ಇರಲ್ಲ
ಇಲೆವೆನ್
ಉತ್ಪನ್ನಗಳಿಗೆ
ಉದ್ದೇಶವಾಗಿದೆ
ಉದ್ಯಾನ
ಎಸೆತದಲ್ಲಿ
ಒಪ್ಪಿಸಿದ್ದಾರೆ
ಕಡೆಯ
ಕಥೆಯ
ಕಲಂ
ಕಲಾಪ
ಕಳೆದುಕೊಂಡಿದೆ
ಕಾಮಗಾರಿಗೆ
ಕಾರ್ಪೊರೇಶನ್
ಕಾರ್ಯಕ್ರಮಗಳ
ಕಾರ್ಯಕ್ರಮಗಳಲ್ಲಿ
ಕಾರ್ಯಾಗಾರ
ಕಾಲುಗಳು
ಕಿಡಿಕಾರಿದರು
ಕುಟುಂಬದವರಿಗೆ
ಕೂಟದಲ್ಲಿ
ಕೇದಾರ್
ಕೇಳಿದರೆ
ಕೊರಿಂ
ಕ್ಯಾಂಪಸ್
ಕ್ರಮದಲ್ಲಿ
ಕ್ರೆಟಾ
ಕ್ಷಮಿಸಿ
ಖಚಿತಪಡಿಸಿಕೊಳ್ಳಿ
ಖರೀದಿಸುವ
ಗಮನಿಸಿರಿ
ಗೆಟ್ಟಿ
ಗೌರವಕ್ಕೆ
ಗ್ರಾ
ಘೋರ
ಚರಿತ್ರೆ
ಚರ್ಮವನ್ನು
ಚಲನಚಿತ್ರಗಳಲ್ಲಿ
ಚಾಹಲ್
ಚಿತ್ತವನ್ನು
ಜರುಗಿಸಬೇಕು
ಜಲಸಂಪನ್ಮೂಲ
ಜಾವಡೇಕರ್
ಜೇನುತುಪ್ಪ
ಟಾಂಗ್
ಟೀಚಮಚ
ಟೇಲರ್
ಟ್ರಿಪಲ್
ಟ್ರಿಲಿಯನ್
ಟ್ರ್ಯಾಕ್
ಡಿಸಿ
ತಡೆಯಾಜ್ಞೆ
ತಲಾಖ್
ತಾನೂ
ತಿಳಿಸುವುದು
ತೀವ್ರತೆ
ತೆಗೆಯಲು
ತೆರಿಗೆಯನ್ನು
ಥಾಮಸ್
ದರೋಡೆ
ದರ್ಜೆಯ
ದೇಶದ
ನಂದಿಸಿದ್ದಾರೆ
ನಂಬುವುದಿಲ್ಲ
ನನ್ನದೇ
ನಲ್ಲಿಯೂ
ನವರಾತ್ರಿ
ನಾಗ್
ನಾನೊಬ್ಬ
ನಿನ್ನೆ
ನಿಲ್ದಾಣಗಳಲ್ಲಿ
ನಿವಾರಿಸಲು
ನೆಗೆಟಿವ್
ನೇಮಕವನ್ನು
ನೋಡಿಕೊಳ್ಳಬೇಕು
ನೋವಿನಿಂದ
ಪಡೆದಿರಬೇಕು
ಪಡೆದುಕೊಂಡು
ಪಾಯಿಂಟ್ಸ್
ಪಾಲಿಸಬೇಕು
ಪೀಪಲ್ಸ್
ಪ್ಯಾಟ್
ಪ್ರಚಾರಕ್ಕೆ
ಪ್ರಜಾಪ್ರಭುತ್ವದಲ್ಲಿ
ಪ್ರಜೆ
ಪ್ರತಿಭಟನಾಕಾರರ
ಫಾರೂಕ್
ಬಯಸಿದರೆ
ಬರಲ್ಲ
ಬಹದ್ದೂರ್
ಬಾರಿಸಿ
ಬಿರುಸಿನ
ಬೆಂಬಲಿಸುತ್ತದೆ
ಬೆಲ್
ಬೇರೆಯವರಿಗೆ
ಬೇರೆಯವರು
ಮಕ್ಕಳಿಗೂ
ಮಣಿಪಾಲ
ಮದುವೆಯಾಗಲು
ಮಧ್ಯಪ್ರದೇಶದಲ್ಲಿ
ಮಸೂದೆಗೆ
ಮಾಡಿದ್ದೆ
ಮೀರಾ
ಮುಂಚಿನ
ಮುಂದಿದೆ
ಮುಖಭಂಗ
ಮೃತದೇಹಗಳನ್ನು
ಮೃತಪಟ್ಟಿದ್ದು
ಮೇಲುಗೈ
ಯೆರೂಸಲೇಮಿಗೆ
ರಮೇಶ
ರಾಜ್ಯಸಭೆ
ರಾಮಕೃಷ್ಣ
ರಿಚರ್ಡ್
ಲಕ್ಷದ
ಲಾಹೋರ್
ಲೋಕಸಭೆಯ
ವಿಮಾನಗಳನ್ನು
ವಿವರವಾದ
ವಿವರಿಸಿ
ವಿವರಿಸುತ್ತದೆ
ವಿಶ್ವಾದ್ಯಂತ
ವೀರ
ವ್ಯಕ್ತಿಗಳನ್ನು
ವ್ಯಾಸಂಗ
ಶಾರೂಖ್
ಶಾಲೆಗಳನ್ನು
ಶಿವಣ್ಣ
ಶಿವಾಜಿ
ಷೇರುಗಳು
ಸಂಕಲ್ಪ
ಸಂಜೀವ
ಸಂಭ್ರಮದಿಂದ
ಸಂಸ್ಥೆಯಿಂದ
ಸಭೆಗಳಲ್ಲಿ
ಸಮಯಗಳಲ್ಲಿ
ಸಮಯಾನಂತರ
ಸಮಸ್ಯೆಗಳಿವೆ
ಸಮಿತಿಯನ್ನು
ಸವಾಲುಗಳು
ಸಾಧ್ಯವಾಗಿದೆ
ಸಾಯುವ
ಸಾರ್ವಕಾಲಿಕ
ಸಾವಯವ
ಸಿಕ್ಕಿಂ
ಸುಬ್ರಮಣಿಯನ್
ಸುರೇಂದ್ರ
ಸೂಕ್ಷ್ಮವಾಗಿ
ಸೇರಿದ್ದ
ಸೇರಿದ್ದು
ಸ್ಟಾಗ್ರಾಂನಲ್ಲಿ
ಸ್ನೇಹಿತರು
ಸ್ಪಿನ್
ಸ್ವಚ್ಛತಾ
ಹಿಂದೂಸ್ತಾನ್
ಹಿಂಭಾಗದ
ಹುಡುಕು
ಹೆತ್ತವರಿಗೆ
ಹೋಗಲಿ
ಹೋದಾಗ
##0mAh
##7ರ
##9ರಲ್ಲಿ
##U
##it
##ka
##me
##se
##ಂಕರ
##ಂಕ್ಸ್
##ಂಬು
##ಕರವಾಗಿ
##ಕರಿಸುವ
##ಕಾರರ
##ಕಾರ್ಯ
##ಕೊಂಡಿತು
##ಕೊಟ್ಟಿದ್ದಾರೆ
##ಕ್ಕನುಸಾರ
##ಕ್ಸರ್
##ಗದಂತೆ
##ಗಾಗುವ
##ಗಾರನು
##ಗಾವಲು
##ಗೊಳಿಸುವ
##ಚಿತ್ರಗಳನ್ನು
##ಜಾರ್
##ಜಿಕಲ್
##ಟಪ್
##ಟಮ್
##ಟಸ್
##ಟಾಲಿಯನ್
##ಟೇಲ್
##ಡಕ್
##ಡಬಲ್ಲದು
##ಡುತ್ತಿದ್ದೇವೆ
##ಡುವು
##ಣವು
##ತನ್
##ತೊಡಗಿದರು
##ತ್ತಾದರೂ
##ತ್ತಿದ
##ತ್ತಿದ್ದಂತೆ
##ತ್ರೆ
##ದಕ
##ದಿಯಲ್ಲಿ
##ಧವ
##ನಿರತ
##ಪಟು
##ಪಣೆ
##ಪಿಸಬೇಕು
##ಪಿಸಿದರು
##ಫನ
##ಬಾಲ್
##ಬಿಟ್ಟನು
##ಬಿನ್
##ಬಿಯನ್
##ಭಟ
##ಮಾತು
##ಮಿಗಳ
##ಮಿಯ
##ಮಿಷ
##ಮೊದಲ
##ಯಗಳಲ್ಲಿ
##ಯಾಗುತ್ತಿಲ್ಲ
##ಯಾಯ್ತು
##ಯಿಸಿದ್ದಾರೆ
##ಯುಲರ್
##ಯ್ಯಲಾಗಿದೆ
##ಯ್ಯಾ
##ರಂಗಿ
##ರಾದರೂ
##ರಿತ್ತು
##ರಿಸುತ್ತಿದೆ
##ರಿಸ್
##ಲನೆ
##ಲಾತಿ
##ಲಿಕ್
##ಳಬೇಕು
##ಳಾಗಿ
##ಳೆದ
##ಳ್ಳಲಿಲ್ಲ
##ವರ್ತಿ
##ವರ್ಷ
##ವಾಗಿರಲು
##ವಾರಕ
##ವಾರದ
##ವಿದ್ದರೆ
##ವೆಷ್ಟು
##ಶಕರು
##ಶೀಲನಾ
##ಷರ್
##ಷಿಸಬೇಕು
##ಷ್ಯಾ
##ಸಬೇಡ
##ಸುವುದಾಗಿ
##ಸೆಂಟ್
##ಸ್ತ್ರಗಳನ್ನು
##ಸ್ಥಳ
##ಸ್ಥೆಯಲ್ಲಿ
##ಹೀನ
##ಾಂಕದ
##ಾಗ್ರಹ
##ಾಟಿ
##ಾಣದ
##ಾಣೆ
##ಾದಾಗ
##ಿಗನುಸಾರ
##ಿರುವುದಾಗಿ
##ಿಸಲಿ
##ೀದ್
##ುದಷ್ಟೇ
##ೃಷ್ಣ
##ೆಂಡ್
##ೆರಡೂ
##ೊಟ್ಟೆ
##ೇತನ
##ೇವ
##ೊಂದಿಸಿ
##ೊಗೆ
##ೊಳೆಯುವ
##ೋಪಯೋಗಿ
##ೋಲಿಸಲು
##್ತಿವೆ
##್ಯತೆ
##್ಯಾಬ್
##್ಯಾಮ್
##್ಲ
119
20ಕ್ಕೂ
79
88
ಅದಕ್ಕೇ
ಅದಾಗಲೇ
ಅಪೂರ್ವ
ಅಪೊಸ್ತಲರ
ಅರ
ಅರಿಶಿನ
ಅವಾರ್ಡ್
ಅವುಗಳೆಂದರೆ
ಅಸ್ತಿತ್ವದಲ್ಲಿರುವ
ಆಂಡ್
ಆಗುತ್ತಿರಲಿಲ್ಲ
ಆಜಾದ್
ಆಡಳಿತದಲ್ಲಿ
ಆನಂದವನ್ನು
ಆಯೋಜಿಸಲಾಗಿತ್ತು
ಆಯ್ಕೆಯಲ್ಲಿ
ಆಶ್ವಾಸನೆ
ಆಸಕ್ತಿಕರ
ಇಡೀ
ಇದಕ್ಕೊಂದು
ಇನ್ನೊಂದು
ಇಬ್ಬರನ್ನೂ
ಇಲ್ಲಿಯೂ
ಇವೆಲ್ಲಾ
ಇಶಾನ್
ಉತ್ತರಪ್ರದೇಶದಲ್ಲಿ
ಉದಾಹರಣೆಯನ್ನು
ಉಪಗ್ರಹ
ಉಪಯೋಗಿಸುವ
ಉಪೇಂದ್ರ
ಉಳಿಸಿಕೊಳ್ಳಲು
ಎಂದರ್ಥ
ಎಂಬದನ್ನು
ಎರಡನೆಯದಾಗಿ
ಏಕತೆ
ಏನೆಲ್ಲ
ಐಎನ್
ಒಗ್ಗೂಡಿ
ಓಹ್
ಕಂಪೆನಿಗಳು
ಕಡತವನ್ನು
ಕಮೆಂಟ್
ಕಲಿಯಬಹುದು
ಕಲಿಯಬೇಕು
ಕಷ್ಟವಾಗುತ್ತದೆ
ಕಾದಂಬರಿ
ಕಾನೂನುಗಳನ್ನು
ಕಾಯಿಲೆಯ
ಕಾರಣಗಳೇನು
ಕಾಲಿಟ್ಟ
ಕಿಟಕಿ
ಕಿರುತೆರೆ
ಕೂದಲಿಗೆ
ಕೃಷ್ಣಮೂರ್ತಿ
ಕೆನೆ
ಕೆಳಗಿನಂತಿದೆ
ಕೊಠಡಿ
ಕೇಳಬೇಕು
ಕೊಟ್ಟಿರುವ
ಕೊಠಡಿ
ಕೊಡುತ್ತೇವೆ
ಕೋಟಿಗೂ
ಕ್ಯಾಬಿನೆಟ್
ಗಮನಾರ್ಹವಾಗಿ
ಗಮನಿಸಿದ
ಗಾಂಧಿಯವರ
ಗುರಿಯಾಗಿದೆ
ಗೆದ್ದರು
ಗೊತ್ತಾಗಿದೆ
ಘೋಷ್
ಚಾರ್ಲ್ಸ್
ಚಾಲಕರು
ಜಗನ್
ಜನಾಂಗ
ಜಮಾ
ಜರ್ನಲ್
ಜವಾಬ್ದಾರಿಗಳನ್ನು
ಜೋಸೆಫ್
ಟ್ರೆಂಡ್
ಡಿಸಿಎಂ
ಡೇಟಿಂಗ್
ತಯಾರಿಕೆ
ತರಬೇತಿಯನ್ನು
ತಹಶೀಲ್ದಾರ್
ತೆರಳಿದ್ದಾರೆ
ದೀಪಾ
ದುಷ್ಕರ್ಮಿಗಳು
ದೃಢಪಟ್ಟಿದೆ
ದೃಢವಾಗಿ
ದೃಷ್ಟಿಕೋನ
ದೇವಸ್ಥಾನಕ್ಕೆ
ದೇವೇಗೌಡರು
ಧ್ಯಾನ
ನಡೆಯುವುದು
ನಮ್ಮದೇ
ನರ್ಸಿಂಗ್
ನಾಚಿಕೆ
ನಾಮಕರಣ
ನಿಂದಾಗಿ
ನಿರ್ಭಯಾ
ನಿರ್ವಹಣೆಯ
ನೆಲ
ನೋಡಿ
ನೋಟವನ್ನು
ಪಡೆದಿವೆ
ಪತ್ನಿಗೆ
ಪತ್ರದ
ಪರಿಣಮಿಸಿದೆ
ಪಾಠಗಳನ್ನು
ಪಾಪಗಳನ್ನು
ಪಾಲ್ಗೊಂಡಿದ್ದಾರೆ
ಪಾಲ್ಗೊಳ್ಳುವ
ಪಿತೃಗಳ
ಪಿಪಿಎಫ್
ಪುಟಿನ್
ಪ್ರಚಾರದಲ್ಲಿ
ಪ್ರತಿಶತದಷ್ಟು
ಪ್ರದರ್ಶನಕ್ಕೆ
ಪ್ರಭಾವಿ
ಪ್ರಹ್ಲಾದ್
ಫಿಕ್ಸಿಂಗ್
ಫೇಮಸ್
ಬಯಸುತ್ತದೆ
ಬಾಬೆಲಿನ
ಬಿಡುಗಡೆಯಾಗಲಿರುವ
ಬಿಪಿನ್
ಬೆಂಬಲಿಸಲು
ಬೇಯಿಸಿ
ಭಾಗ್ಯ
ಭೌಗೋಳಿಕ
ಮಗನಿಗೆ
ಮನಸ್ಥಿತಿ
ಮನುಷ್ಯರನ್ನು
ಮರೆತು
ಮಹದಾಯಿ
ಮಾಡಿದವರು
ಮಾಡುತ್ತಿರುವುದು
ಮಾತನಾಡಿದ್ದೇನೆ
ಮಾತುಕತೆಯ
ಮಾದರಿಗಳ
ಮಾಹಿತಿಗೆ
ಮಿಕ್ಸ್
ಮೂಲಗಳಿಂದ
ಮೆಟಾಲಿಕ್
ಮೆಣಸಿನಕಾಯಿ
ಮೆದುಳಿನ
ಮೋಟರ್
ಯುವಿ
ರಚಿತಾ
ರಜಾ
ರೆಡಿ
ರೈಲಿನ
ಲತಾ
ಲೇಖನವನ್ನು
ಲೇವಡಿ
ಲ್ಯಾಟಿನ್
ವರೆಗಿನ
ವರ್ಗಕ್ಕೆ
ವಲಯಗಳಲ್ಲಿ
ವಾಯುಪಡೆಯ
ವಿಧದಲ್ಲಿ
ವಿಮಾನವನ್ನು
ವಿವರಿಸಲು
ವೀಕ್ಷಿಸಿ
ವೈಫಲ್ಯ
ವೈಶಿಷ್ಟ್ಯಗಳನ್ನು
ವ್ಯಾಪಾರಿಗಳು
ಶಾಂತಿಯ
ಶೀತ
ಶೂನ್ಯ
ಸನ್ನಿವೇಶದಲ್ಲಿ
ಸಮರ್ಥವಾಗಿ
ಸಾಮಾನ್ಯವಾದ
ಸಾವರ್ಕರ್
ಸುಧೀರ್
ಸುರಿಯಿರಿ
ಸೆಕೆಂಡರಿ
ಸೇವಿಸಬೇಕು
ಸ್ಟೇಟ್ಸ್
ಸ್ಥಾಪಕ
ಸ್ಪರ್ಧಿಗಳು
ಹಂಗಾಮಿ
ಹತ್ಯೆಯ
ಹಾಕಿದ್ದ
ಹಾಕುತ್ತಿದ್ದಾರೆ
ಹಾಕುವುದು
ಹಾಜರಾಗಲು
ಹಾವು
ಹೀಗಂತ
ಹೆಕ್ಟರ್
ಹೊಂದಿರುವ
ಹೇಳಲಿ
ಹೊರಬರಲು
ಹೋಗುತ್ತೇವೆ
ಹೋಗುವಾಗ
##19
##at
##ಂಚೆಸ್ಟರ್
##ಂಪ
##ಕರಲ್ಲಿ
##ಕಳ
##ಕವು
##ಕುಮಾರ
##ಕೆಗಳ
##ಕೆಗಳನ್ನು
##ಕೊಳ್ಳಬೇಕಾಗುತ್ತದೆ
##ಕ್ಕೊಳಗಾದ
##ಕ್ರ
##ಕ್ರಮದ
##ಖರಣಾ
##ಗಟ್ಟಿ
##ಗಾರನ
##ಗೊಳ್ಳುತ್ತವೆ
##ಚರಿಸಲು
##ಚಲು
##ಚುವಲ್
##ಜಿಸಿದೆ
##ಜೀ
##ಜೆಟ್
##ಟಾನ್
##ಟಿಕಲ್
##ಟಿಯ
##ಟಿರುವ
##ಟೊ
##ಡದು
##ಡಮ್
##ಡಲ್ಪಟ್ಟ
##ಡಿತ್ತು
##ಡಿದಿದ್ದಾರೆ
##ಡಿಸಲಾಗುತ್ತದೆ
##ತಾನ್
##ತ್ತಿರುವಾಗ
##ತ್ತೀ
##ಥಾನ
##ದರ್ಶಿ
##ದಾಳಿ
##ದುರಾಗಿ
##ಧಿಪತಿ
##ಧಿಸಿದರು
##ಧುರಿ
##ನಪ್ಪ
##ನಾನ್
##ನಾಪ್
##ನೆಯಲ್ಲಿ
##ನೊ
##ನೋವಾ
##ಪಟ್ಟಿಯಲ್ಲಿ
##ಪಡಿಸಿಲ್ಲ
##ಪಡುತ್ತಾರೆ
##ಪಿದೆ
##ಪ್ಪು
##ಬದ್ಧವಾಗಿ
##ಬಾರದಿತ್ತು
##ಭದ್ರ
##ಮಗಾಗಿ
##ಮಠ
##ಮತ್ತು
##ಮನೆಯ
##ಮಾಡಬೇಕು
##ಮಾತ್ರ
##ಮೈ
##ಮ್ಮಾ
##ಯಬಾರದು
##ಯಿಸಿದರು
##ಯುತವಾಗಿ
##ಯುತ್ತಲೇ
##ರಗಿದ
##ರದಾ
##ರಲಾಗಿ
##ರಿಸಬಹುದಾಗಿದೆ
##ರಿಸಿತು
##ರ್ಲಿಲ್ಲ
##ಲಾಕ್
##ಲಾದರೂ
##ಲಾಯಿಸುವ
##ಲಿದ
##ಲೋಡ್
##ಳಿಸಲಾದ
##ಳುತ್ತದೆ
##ಳುತ್ತಾರೆ
##ಳ್ಳಬಹುದು
##ವಸ್ಥೆ
##ವಾಗದೆ
##ವಾಗಿರುವುದಿಲ್ಲ
##ವಾಜ್
##ವಾಮಿ
##ವಾಳ
##ವಾಸದ
##ವುದನ್ನು
##ವೇದಿ
##ಶಕದ
##ಷಿಯಾ
##ಷಿಸಿ
##ಷ್ಣುತೆ
##ಸಂಗ್
##ಸದಲ್ಲಿ
##ಸದಸ್ಯ
##ಸುತ್ತಾಳೆ
##ಸುವನು
##ಸ್ಕರ್
##ಸ್ಟನ್
##ಸ್ಥರು
##ಾನರ್
##ಾಪಕರು
##ಾಲೆ
##ಾಹಾರ
##ಿದ್ರು
##ಿಸಲ್ಪಟ್ಟಿದೆ
##ಿಸುತ್ತೀರಿ
##ೀರೊ
##ುತ್ತಿಲ್ಲ
##ುಲ್ಲಾ
##ೂಂದಿಗೆ
##ೂಳ್ಳಬೇಕು
##ೂಳ್ಳಲಾಗುವುದು
##ೆಂಬುದು
##ೇದ್
##ೇರಿತು
##ೊನ್
##ೊಳ
##ೊಳೆ
##ೌನ್
##್ಕಾರ
##್ರಿಡ್ಜ್
175
20ರಷ್ಟು
300ಕ್ಕೂ
4ನೇ
97
ಅಂದ್ಹಾಗೆ
ಅಗರವಾಲ್
ಅಣಬೆಗಳು
ಅದ್ಭುತವಾಗಿದೆ
ಅಧಿಕಾರಿಗಳೊಂದಿಗೆ
ಅನೂಪ್
ಅಪರ
ಅಬ್ಬರ
ಅರಸನಿಗೆ
ಅಲ್ಲಿಯೂ
ಅಸಿಸ್ಟೆಂಟ್
ಆಗಿರಲಿ
ಆಜ್ಞೆಯನ್ನು
ಆಟಗಳು
ಆಡಳಿತಕ್ಕೆ
ಆತ್ಮವು
ಆರಂಭಿಸುವ
ಆಲೋಚನೆಗಳು
ಆಳ್ವ
ಇಳಿದಿದೆ
ಇಸ್ರಾಯೇಲ್ಯರನ್ನು
ಇಸ್ರಾಯೇಲ್ಯರಿಗೆ
ಈಗಷ್ಟೇ
ಈಚೆಗೆ
ಉತ್ಪಾದನೆಯಲ್ಲಿ
ಉಪರಾಷ್ಟ್ರಪತಿ
ಉಲ್ಲೇಖಿಸಲಾಗಿದೆ
ಎಂದನು
ಎಎನ್
ಎಷ್ಟೇ
ಐವತ್ತು
ಒಂದಾದ
ಒಂದೆಡೆ
ಒಳ್ಳೆಯದಲ್ಲ
ಕಂಡಿದ್ದಾರೆ
ಕಂಪನಿಯಾದ
ಕಟ್ಟು
ಕಣದಲ್ಲಿದ್ದಾರೆ
ಕಣ್ಣುಗಳ
ಕಲಿಯುವುದು
ಕಾಲಿನ್
ಕಾಶ್ಮೀರಿ
ಕೀಲಿಮಣೆ
ಕೂಡಿಸಿ
ಕೃತ್ಯವನ್ನು
ಕೆಲಸವಲ್ಲ
ಕೈಗೊಳ್ಳುವುದಾಗಿ
ಕೊಡುಗೆಯನ್ನು
ಕೊಡುತ್ತಾರೆ
ಕೊರೊನಾವೈರಸ್
ಕೊಲ್ಲಲು
ಕೊಹ್ಲಿಗೆ
ಕ್ರೈಸ್ತರ
ಖಂಡಿಸಿದ್ದಾರೆ
ಗಾಂಧಿಯವರು
ಗಾತ್ರದಲ್ಲಿ
ಗಾಯಾಳು
ಗಾಯಾಳುಗಳಿಗೆ
ಗೈರು
ಗೊತ್ತಾಗುತ್ತಿಲ್ಲ
ಗ್ರೇ
ಘಟನೆಗಳ
ಚದುರಿಸಲು
ಚರ್ಚಿಸಲಾಗುವುದು
ಚರ್ಮಕ್ಕೆ
ಚಾಲಿತ
ಚಿತ್ರವನ್ನ
ಚುನಾವಣೆಗೂ
ಜನರಿಗಾಗಿ
ಜನಿಸಿದ
ಜೇಸನ್
ಜೈಶ್
ಟಾರ್ಗೆಟ್
ಡೈರೆಕ್ಟರ್
ಡ್ರಗ್ಸ್
ತಂತ್ರಗಳನ್ನು
ತಡ
ತಪ್ಪದೆ
ತಪ್ಪಿಸಿಕೊಳ್ಳಲು
ತಲೆನೋವು
ತಿಂಗಳಿನಿಂದ
ತಿಳಿ
ತೆರೆಯಿರಿ
ದಟ್ಟ
ದರು
ದಾಖಲಿಸಿದ್ದು
ದಿಲ್
ದೃಷ್ಟಿಕೋನವನ್ನು
ಧರ್ಮಕ್ಕೆ
ಧಾವಿಸಿದ
ಧ್ವನಿಯನ್ನು
ನಗರಾಭಿವೃದ್ಧಿ
ನಡೆದರೆ
ನಾಪತ್ತೆ
ನಿಧನರಾಗಿದ್ದಾರೆ
ನಿರ್ಧರಿಸಲಾಗಿದೆ
ನಿವ್ವಳ
ನೀನೂ
ನೋಡಬೇಕಿದೆ
ನ್ಯಾಯಾಧೀಶರ
ಪಂಕಜ್
ಪರಿಸರಕ್ಕೆ
ಪರ್ಸೆಂಟ್
ಪಾಠವನ್ನು
ಪೆಸಿಫಿಕ್
ಪ್ರದರ್ಶನದಲ್ಲಿ
ಪ್ರಯಾಣಕ್ಕೆ
ಪ್ರಯಾಣಿಕರನ್ನು
ಪ್ರವಾಹದ
ಪ್ರವೇಶಿಸುವ
ಫಿಕ್ಸ್
ಫಿಟ್ನೆಸ್
ಫೌಂಡೇಶನ್
ಬರುತ್ತೆ
ಬಳಲುತ್ತಿದ್ದ
ಬಿಜೆಪಿಯವರಿಗೆ
ಬಿದ್ದಿವೆ
ಬೈಕಿನಲ್ಲಿ
ಬ್ಯಾಟರಿಯನ್ನು
ಭಕ್ತರಿಗೆ
ಭವನ
ಮತ್ತೋರ್ವ
ಮದ್ದು
ಮನವರಿಕೆ
ಮನೀಷ್
ಮಾತನಾಡಿಲ್ಲ
ಮಾರ್ಕೆಟಿಂಗ್
ಮುಂದುವರಿಸಿ
ಮುರಿದ
ಮೃತಪಟ್ಟರು
ಮೆರವಣಿಗೆಯಲ್ಲಿ
ಮೊದಲಿನಿಂದಲೂ
ಯುವಕನನ್ನು
ಯೋಸೇಫನು
ಯೋಹಾನನು
ರಕ್ಷಣೆಗಾಗಿ
ರಣಜಿ
ರಣಾವತ್
ರವಾನೆ
ರಾಕೆಟ್
ರಾಗಿ
ರುಚಿಕರವಾದ
ರೆಸ್ಟೋರೆಂಟ್
ಲಖನೌ
ಲೇಖನವು
ವಾಸ
ವಿಂಗ್
ವಿತ್
ವಿದ್ಯುನ್ಮಾನ
ವಿಫಲಗೊಂಡಿದೆ
ವಿರಳವಾಗಿ
ವೆಲ್ತ್
ವೇಗವಾಗಿ
ವ್ಯತ್ಯಾಸವನ್ನು
ವ್ಯಾಪಾರಿ
ಶಿಫ್ಟ್
ಶುಶ್ರೂಷಾ
ಶೂಟರ್
ಶೈಲಿಯನ್ನು
ಷರತ್ತು
ಸಂಜೀವ್
ಸದರಿ
ಸಭೆಗಳು
ಸಮಿತಿಯು
ಸಮೃದ್ಧ
ಸಮೃದ್ಧವಾಗಿದೆ
ಸಮೃದ್ಧಿ
ಸಮೇತ
ಸಾಲಮನ್ನಾ
ಸಿಕ್ಕಿತ್ತು
ಸಿಕ್ಕಿದ್ದು
ಸಿಗುತ್ತವೆ
ಸಿಲುಕಿದ್ದಾರೆ
ಸುದ್ದಿಗಳು
ಸುರಕ್ಷತೆಗೆ
ಸೃಷ್ಟಿಸುವ
ಸ್ಕ್ರಿಪ್ಟ್
ಸ್ಥಳಕ್ಕಾಗಮಿಸಿ
ಸ್ಥಾನದ
ಸ್ಪಷ್ಟಪಡಿಸಿದೆ
ಸ್ಪೇಸ್
ಸ್ವೀಕರಿಸಲು
ಸ್ವೀಕರಿಸಿದ್ದಾರೆ
ಹದಗೆಟ್ಟಿದೆ
ಹರಿಸಿ
ಹಾಕಲಾಗಿತ್ತು
ಹಾಡಿಗೆ
ಹಿಂದಿರುವ
ಹಿಂದೂಗಳ
ಹಿಡಿದಿದೆ
ಹುಚ್ಚು
ಹುದ್ದೆಯ
ಹೂ
ಹೃದಯದಿಂದ
ಹೆಸರಲ್ಲಿ
ಹ್ಯಾರಿ
##22
##et
##he
##ಂಟಾಗಿದೆ
##ಂಪೂ
##ಐಎಸ್
##ಗಡಿ
##ಗನುಸಾರ
##ಗಳನ್ನೆಲ್ಲಾ
##ಗುಣ
##ಗೊಳಿಸಿರುವ
##ಗೋಳ
##ಘು
##ಚನ್
##ಚಿತ್ರಗಳು
##ಚಿತ್ರವನ್ನು
##ಚೆಯ
##ಟಿಪಿ
##ಡಗಿರುವ
##ಡಿತರ
##ಡಿಸುತ್ತಿದೆ
##ಡೋದು
##ಡ್ಸೆ
##ತಂತ್ರ
##ತವಾದ
##ತ್ತುವ
##ದಳದ
##ದುರಿಗೆ
##ದುಳು
##ದೇವಿ
##ನಗಳ
##ನಾಗಿದ್ದು
##ನೆಂಬ
##ನೊಬ್ಬ
##ಪಡಿಸಲಾಗುವುದು
##ಪಡಿಸುತ್ತಿದ್ದಾರೆ
##ಪಾತದ
##ಪಿನಿಂದ
##ಪಿಸಲು
##ಬೇಕಿದ್ದ
##ಬ್ಬು
##ಭಕ್ತ
##ಭಾಷೆ
##ಮಂಗಲ
##ಮಗಳು
##ಮವು
##ಮಾಂಸ
##ಮಾಣ
##ಮಾನದ
##ಮುಖ್ಯ
##ಮೇಶ್ವರ
##ಯಕ
##ಯದು
##ಯವರೆಗೆ
##ರಬೇಕಾಗುತ್ತದೆ
##ರಿಟ್
##ರಿಸುತ್ತಿವೆ
##ರೆಯುವ
##ರೋಣ
##ರ್ಮನ್
##ಲಾಗಿದ್ದ
##ಲಾಗುತ್ತಿರುವ
##ಲೂರು
##ಲ್ಫ್
##ಲ್ಲಿಗೆ
##ಳಿಗೆಯ
##ಳಿಯುವುದಿಲ್ಲ
##ಳೆಯಿತು
##ವರಾಗಿದ್ದರು
##ವಾಗಿರಲಿ
##ವಾದದ್ದಾಗಿದೆ
##ವಾರಿ
##ವೈರಸ್
##ವ್ಯಾಸ
##ಶತಕ
##ಶಾಂತ್
##ಷ್ಟಕ್ಕೇ
##ಸಭೆಯಲ್ಲಿ
##ಸವ
##ಹಾಕುವ
##ಹೀದ್
##ಾಗಿದ್ದವು
##ಾಡಲು
##ಾಡಿದರು
##ಾದೆ
##ಾಪುರ
##ಾಲಯದಲ್ಲಿ
##ಿಗೊಂದು
##ಿರುವಲ್ಲಿ
##ೀಕರಿಸಿ
##ುದ್ದಾಗಿ
##ುದ್ದು
##ೂತ
##ೆರಳು
##ೈಪ್
##ೈಲಿ
##ೊಳ್ಳಿ
##ೋಕ್ಸ್
##ೋತ್
##್ತದೆ
##್ದಲ್ಲ
##್ಪಣೆ
##್ಬೇಕು
##್ಯಾಂಟ್
##್ರಮೆ
##್ರೈ
##್ಲೂ
##್ಸಿ
##ೕಡಿ
##೦೦
03
13ನೇ
COVID
Kannadaprabha
ಅಜೇಯ
ಅಧ್ಯಕ್ಷತೆಯಲ್ಲಿಂದು
ಅನಾರೋಗ್ಯದ
ಅನುಮಾನಾಸ್ಪದ
ಅನ್ನುವುದು
ಅಪ್ಲಿಕೇಶನ್
ಅಭಿಮಾನಿಗಳಲ್ಲಿ
ಅಮೇರಿಕನ್
ಅಲ್ಲೂ
ಅವುಗಳಿಂದ
ಆಟಗಾರರಿಗೆ
ಆತನೇ
ಆರ್ಪಿಎಂನಲ್ಲಿ
ಇಂಟರ್ನಲ್
ಇದನ್ನೆಲ್ಲ
ಇಪಿಎಫ್
ಇವನಿಗೆ
ಇಷ್ಟಪಡುತ್ತೇನೆ
ಈಕೆಯ
ಉಲ್ಲೇಖಿಸಿ
ಉಳಿದಿಲ್ಲ
ಉಳ್ಳಾಲ
ಎಪಿಎಂಸಿ
ಒಂದಕ್ಕೊಂದು
ಒಣಗಲು
ಔಷಧಿಗಳ
ಕಂಚು
ಕಂಡುಕೊಳ್ಳಲು
ಕಮಲ
ಕಮಿಷನ್
ಕರುಣಾನಿಧಿ
ಕಲರ್
ಕಲ್ಲುಗಳನ್ನು
ಕಾಯಿಲೆಗಳು
ಕಾರುಗಳಲ್ಲಿ
ಕಾಲಾವಕಾಶ
ಕಾಲಿಗೆ
ಕಾಲೇಜುಗಳ
ಕೇಂದ್ರವು
ಕೇಳುತ್ತಾರೆ
ಕೊಡುವಂತೆ
ಕೋಪವನ್ನು
ಕ್ರೂರ
ಕ್ಲಿಂಟನ್
ಕ್ಷಿಪ್ರ
ಖಾತೆಗಳನ್ನು
ಗಂಟೆ
ಗಮನಾರ್ಹವಾದ
ಗಾಯಕಿ
ಗಾರ್ಡನ್
ಗುಂಪುಗಳ
ಗೆಲ್ಲಲಿದೆ
ಗೊತ್ತಿರುವ
ಚಿತ್ರರಂಗ
ಚೈತನ್ಯ
ಜನಾಂಗದ
ಜಾಗರೂಕತೆಯಿಂದ
ಜಾಮೀನಿನ
ಜೀವನದಲ್ಲಿ
ಜೀಪ್
ಜೀವನಾಧಾರಿತ
ಜ್ಯೋತಿ
ಟರ್ಮಿನಲ್
ತಂಡಗಳಿಗೆ
ತಂದಿದ್ದಾರೆ
ತತ್
ತನಿಖೆಗಾಗಿ
ತಮಾಷೆ
ತಲುಪಬಹುದು
ತಿಳಿದಿರುವ
ತಿಹಾರ್
ತುಂಬಾನೇ
ತುರಿಕೆ
ದಶಕಗಳ
ದಿನಗಳನ್ನು
ದು
ದೂರವಿರಿ
ದೇವಸ್ಥಾನವು
ದೇವಿಯ
ನಿಧನದಿಂದ
ನಿರ್ಮಿಸುವ
ನೀತಿಯು
ನೆರವಿನ
ನೋ
ನ್ಯಾಯಮೂರ್ತಿಗಳಾದ
ನ್ಯಾಯಾಲಯಗಳು
ಪಡೆಯುವಲ್ಲಿ
ಪದಕಗಳನ್ನು
ಪರಿಗಣಿಸೋಣ
ಪಾಲಿಸಿ
ಪಿಯುಸಿ
ಪೆÇಲೀಸರು
ಪ್ರಕಾಶ
ಪ್ರವಾಹಕ್ಕೆ
ಪ್ರಶಸ್ತಿಯು
ಪ್ರಸ್ತಾಪವನ್ನು
ಫಾರ್ಮರ್
ಫುಟ್
ಬದುಕಿಗೆ
ಬರುತ್ತಿದ್ದ
ಬಲಗೈ
ಬಳಸಲಾಗಿದೆ
ಬಳಸುತ್ತದೆ
ಬಾಲ್ಯದಿಂದಲೂ
ಬಿಂದು
ಬೂಮ್ರಾ
ಬೆಲ್ಲ
ಬೇಕಾಗುವ
ಬೇಕಿತ್ತು
ಬೇಸಿಗೆಯಲ್ಲಿ
ಬೋಧನೆ
ಬೋನಿ
ಭಕ್ತಾದಿಗಳು
ಭಗತ್
ಭತ್ತ
ಭಾಗವಹಿಸಿದ್ದಾರೆ
ಭಾರತದಲ್ಲೇ
ಭಾಷೆಗಳನ್ನು
ಮನರಂಜನಾ
ಮನೆಯಲ್ಲಿಯೇ
ಮನೋರಂಜನೆ
ಮನ್ನಣೆ
ಮಾಡದ
ಮಾಡಿಕೊಳ್ಳುವುದು
ಮಾತನಾಡುತ್ತೇನೆ
ಮಾರ್ಗಗಳು
ಮಾರ್ಗಸೂಚಿಗಳನ್ನು
ಮಾಲೀಕರು
ಮೀನುಗಾರರು
ಮುಂಜಾನೆ
ಮುಕೇಶ್
ಮುಖ್ಯವಾಗುತ್ತದೆ
ಮುಗಿದಿಲ್ಲ
ಮುಲಾಯಂ
ಮೂಡಿದೆ
ಯಾರ್ಕ್
ಯಾವೆಲ್ಲ
ಯೆಶಾ
ಯೋಧರಿಗೆ
ರಕ್ತದಲ್ಲಿನ
ರಸವನ್ನು
ರಾ
ರಾಜಕುಮಾರ
ರಾತ್ರಿಯ
ರಾಮಮಂದಿರ
ರಿಷಿ
ರೀಮೇಕ್
ರೂಟ್
ರೇಟ್
ರೋಗನಿರ್ಣಯ
ರೋಸ್
ಲಭ್ಯವಿರುತ್ತದೆ
ಲಾಗಿನ್
ಲೈನ್ಸ್
ವಾಕ್ಯದಲ್ಲಿ
ವಾಗಿದೆ
ವಾರಗಳಲ್ಲಿ
ವಿತರಣಾ
ವಿಧಾನಗಳಿವೆ
ವಿಧಾನಪರಿಷತ್
ವಿನ್ಯಾಸದ
ವಿಭಜನೆ
ವಿಶ್ವಾಸವನ್ನು
ವೈಶಿಷ್ಟ್ಯಗಳನ್ನು
ಶರಣು
ಶಶಾಂಕ್
ಶಾಸ್ತ್ರ
ಶಿವಕುಮಾರ
ಶೂಟ್
ಸಂಘಟನೆಗೆ
ಸಂಸದರ
ಸಮತೋಲನ
ಸಮುದ್ರಕ್ಕೆ
ಸರಿಪಡಿಸಲು
ಸಲ್ಲಿಸಬೇಕು
ಸಾಂಕೇತಿಕ
ಸಾಯಿ
ಸಾವಿರಕ್ಕೂ
ಸಿಡ್ನಿ
ಸುಟ್ಟ
ಸೂಚನೆಗಳು
ಸೃಷ್ಟಿಸಿದೆ
ಸೇವೆ
ಸೇರಿದವರು
ಸೇವನೆಯಿಂದ
ಸೈನಿಕರನ್ನು
ಸ್ಟೀಲ್
ಹಣದುಬ್ಬರ
ಹತ್ತಾರು
ಹಫೀಜ್
ಹಲವರ
ಹಿತ
ಹುಡಿ
ಹೂಡಿಕೆಯ
ಹೇಳುತ್ತಿದ್ದರು
ಹೊಣೆಗಾರಿಕೆ
ಹೋಗಬಹುದು
##1ರಲ್ಲಿ
##80
##ame
##ಂಗಾಲಿ
##ಕರಿಸುತ್ತಾರೆ
##ಕಾಮ್
##ಕಾಲು
##ಕೂಟ
##ಕೊಂಡಂತೆ
##ಕೊಡಲಾಗಿದೆ
##ಕೊಳ್ಳುತ್ತೀರಿ
##ಕೊಳ್ಳುವಾಗ
##ಗಟ್ಟಿದ
##ಗವಾಗಿ
##ಗಿಸಲಾಗುತ್ತದೆ
##ಗೊಂಡವು
##ಗೊಳ್ಳಲಿವೆ
##ಗ್ರಹವನ್ನು
##ಡಬೇಕಾಯಿತು
##ಡಲೂ
##ಡಾರ್
##ಡಿತು
##ಡಿಸಲಾಗಿದೆ
##ಣೆಗಳು
##ಣ್ಯದ
##ತರಿಸಿ
##ತಾಗಿ
##ದರಲ್ಲೇ
##ದಾಗಲಿ
##ದಿನದ
##ದುಕೊಂಡು
##ದೊ
##ದ್ದೇನಂದರೆ
##ದ್ಯಾ
##ಧಿತ
##ಧಿಸಲು
##ಧ್
##ಧ್ಯಾಯ
##ನಗರದ
##ನರಿಗೆ
##ನಸು
##ನಾಸ್
##ನಿದ್ದೇನೆ
##ನಿರೋಧಕ
##ನೆಂಬುದನ್ನು
##ನ್ನೆ
##ನ್ಯಾ
##ಪಕ್ಕೆ
##ಪಡಿಸಿದ್ದು
##ಪಾಡಿ
##ಪ್ಟಿಲ್
##ಪ್ಪಲ್ಲ
##ಬಿಕ್
##ಬಿಡದೆ
##ಬಿಡು
##ಬೆಲ್
##ಬೇಕೆಂಬುದು
##ಯಿಸಲಾಗಿದೆ
##ಯುತ್ತಿದ್ದರು
##ಯೋಗದಲ್ಲಿ
##ಯ್ಯುವ
##ರಣಗಳು
##ರಿಕಾ
##ರಿತು
##ರಿಸಲಾಗುವುದು
##ರೆಟ್
##ಲಕ್ಷ್ಮಿ
##ಲಾಗುತ್ತಿಲ್ಲ
##ಲಿನಿ
##ಳಗಿಂದ
##ಳಿಗಳು
##ಳುತ್ತವೆ
##ಳ್ಳಲಿದ್ದಾರೆ
##ವಣ
##ವರ್ಕ್
##ವಾಗುತ್ತೆ
##ವೇನಿಲ್ಲ
##ವೇನೆಂದು
##ಶದಲ್ಲಿ
##ಷವನ್ನು
##ಷಿಯನ್
##ಷ್ಮಾ
##ಸಂಪರ್ಕ
##ಸಬಲ್ಲ
##ಸರಿಸಲು
##ಸವಾದ
##ಸಾಗಿದೆ
##ಸಿಐ
##ಸಿಡ್
##ಸಿಸ್ಟ್
##ಸುತ್ತಿರುವುದು
##ಸುವವರು
##ಸ್ತಾನ್
##ಹ್ನೆ
##ಾಂತ್ಯ
##ಾಗಿರುತ್ತಾರೆ
##ಾಗೆ
##ಾಟರ್
##ಾಪಕ್ಕೆ
##ಾವಳಿಗಳು
##ಿಡಿ
##ಿಯನ್
##ಿಸದ
##ಿಸದೇ
##ಿಸಿಕೊಂಡಿದ್ದಾರೆ
##ೀಯವಾಗಿ
##ುತಿ
##ುದೆಂದರೆ
##ುವನು
##ೂಪ್
##ೂರಿನಲ್ಲಿ
##ೂಲ
##ೂಳಿಸಿದೆ
##ೃಹ
##ೆಗಳಲ್ಲಿ
##ೆದುರು
##ೆನೆಂದು
##ೆಲ್ಲರಿಗೂ
##ೇಕಾ
##ೇನಾ
##ೇನೋ
##ೇಮ್
##ೇಳ
##ೇಳದೆ
##ೇವ್
##ೋದ್ಯಮ
##ೋಧನಾ
##ೋಮ್
##ೋರು
##ೋಸ್ಕರ
##್ತಾನೆ
##್ದಳು
##್ವಾಡ್
##ೕಗ
##ೕಜ್
##ೕರೆಂಟ್
##ೕಲ್
09
3ನೇ
5ರಷ್ಟು
82
ಅಂತರ್ಜಲ
ಅಡ್ಡಪರಿಣಾಮಗಳು
ಅದುವೇ
ಅಧ್ಯಯನದಲ್ಲಿ
ಅಧ್ಯಯನವು
ಅನಿವಾರ್ಯವಲ್ಲ
ಅನುಭವಿಸಿದೆ
ಅಭಿನಂದನ್
ಅಭಿನಂದಿಸಿದರು
ಅಲರ್ಜಿ
ಅಳತೆ
ಅವ್ಯವಹಾರ
ಅಶೋಕ
ಅಸ್ತಿತ್ವದಲ್ಲಿಲ್ಲ
ಆಕಾರ
ಆಕ್ಸ್
ಆಡಳಿತವನ್ನು
ಆಸೀಸ್
ಇನ್ನೊಮ್ಮೆ
ಇರುವುದನ್ನು
ಇಲ್ಲೂ
ಇಳಿದ
ಇಸ್ರಾ
ಉಂಟಾಗಿರುವ
ಉತ್ಪನ್ನದ
ಎಎಲ್
ಎತ್ತರಕ್ಕೆ
ಎನ್ನುವುದಕ್ಕೆ
ಎಲೆ
ಎಲ್ಲರು
ಎಸ್ಯುವಿಯನ್ನು
ಐಡಿಯಾ
ಒತ್ತಡಕ್ಕೆ
ಒಪ್ಪಿಕೊಂಡರು
ಓಂ
ಕತ್ತಿ
ಕರಂದ್ಲಾಜೆ
ಕರುಣ್
ಕಸ್ಟಡಿಗೆ
ಕಾರಣವಿದೆ
ಕಾರ್ಯವು
ಕೇರಳಕ್ಕೆ
ಕೈಗೊಳ್ಳಲಿದೆ
ಕ್ರಮದ
ಗಳೊಂದಿಗೆ
ಗಾಜಿನ
ಗಾಯಗಳು
ಗಾಯಗೊಂಡು
ಗೊತ್ತಾಯಿತು
ಗ್ಯಾಂಗ್
ಚಂಡಮಾರುತ
ಚಲಿಸುವ
ಚೆನ್ನೈನ
ಚೇಂಜ್
ಜನಕ್ಕೆ
ಜನಜೀವನ
ಜಹಾನ್
ಜೈಶಂಕರ್
ಡಿಸಿಪಿ
ಡುಕಾಟಿ
ತಡೆಗಟ್ಟುವ
ತಪ್ಪಾಗಿದೆ
ತಪ್ಪಿತಸ್ಥ
ತಪ್ಪಿಲ್ಲ
ತಾಣಗಳಲ್ಲಿ
ತಾಯಿಯನ್ನು
ತಿಳಿಸಿದನು
ತೆಗೆದುಕೊಳ್ಳುವುದು
ತೆರಳಲು
ತೆಲಂಗಾಣದಲ್ಲಿ
ತೋಮರ್
ತೋರಿಸುವುದು
ಥಿಯೇಟರ್
ದಂಪತಿಗಳು
ದಂಪತಿಯ
ದಕ್ಷಿಣದ
ದಾನಿಯೇಲ
ದಾವಣಗೆರೆ
ದಿನವಿಡೀ
ದೂರದಲ್ಲಿದೆ
ದೃಢೀಕರಣ
ದೃಶ್ಯವನ್ನು
ದೇಹವು
ದೋಣಿ
ಧರ್ಮದಲ್ಲಿ
ಧರ್ಮವನ್ನು
ನಂದಿಸುವಲ್ಲಿ
ನಂಬಲಾಗಿದೆ
ನಡೆಯುವುದಿಲ್ಲ
ನಮಗೇನು
ನಾನೆಂದೂ
ನಾನೇನೂ
ನಾನ್
ನಾಮವನ್ನು
ನಿಜವಲ್ಲ
ನಿರಾಕರಿಸಿದ
ನಿರಾಕರಿಸಿದ್ದರು
ನಿರ್ದೇಶಕರಾಗಿ
ನಿರ್ಮೂಲನೆ
ನಿಲ್ಲುತ್ತದೆ
ನಿಶ್ಚಯವಾಗಿಯೂ
ನಿಷ್ಠಾವಂತ
ನೋಡಿಕೊಳ್ಳಿ
ನೋಡುವುದು
ಪಂದ್ಯಾವಳಿಯಲ್ಲಿ
ಪಡೆದರೆ
ಪರಿಸ್ಥಿತಿಗೆ
ಪರಿಹಾರಗಳನ್ನು
ಪಶು
ಪಾಕವಿಧಾನ
ಪಿನ್
ಪುರಸಭೆ
ಪುಸ್ತಕಗಳ
ಪೆಟ್ಟು
ಪೇದೆ
ಪ್ರಕರಣವು
ಪ್ರಚೋದನೆ
ಪ್ರವೇಶವನ್ನು
ಪ್ರಶ್ನೆಯಾಗಿದೆ
ಪ್ರೀತಿಸಿ
ಪ್ರೈಮ್
ಫಲಾನುಭವಿಗಳಿಗೆ
ಫಿಲಿಪ್ಪಿ
ಬಂದಿದ್ದವು
ಬರಬೇಕಿದೆ
ಬಳಗ
ಬಹುದು
ಬಾಗಲಕೋಟೆ
ಬಾಣಲೆಯಲ್ಲಿ
ಬಿಡಬೇಕು
ಬೆಂಕಿಯಿಂದ
ಬೆಂಗಳೂರಿನಿಂದ
ಭಗವಂತ
ಭಾಗಗಳಾಗಿ
ಭಾರತದಲ್ಲಿನ
ಭಾವನೆಗಳಿಗೆ
ಭಿನ್ನವಾಗಿರುತ್ತದೆ
ಭೂಮಿಯು
ಭೋಜನ
ಭ್ರಷ್ಟ
ಮನುಷ್ಯನನ್ನು
ಮಲೈಕಾ
ಮಾಡಲಾಗಿಲ್ಲ
ಮಾಡುವಂತಿಲ್ಲ
ಮಾಡುವುದರ
ಮಾಡುವುದರಲ್ಲಿ
ಮಾಡ್ತಾ
ಮಾನನಷ್ಟ
ಮಾನವಕುಲದ
ಮಾರಾಟವನ್ನು
ಮಿತ್ರ
ಮಿಲಿ
ಮುಂದಿರುವ
ಮುಗಿಸಿದ
ಮೂಡಿಸಬೇಕು
ಮೊತ್ತಕ್ಕೆ
ಯೆರೆಮಿಾಯ
ಯೆಹೂದ್ಯರ
ಯೆಹೋವನಿಂದ
ಯೋಗ್ಯ
ರಣ್ವೀರ್
ರಾಜೀನಾಮೆಗೆ
ರೈಲಿನಲ್ಲಿ
ಲಭ್ಯತೆ
ಲೆಗ್
ಲೇಖನದಲ್ಲಿ
ವಕ್ತಾರರು
ವರ್ಷನ್
ವಾತಾವರಣದಲ್ಲಿ
ವಾರ್
ವಾಲಾ
ವಿವಾಹದ
ವಿವಿಧೆಡೆ
ವಿಸ್ತಾರವಾದ
ವೃತ್ತಿಯಲ್ಲಿ
ವೃದ್ಧಿ
ವೈಫೈ
ವ್ಯಕ್ತವಾಗುತ್ತಿದೆ
ವ್ಯಾಪಾರದಲ್ಲಿ
ಶಂಕಿಸಲಾಗಿದೆ
ಶಿಕ್ಷೆಯನ್ನು
ಸಂಕಟ
ಸಂಖ್ಯೆಗಳು
ಸಂಗಾತಿಯ
ಸಂತ್ರಸ್ತೆ
ಸಂವಿಧಾನಕ್ಕೆ
ಸದನದ
ಸಲ್ಲಿಸಲಾಗಿತ್ತು
ಸಹಭಾಗಿತ್ವ
ಸಾಧ್ಯತೆಗಳು
ಸಿಸಿಬಿ
ಸುಬ್ರಹ್ಮಣ್ಯ
ಸೂಕ್ತವಾಗಿದೆ
ಸೇರಿಸಲು
ಸೇರಿಸಿದರು
ಸೇವಿಸುವ
ಸೋನಿ
ಸೋನು
ಸ್ಟಾಗ್ರಾಂ
ಸ್ಥಳಕ್ಕಾಗಮಿಸಿದ
ಸ್ಯಾಂಡಲ್
ಹಠಾತ್
ಹರಡುತ್ತದೆ
ಹರಿಯಾಣದ
ಹಿಂದಿನಿಂದಲೂ
ಹೂವು
ಹೆಕ್ಟೇರ್
ಹೆಚ್ಚಾಗಲಿದೆ
ಹೆಚ್ಚುತ್ತಲೇ
ಹೆಲ್ತ್
ಹೋಟೆಲ್
ಹೇಳಲಾಗುತ್ತದೆ
ಹೋಗಲ್ಲ
##2ರಲ್ಲಿ
##5ರಲ್ಲಿ
##ation
##ಂಜಾ
##ಂದನಾ
##ಔಟ್
##ಕರಿ
##ಕಾಂತ
##ಕೊಳ್ಳಬಹುದು
##ಕೊಳ್ಳುವುದಿಲ್ಲ
##ಕೊಂಡಾಗ
##ಕೊಂಡಿದ್ದೆ
##ಕ್ಷಾ
##ಖರ್
##ಗತಿಯ
##ಗಳಾಗಿದ್ದಾರೆ
##ಗವು
##ಗೊಳ್ಳಲಾಗುತ್ತದೆ
##ಗೊಳ್ಳಿ
##ಚರಿಸುತ್ತಾರೆ
##ಚಾದ
##ಚಿದ
##ಚ್ಚಿದ
##ಟ್ಟಿದ
##ಡಬಹುದಾದ
##ಡರೇಷನ್
##ಡಳಿತ
##ಡಿಗಳ
##ಡಿಸಬೇಕು
##ತಃ
##ತಾಗಿದೆ
##ತಾನು
##ತಿಯು
##ತುವಿನ
##ತೋ
##ತ್ವಕ್ಕೆ
##ಥನ್
##ದಾದರೆ
##ದ್ದವರು
##ದ್ದಿದೆ
##ದ್ದಿನ
##ದ್ದೆವು
##ಧ್ಯಕ್ಷ
##ಧ್ಯತೆ
##ನಾಮಿ
##ನಿಸುವ
##ನಿಸುವುದು
##ನೀರು
##ನೋರ್ವ
##ಪತ್ರ
##ಪಿಐ
##ಪೂ
##ಪೊ
##ಫೀ
##ಬಾಜ್
##ಬಿಡುವ
##ಭವ
##ಭೂತಿ
##ಭ್ಯ
##ಮಂಡಲ
##ಮಿಲಿ
##ಮಿಸಲು
##ಮಿಸುತ್ತಾರೆ
##ಮೋನನ
##ಯಾಗಿಯೇ
##ಯುತ್ತಾನೆ
##ಯುತ್ತೇವೆ
##ಯ್ಯಲಾಯಿತು
##ರಡರಲ್ಲೂ
##ರಾಜ್ಯದ
##ರಾಯಿತು
##ರಿಯು
##ಲಗಿ
##ಲಾಯಿಸು
##ಲಿಸಿದ
##ಲೆಸ್
##ಲ್ಯು
##ಲ್ಲರ್
##ಳಿಸಲಾಗುತ್ತಿದೆ
##ಳ್ಳಲು
##ವದನ್ನು
##ವಾರ್
##ವಿದ್ದೇವೆ
##ವಿಸಿ
##ವುದಕ್ಕೂ
##ವೆಲ್ಲರೂ
##ಶಿಪ್
##ಷಗಳು
##ಷ್ಕರ್
##ಸತ್ವಗಳು
##ಸಲಾಗಲಿಲ್ಲ
##ಸಾರವಾಗಿ
##ಸಾಸ್
##ಸಿಕೊಳ್ಳುವುದು
##ಸಿದವು
##ಸಿಲ್
##ಸುಗಳನ್ನು
##ಸುವಂತಾಗಿದೆ
##ಸುವಂತಿಲ್ಲ
##ಸೆಯಲ್ಲಿ
##ಸೋದು
##ಸ್ಕೃತ
##ಸ್ಟಿ
##ಸ್ಪದ
##ಹಾಯ
##ಹಿಸಲಾಗಿತ್ತು
##ಾಂಗಿ
##ಾಕೋ
##ಾಕ್ಸ್
##ಾಗಿರುವುದು
##ಾಡುವ
##ಾಲಾ
##ಾವಾ
##ಾಶ
##ಿಕ್ಷಾ
##ಿಡುವ
##ಿತವಾಗಿದೆ
##ಿಸ
##ಿಸಲ್ಪಟ್ಟಿರುವ
##ಿಸಿದ್ದೇವೆ
##ಿಸುತ್ತಿಲ್ಲ
##ೀಕರಿಸಲಾಗಿದೆ
##ೀಬ್
##ುದ
##ುದೇಕೆ
##ುಷಾರ್
##ೂಗು
##ೂಳೆ
##ೃಷ್ಟಕರ
##ೆದರಿ
##ೆಯೂ
##ೇನೆ
##ೇತ್ರ
##ೇಬ್
##ೈತ್ಯ
##ೈಸರ್
##ೋತ್ಸವದಲ್ಲಿ
##ೋಷಿತ
##್ಯಾಪಿ
##್ರಿಲ್
##ೕಕ್ಷೆ
##ೕಡ್
15ರ
1ರಿಂದ
25ರಷ್ಟು
74
ಅಂಗಳದಲ್ಲಿ
ಅಂತಾರೆ
ಅಗರ್
ಅಗಲ
ಅನಂತಕುಮಾರ್
ಅಪರಾಧಿ
ಅಪರಿಪೂರ್ಣ
ಅಫ್ರಿದಿ
ಅಭಿಪ್ರಾಯಗಳು
ಅಭಿವೃದ್ಧಿಯನ್ನು
ಅಮರ್
ಅಮೆರಿಕಾದಲ್ಲಿ
ಅವನಿಂದ
ಆಗದು
ಆಗಮಿಸಿದ್ದಾರೆ
ಆಜ್ಞೆಗಳನ್ನು
ಆಡಿರುವ
ಆದ್ರೂ
ಆರ್ಡರ್
ಆವೃತ್ತಿಗಳಲ್ಲಿ
ಆವೃತ್ತಿಗಳು
ಆಸಕ್ತ
ಇಡಬೇಕು
ಇನ್ನಿಬ್ಬರು
ಇಲ್ಲಾ
ಉದ್ಘಾಟಿಸಿ
ಉದ್ದಕ್ಕೂ
ಉದ್ಯೋಗದ
ಉರುಳಿ
ಎಂದಲ್ಲ
ಎಂಬುವುದು
ಎಚ್ಚರಿಕೆಯನ್ನು
ಎನ್ನುತ್ತಿದ್ದಾರೆ
ಒಂದನೇ
ಒಂದಲ್ಲ
ಒದಗಿಸಬೇಕು
ಒದಗಿಸುವುದು
ಒಪ್ಪಿಸಲಾಗಿದೆ
ಒಳಗಾದ
ಕರಡು
ಕರೆನ್ಸಿ
ಕಳುಹಿಸಿದ್ದಾರೆ
ಕಳೆಯಲು
ಕಸರತ್ತು
ಕಾಂಪ್ಯಾಕ್ಟ್
ಕಾಣಲಿದೆ
ಕಾರಣವೂ
ಕಾರ್ಯತಂತ್ರ
ಕಾರ್ಯದರ್ಶಿಗಳು
ಕಾಲದಿಂದಲೂ
ಕಿಶನ್
ಕೀರ್ತನೆಗಾರನು
ಕುಡಿದ
ಕೂತು
ಕೃತ್ಯಗಳನ್ನು
ಕೃಷ್ಣಾ
ಕೆಳ
ಕೊಡಬಹುದು
ಕೊರಿಯಾದ
ಕೋಮು
ಕ್ರೀಡಾಕೂಟದಲ್ಲಿ
ಕ್ಷೇತ್ರದಲ್ಲಿನ
ಖಚಿತವಾಗಿದೆ
ಗಮನಹರಿಸಬೇಕು
ಗಳಿಸಿದ್ದರು
ಗಾಳಿಯಲ್ಲಿ
ಗುಣಮಟ್ಟವನ್ನು
ಗುಪ್ತಪದವನ್ನು
ಗೆದ್ದಿತ್ತು
ಗೆದ್ದಿರುವ
ಗೌರವವಿದೆ
ಗ್ಲೆನ್
ಘಟಕಗಳನ್ನು
ಚಟುವಟಿಕೆಗಳಿಗೆ
ಚರ್ಮವು
ಚಿಕ್ಕಬಳ್ಳಾಪುರ
ಛೋಪ್ರಾ
ಜಾಲತಾಣ
ಜಿಮ್
ಜೀವಂತ
ಟಿಪ್ಪು
ಟೀಕೆಗೆ
ಡಬ್
ಡ್ರೈವರ್
ತಂಗಿ
ತಂದಿತು
ತುಂಬಿದೆ
ತೆಗೆದುಕೊಳ್ಳಲಾಗುವುದು
ತೋರಿದ
ದರವು
ದಲಿತರು
ದಾಖಲಿಸಿತ್ತು
ದೇಶವಾಗಿದೆ
ಧಾನ್ಯಗಳು
ನಡೆದದ್ದು
ನನಗಂತೂ
ನಬಿ
ನಾಯಕರಾಗಿ
ನಾಲ್ವರನ್ನು
ನಿಂತಿದ್ದಾರೆ
ನಿಂತಿಲ್ಲ
ನಿಯಂತ್ರಿಸುತ್ತದೆ
ನಿರೀಕ್ಷೆಗಳು
ನಿರ್ಮಿಸಿ
ನಿಲ್ದಾಣದಿಂದ
ನಿವಾಸದಲ್ಲಿ
ನಿಷೇಧಿತ
ನೀಡಿದನು
ನೆಸ್
ನೋಡುವಾಗ
ಪಡುತ್ತಿದ್ದಾರೆ
ಪಡೆದುಕೊಂಡರು
ಪತ್ರಕರ್ತರು
ಪತ್ರಿಕೆಗಳಲ್ಲಿ
ಪರವಾಗಿಲ್ಲ
ಪರಿಸರವನ್ನು
ಪರ್ಲ್
ಪೂರ್ವದ
ಪೇಮೆಂಟ್
ಪ್ರಕ್ರಿಯೆಗಳು
ಪ್ರಣವ್
ಪ್ರತಿನಿಧಿ
ಪ್ರತಿಭಟನೆಯನ್ನು
ಪ್ರಪಂಚ
ಪ್ರಯತ್ನಕ್ಕೆ
ಪ್ರಯತ್ನಿಸಿದರು
ಪ್ರಯತ್ನಿಸುತ್ತಿದೆ
ಪ್ರಯಾಣವನ್ನು
ಪ್ರಾರಂಭವಾಗುತ್ತದೆ
ಫಲಕ
ಫೇರ್
ಫೋನಿನ
ಬದುಕಿ
ಬಯಸಿದ
ಬರಗಾಲ
ಬರಲಿ
ಬಹಿರಂಗಪಡಿಸಿಲ್ಲ
ಬಾತ್
ಬಿರುಗಾಳಿ
ಬುಲ್ಸ್
ಬೆಂಬಲಿಸುವ
ಬೆಳೆಯುತ್ತಿದೆ
ಬೆಳ್ಳಿಯ
ಬ್ರ್ಯಾಂಡ್
ಭಯೋತ್ಪಾದಕರು
ಭರವಸೆಗಳನ್ನು
ಭಾರತದಲ್ಲೂ
ಮಕರ
ಮಧು
ಮಧ್ಯಸ್ಥಿಕೆ
ಮರುಪಾವತಿ
ಮಾಡಬಹುದಾದ
ಮಾಡುವುದೇ
ಮಾತನಾಡುತ್ತಿದ್ದರು
ಮಾರ್ಕಸ್
ಮಾರ್ಗಗಳ
ಮೀಟರ್
ಮುಕ್ತಿ
ಮುಖಪುಟ
ಮುಸ್ಲಿಮರಿಗೆ
ಮೃದುವಾದ
ಮೈತ್ರಿಕೂಟದ
ಯಾವನಾದರೂ
ಯಾವನೂ
ಯುಗ
ಯುವತಿಯನ್ನು
ಯೂನಿಟ್
ಯೆರೂಸಲೇಮಿನ
ಯೆರೂಸಲೇಮಿನಲ್ಲಿ
ರಚಿಸುವ
ರಾಜಕುಮಾರ್
ರಾಜಮೌಳಿ
ರೂಪಿಸುವ
ರೆನಾಲ್ಟ್
ರೇಂಜ್
ರೋಗದಿಂದ
ರೋಗಲಕ್ಷಣಗಳು
ಲಭ್ಯವಿವೆ
ಲೂಟಿ
ಲೇಖನಗಳು
ವಹಿಸಿದರು
ವಿಜೇತರಾದ
ವಿಧಾನದ
ವಿನೂತನ
ವಿಷಯವೇ
ವ್ಯತಿರಿಕ್ತ
ವ್ಯಾಟ್
ಶತ್ರು
ಶರಣಾದ
ಶೀಲಾ
ಶೆಲ್
ಶೋದಲ್ಲಿ
ಶ್ರೇಣಿಯ
ಸಂಕೀರ್ಣ
ಸಂದೇಶಗಳನ್ನು
ಸಂಪರ್ಕದ
ಸಂಬಂಧವಿದೆ
ಸನ್ನಿವೇಶವನ್ನು
ಸಮರ್ಥನೆ
ಸಮ್ಮೇಳನದಲ್ಲಿ
ಸರೋವರ
ಸಹಿಸುವುದಿಲ್ಲ
ಸಾವಂತ್
ಸಾವನ್ನಪ್ಪಿದ್ದಾನೆ
ಸಾವಿರದ
ಸಾಹಿತ್ಯವನ್ನು
ಸಿನಿಮಾಕ್ಕೆ
ಸಿಬಲ್
ಸುಧಾಕರ್
ಸುರಿಯುತ್ತಾರೆ
ಸುರಿಯುತ್ತಿರುವ
ಸೆಳೆಯಲು
ಸೆಳೆಯುವ
ಸೇವಕರ
ಸ್ನ್ಯಾಪ್
ಸ್ಪರ್ಧೆಗೆ
ಸ್ವರೂಪದ
ಸ್ವರ್ಗದಲ್ಲಿ
ಹಂತವಾಗಿ
ಹಳ್ಳಿಯಲ್ಲಿ
ಹಸ್ತ
ಹಿಂದೇಟು
ಹೀಗಾಗಿಯೇ
ಹುದ್ದೆಗಳು
ಹೂಗಳು
ಹೂಡಿಕೆದಾರರು
ಹೆಚ್ಚಲಿದೆ
ಹೆಚ್ಚಿಸುವುದು
ಹೊಂದಿಲ್ಲ
ಹೇಗಿರಬೇಕು
ಹೋಗಲಿಲ್ಲ
ಹೋದಳು
ಹೋರಾಟಗಾರ
##4ರ
##BI
##ews
##in
##ಂಕಾದ
##ಂಗಾರ
##ಂಗ್ಲ
##ಂಚರ್
##ಂದಾಗಿ
##ಂದಿನಿಂದ
##ಂದಿಸುತ್ತೇನೆ
##ಂಭತ್ತು
##ಎಂಆರ್
##ಎಂಸಿ
##ಐಎಂ
##ಕಿದ
##ಕುಗಳನ್ನು
##ಕೊಳ್ಳಬೇಕು
##ಕೊಳ್ಳಲಿದೆ
##ಕೊಳ್ಳಸಾಧ್ಯವಿದೆ
##ಕ್ಕಟ್ಟಿನ
##ಕ್ಕಳ
##ಕ್ಷರ್
##ಗಳಲ್ಲೇ
##ಗಾಗಲಿ
##ಗಾಗಲೇ
##ಗಾರ್ತಿ
##ಗೀತೆ
##ಗುತ್ತೇವೆ
##ಗೂಡಿದೆ
##ಗೊಳಿಸುತ್ತದೆ
##ಗೊಳಿಸಿದ್ದರು
##ಗೋಲು
##ಗ್ಗಟ್ಟು
##ಚರಣೆ
##ಚಿಸುತ್ತೇನೆ
##ಜನಗಳನ್ನು
##ಟೋನ್
##ಡಕು
##ಡಗಿ
##ಡನೆ
##ಡಲ
##ಡುತ್ತಿದ್ದು
##ಣಕ್ಕೆ
##ಣ್ಣನ್ನು
##ಣ್ಣು
##ತಮ್ಮ
##ತಿರುವ
##ತೆಯೇ
##ತ್ತಲ್
##ತ್ತಿರಬಹುದು
##ತ್ತುಗಳನ್ನು
##ತ್ರದ
##ಥರ್
##ಥೋಡ್
##ದಾನಕ್ಕೆ
##ದೀಪ್
##ದ್ದೇನು
##ದ್ದೇನೂ
##ದ್ಧಿ
##ಧನಾ
##ನಗೇನೂ
##ನರಾಗಿದ್ದಾರೆ
##ನೀಗ
##ಪಡಬೇಕು
##ಪಲ್ಲಿ
##ಪಾದ
##ಪಾದಿ
##ಪಿಎಲ್
##ಪಿಲ್ಲ
##ಪ್ಪರ್
##ಬಾಂಗ್
##ಬಾಹಿರ
##ಬಿಯ
##ಬಿಯಾದ
##ಬುಲ್
##ಮಾಡಿಕೊಂಡು
##ಮಾಡುತ್ತಾರೆ
##ಮಾಡುವೆನು
##ಮಿಸಿ
##ಮಿಸುತ್ತಿದ್ದಾರೆ
##ಯಂದು
##ಯಿಸ್
##ಯುತ್ತಿದ್ದೇವೆ
##ಯೂಟ್
##ಯ್ಯದ್
##ರಗಿ
##ರಬಲ್ಲದು
##ರಲಿದ್ದಾರೆ
##ರವರ
##ರಸ್ಸು
##ರಾಗಿಯೂ
##ರಿಗಳ
##ರಿಯನ್ನು
##ರಿಸಿದ್ದಾರೆ
##ರುತ್ತಿದ್ದರು
##ರೆಯಲ್ಲಿ
##ರೈ
##ರ್ವಹಿಸಬೇಕು
##ರ್ವಹಿಸಿದರು
##ರ್ಹ
##ಲಾಯ್ತು
##ಲುಬು
##ಳಿಯಲು
##ಳಿಯಿತು
##ವಂ
##ವರ್ಧಕ
##ವಲ
##ವಷ್ಟೆ
##ವಾಗಲೂ
##ವಾದವನ್ನು
##ವಿಜ್ಞಾನ
##ವಿಯಲ್ಲಿ
##ವೀ
##ವೆತ್ತ
##ಶಾಲೆ
##ಷದ
##ಷ್ಟಿವೆ
##ಷ್ಠೆ
##ಸಬೇಕಾಗಿತ್ತು
##ಸರಿಸುವ
##ಸಲೇಬೇಕು
##ಸಸಾಧ್ಯವಿದೆ
##ಸಿಬಿ
##ಸುಫ್
##ಸುವೆನು
##ಸೆದು
##ಹಗಳನ್ನು
##ಹಾರಿ
##ಹಿಸಲಾಗುವುದು
##ಹೋಗುತ್ತದೆ
##ಹೋದನು
##ಾಗುತ್ತಿವೆ
##ಾಘಾತ
##ಾಜ್ಞೆ
##ಾನಂತರ
##ಾರವಾಗಿ
##ಾಲಯದ
##ಿತದ
##ಿತವಾಗಿ
##ಿರುವುದನ್ನು
##ಿರ್ಮಿತ
##ಿಸಲಾಗಿಲ್ಲ
##ಿಸುವರು
##ೀಣ
##ೀಲು
##ುತ್ತಿದ್ದೆ
##ುದೆ
##ುರಿಯಿರಿ
##ುರ್
##ುವವರು
##ೃತಾ
##ೆನ್ಯೂ
##ೇವೆ
##ೇಕಲ್ಲ
##ೇಳೋಣ
##ೊಂದಕ್ಕೆ
##ೊಳಕ್ಕೆ
##ೋಚಿತ
##ೋಟೋ
##ೋನನು
##ೋಲನ
##ೋಹನ್
##್ತಿದ್ದೇನೆ
##್ಯಾಕ್ಸ್
##್ಯುಸಿ
##್ರೀ
##ೕನ
##ೖಕೆ
05
100ರಷ್ಟು
145
2010
2012
240
ಅಂಕಗಳ
ಅಂಡಮಾನ್
ಅಂತರವನ್ನು
ಅನುಪಮ್
ಅಮೂಲ್ಯವಾದ
ಅಮೋಘ
ಅರಬ್
ಅಲ್ಲಿಯ
ಅಷ್ಟಾಗಿ
ಆಗ್ನೇಯ
ಆದರ್ಶ
ಆದುದರಿಂದಲೇ
ಆಯ್ಕೆಯು
ಇಂಜಿನ್
ಇಂದಿನಿಂದ
ಇದೆಲ್ಲವೂ
ಇದ್ದಲ್ಲಿ
ಇಮೇಲ್
ಉತ್ತರಕ್ಕೆ
ಉದಾಹರಣೆಗಾಗಿ
ಉದ್ಯಮದ
ಉಪಕರಣ
ಉಳಿಸುವ
ಎಂಬವರು
ಎಂಬುದರಲ್ಲಿ
ಎಐಎಡಿಎಂಕೆ
ಎದುರಿಸಬೇಕಾಗುತ್ತದೆ
ಎನ್ನುವುದರ
ಏನನ್ನಾದರೂ
ಏನೇನೋ
ಒಪ್ಪಂದವನ್ನು
ಒಬಾಮ
ಒಳಚರಂಡಿ
ಕಟ್ಟೆಚ್ಚರ
ಕಡೆಯವರು
ಕಣಿವೆ
ಕರುಳಿನ
ಕರೆಯಲಾಗಿದೆ
ಕಲೆಯ
ಕಾಂಗ್ರೇಸ್
ಕಾಯ್ದೆಯನ್ನು
ಕಾಲಿನ
ಕಾವ್ಯ
ಕುಟುಂಬದವರ
ಕುದಿಯುವ
ಕೆನರಾ
ಕೆಳಕಂಡ
ಕೈಗಾರಿಕೆಗಳು
ಕೊಲೆಸ್ಟರಾಲ್
ಕೊಳವೆ
ಕೋಟ
ಕ್ವೀನ್
ಗುಡಾರದ
ಗುಡುಗು
ಗುರುತನ್ನು
ಗೃಹಿಣಿ
ಗೆಳತಿ
ಗೌರವದಿಂದ
ಘಟನೆಯು
ಘನತೆ
ಚೆನ್ನೈನಲ್ಲಿ
ಜನರಿಗೂ
ಜನರಿದ್ದಾರೆ
ಜಪಾನಿನ
ಜಾಗವನ್ನು
ಜಾರಿಯಲ್ಲಿದೆ
ಜೀನ್
ಟಚ್
ಟ್ಯಾಪ್
ಡಾನ್
ತಂಡದಿಂದ
ತಂಪು
ತಕ್ಷಣಕ್ಕೆ
ತಪ್ಪಾದ
ತಾಲಿಬಾನ್
ತಾಲ್ಲೂಕಿನ
ತಿಳಿಯಲಿಲ್ಲ
ತಿಳಿಸಿತ್ತು
ತಿಳಿಸುವ
ತುಂಬಿದ
ತೆರೆಯ
ತೊಂದರೆಯಾಗುತ್ತಿದೆ
ತ್ರಿಪಾಠಿ
ದಂತ
ದಲಿತರ
ದಾಖಲಿಸಲು
ದೇವಾಲಯಗಳು
ಧನ್ಯವಾದಗಳನ್ನು
ನಗರಗಳ
ನಮಗಿದೆ
ನಯವಾದ
ನವೀಕರಣ
ನಿಂತಿದ್ದ
ನಿಗೂಢ
ನಿಲ್ಲುವುದಿಲ್ಲ
ನಿಷ್ಠೆ
ನೋಡುತ್ತಿದ್ದೇನೆ
ಪಕ್ಷಿ
ಪಡೆಯುತ್ತಿರುವ
ಪದ್ಮಶ್ರೀ
ಪರಂಪರೆಯನ್ನು
ಪರಸ್ಪರರ
ಪರಿಕಲ್ಪನೆ
ಪರಿಗಣಿಸಲು
ಪರಿಹಾರಕ್ಕೆ
ಪರೀಕ್ಷಿಸಿ
ಪರೋಕ್ಷವಾಗಿ
ಪಾಪ್
ಪಾಸ್ವರ್ಡ್
ಪುರುಷರಿಗೆ
ಪೂರ್ವದಲ್ಲಿ
ಪ್ರಧಾನ್
ಪ್ರಪಂಚದಲ್ಲಿ
ಪ್ರಸಂಗ
ಫರ್ಡ್
ಫೆಡರಲ್
ಫೋಕ್ಸ್ವ್ಯಾಗನ್
ಬಡ್ತಿ
ಬಯಸಿದ್ದರು
ಬಯಸುತ್ತೀರಾ
ಬರುತ್ತಿದ್ದಾರೆ
ಬರುತ್ತಿರಲಿಲ್ಲ
ಬರುತ್ತೇನೆ
ಬಲೆಗೆ
ಬಳಲುತ್ತಿರುವ
ಬಳಿಯ
ಬಾಕ್ಸರ್
ಬಿಹಾರ್
ಬೀಳುತ್ತದೆ
ಬೆಟ್ಟ
ಬೆಳೆಗೆ
ಬೇಂದ್ರೆ
ಬ್ರೇಕಿಂಗ್
ಭಕ್ತಿ
ಭಯಂಕರ
ಭಾರತದಲ್ಲಿರುವ
ಭಾಷಾಂತರ
ಭಿನ್ನವಾಗಿರುತ್ತವೆ
ಭೇಟಿಯಾಗಲು
ಮತ್ತೂ
ಮಹಾಜನ್
ಮಾಡಬೇಕೆಂಬ
ಮಾಡಿದಳು
ಮಾಡುತ್ತಿದ್ದೆ
ಮಾದರಿಗಳಲ್ಲಿ
ಮಾನ
ಮಾರ್ಗವು
ಮಿಥಾಲಿ
ಮೀನಾಕ್ಷಿ
ಮುಕ್ತಾಯ
ಮುಗಿದು
ಮೂರನೇ
ಮೊಡವೆ
ಮೋಡ
ಯಾಜಕರು
ಯೋಧರನ್ನು
ರಣದೀಪ್
ರವಾನಿಸಿದ್ದಾರೆ
ರಾಬಿನ್
ರಾಸ್
ರಿಯಾ
ರೆಕಾರ್ಡ್
ರೇಸಿಂಗ್
ರೋಗವನ್ನು
ಲೆಫ್ಟಿನೆಂಟ್
ವಂದನೆ
ವರ
ವರ್ಗದವರು
ವಸಂತ
ವಾಕ್
ವಾರ್ಷಿಕವಾಗಿ
ವಾಹನದಲ್ಲಿ
ವಿಕ್ಟೋರಿಯಾ
ವಿಜಯನಗರ
ವಿಲಿಯಮ್ಸ್
ವಿಲೀನ
ವಿವರಿಸಲಾಗಿದೆ
ವೃದ್ಧರು
ವೇಸ್
ವೈಮಾನಿಕ
ವ್ಯಾಪಾರದ
ಶಾಟ್
ಶಿಲಾನ್ಯಾಸ
ಶಿಶು
ಸಂಖ್ಯೆಗೆ
ಸಂಗ್ರಹಿಸಲು
ಸಂಶೋಧನೆಯ
ಸಂಸಾರ
ಸಂಸ್ಥೆಯನ್ನು
ಸಪೋರ್ಟ್
ಸಮನ್ಸ್
ಸಮುದ್ರದಲ್ಲಿ
ಸರಕುಗಳ
ಸರಿಸುಮಾರು
ಸರ್ಕಿಟ್
ಸವಾರರಿಗೆ
ಸಾಕ್ಷಿಗಳನ್ನು
ಸಾಗುತ್ತದೆ
ಸಾರಲು
ಸಾವನ್ನಪ್ಪಿದ
ಸಿಡಿಲು
ಸಿದ್ದು
ಸಿನಿಮಾಗಳ
ಸುಧಾ
ಸುರಂಗ
ಸೇನೆಗೆ
ಸೊಗಸಾದ
ಸೋರಿಕೆ
ಸ್ಥಗಿತಗೊಂಡಿದೆ
ಸ್ಥಾಯಿ
ಸ್ವಾಭಾವಿಕ
ಸ್ವೀಕರಿಸಿ
ಹಾಕಿಕೊಂಡು
ಹಿಂಸಾತ್ಮಕ
ಹಿಲ್
ಹೆಲ್ಮೆಟ್
ಹೆಸರುವಾಸಿಯಾಗಿದೆ
ಹೇರಳವಾಗಿ
ಹೇಳಿದ್ದ
ಹೇಳಿರುವ
ಹೊರಕ್ಕೆ
ಹೋಗಿದ್ದ
ಹ್ಯಾಮ್
##6ರಲ್ಲಿ
##ly
##nt
##ಂಗೇರಿ
##ಂಟಿಂಗ್
##ಂದನ
##ಂದೂಡಿಕೆ
##ಂಧ್ಯಾ
##ಂಪಿಗೆ
##ಂಬಗಳು
##ಂಶಗಳು
##ಂಸಿ
##ಕಥೆ
##ಕನೆಯ
##ಕರಿಸಲಾಯಿತು
##ಕರೂ
##ಕಾಟ್
##ಕೂಲಗಳನ್ನು
##ಕೊಂಡಿರುವ
##ಕೊಟ್ಟಿತು
##ಕ್ಷಣಾ
##ಗರಿ
##ಗಲ
##ಗಳೆಲ್ಲ
##ಗೊಂಡಿದ್ದವು
##ಗೊಳ್ಳುತ್ತಿಲ್ಲ
##ಚಿಸಲಾಗಿತ್ತು
##ಚೂರಿ
##ಜಿಸುವುದು
##ಜ್ಜ
##ಜ್ಞೆ
##ಟರ್ನ್ಸ್
##ಟೇಬಲ್
##ಡಗಿನ
##ಡಗಿನಲ್ಲಿ
##ಡಬೇಕಿತ್ತು
##ಡಲೆ
##ಡೀಸ್
##ತನೆ
##ತಿಗೂ
##ತೃಪ್ತ
##ತ್ಥಾನದ
##ಥೊಲಿಕ್
##ದಂಡ
##ದಲ್
##ದಲ್ಲದೆ
##ದಲ್ಲವೇ
##ದಾನದ
##ದೊಂದೇ
##ದೊಳಗೆ
##ದ್ದಾರಂತೆ
##ಧನೆಗೆ
##ಧಿಸಬಹುದು
##ನಿಧ್ಯ
##ನಿಯಾದ
##ನಿರ್ವಹಣಾಧಿಕಾರಿ
##ನುಸಾರ
##ನೆಗುದಿಗೆ
##ನೇಶ್ವರ
##ನೇಷ್ಯಾ
##ಪಣ್ಣ
##ಪನೆ
##ಪ್ಪಣಿಗಳು
##ಪ್ಪಳ
##ಬಿದ್ದಿಲ್ಲ
##ಬೆನ್
##ಭವಿಗಳ
##ಭಾಗ್ಯ
##ಮಾರ್ಕ್
##ಮಾಲ್
##ಮಿಗೆ
##ಮಿಸಿದ
##ಮೀಟರ್
##ಯಿಸಲು
##ಯೋಜಕ
##ರಫ್
##ರಾಗುವುದು
##ರಾಳ
##ರಿಕದ
##ರಿಸು
##ರಿಸುತ್ತೇವೆ
##ರೀಯ
##ರುಳು
##ರೂಂ
##ರೂಪ
##ರೆಸ್ಟಿಂಗ್
##ರ್ಜಿ
##ರ್ವಹಿಸಿ
##ರ್ಷಲ್
##ಲಾಗ್
##ಲುವನ್ನು
##ಲೇಟರ್
##ಲೋಕನ
##ಲ್ಲಿತ್ತು
##ಲ್ಲೊಂದು
##ವದ
##ವನಾದ
##ವರಿಗಾಗಿ
##ವಾದ್ದರಿಂದ
##ವಿಎಂ
##ವಿಗೂ
##ವಿಬ್ಬರು
##ವೀಶ್
##ಶಿಷ್ಟ್ಯಗಳು
##ಶೇಖರ
##ಶ್ವರ್
##ಶ್ವಿನಿ
##ಷನ
##ಷೆಯನ್ನು
##ಸಗಳು
##ಸಬೇಕಿರುವ
##ಸಾರ್
##ಸಿಕೊಂಡಿದ್ದರು
##ಸಿದರೂ
##ಸುವಂಥ
##ಸ್ಸಿನಿಂದ
##ಹವನ್ನು
##ಹಿಸುತ್ತಿರುವ
##ಹೊತ್ತು
##ಾಂಶಗಳನ್ನು
##ಾಡಬೇಕು
##ಾಡುತ್ತಿದ್ದಾರೆ
##ಾತ್ಮಕವಾಗಿ
##ಾತ್ಮವನ್ನು
##ಾಥ್
##ಾದದ
##ಾಬ್
##ಾಭಿವೃದ್ಧಿ
##ಾಯ್ಸ್
##ಾಲನಾ
##ಿಕಿ
##ಿಯೋಗ
##ಿಸುತ್ತಾಳೆ
##ೀಕರಿಸಿದೆ
##ೀರಿದ
##ುತ್ತಿದ್ದೇವೆ
##ುತ್ತೆ
##ುದಲ್ಲದೆ
##ುಳ್ಳ
##ುವುದನ್ನು
##ುಸಿ
##ೃಂದ
##ೃತಿಕ
##ೆಂದ
##ೆತ್
##ೆಯಲು
##ೆಯುತ್ತಾರೆ
##ೇಕೆಂದು
##ೇಯತೆ
##ೇಳಲ್ಲ
##ೊಬ್ಬರಿಗೆ
##ೋಗಿ
##ೋತ
##ೋತ್ಪಾದನಾ
##್ಕೊಂದು
##್ಕೋಸ್ಕರ
##್ತನ್ನು
##್ತಿತ್ತು
##್ತಿರಲಿಲ್ಲ
##್ದೆವು
##್ಪಿಗೆ
##್ಯೂಸ್
##್ರಿಕ
##್ರುವ
##್ರೆಂಟ್
##್ಲ್ಯಾನ್
##ೕಳಲು
000ಕ್ಕೂ
04
30ರ
5000
5G
ಅಂತ್ಯದ
ಅಂಶವು
ಅದೇನೆಂದರೆ
ಅದ್ದೂರಿ
ಅಧ್ಯಕ್ಷೀಯ
ಅನೇಕರ
ಅಭಿನಂದಿಸಿದ್ದಾರೆ
ಅಭ್ಯರ್ಥಿಗೆ
ಅರಣ್ಯದಲ್ಲಿ
ಅರಮನೆಯ
ಅಲಿಖಾನ್
ಅಲ್ಲವೆ
ಅವರೇನು
ಅಷ್ಟುಮಾತ್ರವಲ್ಲದೆ
ಅಸ್ತಿತ್ವದಲ್ಲಿದೆ
ಅಸ್ಸಾಂನಲ್ಲಿ
ಆಗಿದ್ದವು
ಆಲಯದ
ಆಸ್ತಿಯ
ಇಕ್ಬಾಲ್
ಇದಕ್ಕೆಲ್ಲಾ
ಇದನ್ನೆಲ್ಲಾ
ಇದೇ
ಇಬ್ಬರಿಗೆ
ಇರಿಸಲಾಗಿದೆ
ಇರುವಾಗ
ಇವಳು
ಇಷ್ಟಪಡುವುದಿಲ್ಲ
ಇಷ್ಟೆಲ್ಲ
ಈಗಾಗಲೇ
ಈಶ್ವರ
ಉತ್ಪಾದನೆಗೆ
ಉರಿ
ಉರಿಯೂತದ
ಎಂಬಲ್ಲಿ
ಎಂಬುದಂತೂ
ಎದುರಿಸಿದ
ಏನೋ
ಏರ್ಪಟ್ಟಿದೆ
ಏಲಕ್ಕಿ
ಒಗ್ಗಟ್ಟಿನಿಂದ
ಒಬೆರಾಯ್
ಒಬ್ಬರಿಗೆ
ಓದಬೇಕು
ಕಡೆಗೂ
ಕಲಬುರಗಿ
ಕಾಣಲು
ಕಾರಣಾಂತರಗಳಿಂದ
ಕಾರ್ಗಿಲ್
ಕಾರ್ಯಕರ್ತರಿಗೆ
ಕಾರ್ಯಗಳ
ಕಿಮೀ
ಕುಸಿದ
ಕೆರೆಯಲ್ಲಿ
ಕೆಳಕ್ಕೆ
ಕೇಂದ್ರಗಳ
ಕೇಕ್
ಕೋಲ್ಕತ್ತ
ಕ್ಯಾಮೆರಾವು
ಖಾಯಂ
ಗಂಟೆಗಳ
ಗಮನದಲ್ಲಿಟ್ಟುಕೊಂಡು
ಗಾಂಧಿಯನ್ನು
ಗಾತ್ರವನ್ನು
ಗಾರ್ಡ್
ಗುಂಡಿಯನ್ನು
ಗುಣಮುಖರಾಗಿ
ಗೆಲ್ಲುತ್ತೇವೆ
ಗ್ರೀಸ್
ಗ್ರೇಡ್
ಗ್ರ್ಯಾಂಡ್
ಗ್ಲೋಬಲ್
ಚಾಮರಾಜನಗರ
ಚಿತ್ರಕ್ಕಿದೆ
ಚಿರತೆ
ಜಂಕ್ಷನ್
ಜತೆಯಾಗಿ
ಜನನ
ಜನಸಾಮಾನ್ಯರ
ಜನಾಂಗೀಯ
ಜಯಾ
ಜೀವಿಗಳ
ಜೀವಿಸಲು
ಜೋಸ್
ಟಿವಿಯಲ್ಲಿ
ಟ್ವಿಟ್
ಡು
ಢಿಕ್ಕಿ
ತಪ್ಪಿದೆ
ತಾಪಂ
ತೋರಿಸುತ್ತವೆ
ತ್ರಿಪುರಾ
ದತ್ತ
ದತ್ತಾ
ದನು
ದಾಖಲಾಗಿರುವ
ದಾಖಲಿಸಲಾಯಿತು
ದಿಕ್ಕು
ದಿನನಿತ್ಯ
ದಿನಾಚರಣೆಯ
ದಿಲ್ಲಿಯ
ದಿಲ್ಲಿಯಲ್ಲಿ
ದುಃಖದ
ದುಬೆ
ದುಷ್ಪರಿಣಾಮ
ದೃಢವಾದ
ದೃಶ್ಯಗಳನ್ನು
ದೇವೇಗೌಡರ
ದೊರೆಯುವ
ಧರ್ಮಗಳ
ನಡುವೆಯೇ
ನಡೆಯಬೇಕಿದೆ
ನಡೆಸುತ್ತದೆ
ನಡೆಸುತ್ತಾರೆ
ನವದೀಪ್
ನಿಂತಿರುವ
ನಿಕಟವಾಗಿ
ನಿಫ್ಟಿ
ನಿಯೋಜನೆ
ನೀಡಿದ್ದಾನೆ
ನೆಮ್ಮದಿಯ
ನೇಪಾಳದ
ನ್ಯಾಯದ
ಪಟ್ಟಣವನ್ನು
ಪಡೆದುಕೊಂಡ
ಪಡೆಯುತ್ತಿದ್ದರು
ಪರಂಪರೆಯ
ಪರಿಶೀಲಿಸಲು
ಪರೋಕ್ಷ
ಪಾಕಿಸ್ತಾನದಿಂದ
ಪಾಲಿಕೆಯ
ಪುತ್ರಿಯನ್ನು
ಪುತ್ರಿಯರನ್ನು
ಪುನರ್ವಸತಿ
ಪೂಜಾರ
ಪೂರೈಸುವ
ಪೋಕ್ಸೋ
ಪೋರ್ಟಲ್
ಪೋಷಣೆ
ಪ್ರಕಾರದ
ಪ್ರಜಾಪ್ರಭುತ್ವಕ್ಕೆ
ಪ್ರಣಯ
ಪ್ರದರ್ಶನಗಳು
ಪ್ರಬಂಧ
ಪ್ರಯತ್ನಿಸುತ್ತಿದ್ದಾರೆ
ಪ್ರವಾದಿಯಾದ
ಪ್ರಾಧ್ಯಾಪಕ
ಪ್ರೋ
ಫಾಲೋವರ್ಸ್
ಫೋನಿನಲ್ಲಿ
ಫ್ರೀ
ಬಂಡಾಯ
ಬಂದದ್ದು
ಬಂದೇ
ಬರಲಿರುವ
ಬರಲೇ
ಬರೆಯುವುದು
ಬಳಕೆದಾರರನ್ನು
ಬಾಲ್ಯ
ಬಿದ್ದರೆ
ಬೀರುವುದಿಲ್ಲ
ಬೆಂಬಲದೊಂದಿಗೆ
ಬೇಸತ್ತು
ಬ್ಯಾಕ್ಟೀರಿಯಾ
ಬ್ರೌನ್
ಭಿನ್ನಮತ
ಮಟ್ಟಗಳನ್ನು
ಮನುಷ್ಯರಿಗೆ
ಮರಣಕ್ಕೆ
ಮರಳಿದ
ಮರೆಯಬೇಡಿ
ಮಾಡಬೇಡ
ಮಾಡಿಸಿ
ಮಾತನಾಡಲಿದ್ದಾರೆ
ಮಾತುಗಳಲ್ಲಿ
ಮಾನವೀಯ
ಮಾರ್ಕ
ಮಾರ್ಗದರ್ಶಿ
ಮಾಲ್ಡೀವ್ಸ್
ಮುಂಗಡ
ಮುಂದಾಗಬೇಕು
ಮುಂದೂಡಲಾಗಿದೆ
ಮೇಘಾಲಯ
ಮೈಕೆಲ್
ಮೊಹಮದ್
ಮೌರ್ಯ
ಯನ್ನೂ
ಯುಎಇ
ಯೂರೋಪ್
ರಚಿಸಿದೆ
ರಮ್ಯಾ
ರಾಯುಡು
ರಾಷ್ಟ್ರಗೀತೆ
ರ್ಯಾಲಿ
ಲಭ್ಯವಾಗಿದೆ
ಲಭ್ಯವಿರಲಿದೆ
ವರದಿಗಳನ್ನು
ವರ್ಗಗಳ
ವರ್ಸಸ್
ವಲಯಕ್ಕೆ
ವಿದ್ಯಾರ್ಥಿಗಳಲ್ಲಿ
ವಿದ್ಯೆ
ವಿಧಾನಗಳ
ವಿಧಿಸಬೇಕು
ವಿಧೇಯಕ
ವಿಫಲವಾಯಿತು
ವಿಮೋ
ವಿವಾದವನ್ನು
ವಿವಾಹಿತ
ವಿಶಾಲವಾದ
ವಿಶಾಲ್
ವಿಶ್ವಾಸಾರ್ಹ
ವ್ಯತ್ಯಯ
ವ್ಯಾಪ್ತಿಯನ್ನು
ಶರೀರದ
ಶೃತಿ
ಶ್ರದ್ಧಾಂಜಲಿ
ಸಂಗ್ರಹಣೆ
ಸಂಚಾಲಕ
ಸಂಜನಾ
ಸಂಜೆಯ
ಸಂತ
ಸಂಭವಿಸುತ್ತವೆ
ಸಂಭ್ರಮಿಸಿದರು
ಸಂಶೋಧನೆಗಳು
ಸಂಹಿತೆಯ
ಸಕ್ರಿಯವಾಗಿ
ಸಚಿವರಾಗಿದ್ದರು
ಸದಾನಂದಗೌಡ
ಸಮಯದಲ್ಲೂ
ಸಮರ್ಪಣೆ
ಸಮೂಹದ
ಸರಸ್ವತಿ
ಸಹಾಯಮಾಡುವುದು
ಸಾಗಿ
ಸಾಗಿಸುವ
ಸಾಧ್ಯತೆಯನ್ನು
ಸಾಲಿಗೆ
ಸಿದ್ಧರಾಮಯ್ಯ
ಸಿಲುಕಿರುವ
ಸುತ್ತು
ಸುದ್ದಿಗೋಷ್ಠಿ
ಸುಮನ್
ಸೂರತ್
ಸೈ
ಸೈನ್ಯದ
ಸೊಸೆ
ಸೌಂಡ್
ಸೌಲನ
ಸ್ಟ್ರೈಕ್
ಸ್ಥಾನಗಳಿಗೆ
ಸ್ವಯಂಚಾಲಿತವಾಗಿ
ಸ್ವಾತಂತ್ರ್ಯವನ್ನು
ಸ್ವೀಡನ್
ಹಕ್ಕಿದೆ
ಹಾರ್ಟ್
ಹಾಲನ್ನು
ಹಾವೇರಿ
ಹಿಡಿದಿದ್ದಾರೆ
ಹಿನ್ನಲೆ
ಹೀಗಾದರೆ
ಹುಡುಗಿಯರು
ಹೇಳಿದ್ದನ್ನು
ಹೇಳುತ್ತಿದ್ದೇನೆ
ಹೊರಹೊಮ್ಮಿದೆ
##!
##"
###
##$
##%
##&
##'
##(
##)
##*
##+
##,
##-
##.
##/
##:
##<
##=
##>
##?
##@
##J
##Q
##X
##Y
##Z
##[
##\
##]
##^
##_
##`
##j
##q
##z
##{
##|
##}
##~
##¡
##£
##¤
##§
##¨
##©
##ª
##«
##®
##¯
##°
##²
##³
##´
##¶
##·
##¸
##º
##»
##¼
##½
##¾
##¿
##À
##Á
##Â
##Ã
##Å
##Ç
##É
##Ì
##Í
##Î
##Ï
##Õ
##Ö
##×
##Ø
##Ü
##à
##á
##ä
##æ
##ç
##é
##ì
##í
##ï
##ó
##ö
##÷
##ø
##û
##ü
##ý
##ā
##ć
##ī
##ĸ
##Ō
##ō
##Œ
##š
##ɐ
##ɒ
##ɔ
##ə
##ɛ
##ɜ
##ɡ
##ɪ
##ɹ
##ʊ
##ʼ
##ˈ
##ˌ
##ː
##́
##̅
##Δ
##Ω
##ά
##ί
##α
##β
##γ
##δ
##ε
##θ
##ι
##κ
##λ
##μ
##ο
##π
##ρ
##ς
##σ
##τ
##υ
##φ
##χ
##ω
##ϕ
##а
##в
##к
##м
##н
##о
##с
##т
##ה
##ו
##י
##ا
##ت
##ر
##ش
##ض
##ق
##م
##ن
##و
##گ
##ہ
##ی
##ܘ
##ܝ
##ܣ
##ܩ
##ܪ
##ं
##अ
##इ
##ए
##क
##ग
##छ
##ज
##ट
##ठ
##ड
##ढ
##ण
##त
##द
##ध
##न
##प
##ब
##म
##य
##र
##ल
##व
##स
##ह
##ा
##ि
##ी
##ु
##ू
##े
##ो
##्
##।
##॥
##অ
##আ
##ঠ
##ত
##দ
##ন
##প
##ম
##য
##স
##়
##া
##ি
##ী
##্
##ৰ
##ச
##த
##ப
##ர
##ள
##ா
##ி
##ு
##்
##ಅ
##ಆ
##ಈ
##ಉ
##ಊ
##ಋ
##ಌ
##ಏ
##ಔ
##ಙ
##ಛ
##ಝ
##ಞ
##ಱ
##಻
##಼
##ಽ
##ೃ
##ೄ
##ೞ
##೧
##೨
##೩
##೪
##೫
##೬
##೭
##೮
##೯
##೵
##ം
##ക
##ട
##ഥ
##ന
##മ
##ള
##ാ
##ി
##ു
##ൂ
##്
##ർ
##ค
##ง
##ต
##ธ
##ร
##ไ
##์
##ṁ
##ṇ
##ṣ
##ἀ
##Ἑ
##ῖ
## 
##–
##—
##‘
##’
##‚
##“
##”
##„
##•
##…
##′
##″
##₨
##€
##₹
##№
##→
##↓
##∑
##−
##√
##∠
##≈
##≪
##⏎
##□
##▪
##►
##◆
##○
##♦
##♪
##✍
##✓
##✔
##❍
##❏
##❑
##❖
##❤
##〖
##〗
##七
##中
##制
##医
##号
##合
##団
##国
##德
##武
##神
##舟
##號
##軍
##連
##際
##
##
##
##
##
##
##
##
##
##
##
##
##
##樂
##️
##💬
##😄
##😅
